{
  "version": "1.0",
  "truncation": null,
  "padding": null,
  "added_tokens": [
    {
      "id": 0,
      "content": "<UNK>",
      "single_word": false,
      "lstrip": false,
      "rstrip": false,
      "normalized": false,
      "special": true
    },
    {
      "id": 1,
      "content": "<EMPTY>",
      "single_word": false,
      "lstrip": false,
      "rstrip": false,
      "normalized": false,
      "special": true
    }
  ],
  "normalizer": null,
  "pre_tokenizer": {
    "type": "ByteLevel",
    "add_prefix_space": false,
    "trim_offsets": true,
    "use_regex": false
  },
  "post_processor": null,
  "decoder": null,
  "model": {
    "type": "BPE",
    "dropout": null,
    "unk_token": "<UNK>",
    "continuing_subword_prefix": null,
    "end_of_word_suffix": null,
    "fuse_unk": false,
    "byte_fallback": false,
    "ignore_merges": false,
    "vocab": {
      "<UNK>": 0,
      "<EMPTY>": 1,
      "!": 2,
      "\"": 3,
      "#": 4,
      "$": 5,
      "%": 6,
      "&": 7,
      "'": 8,
      "(": 9,
      ")": 10,
      "*": 11,
      "+": 12,
      ",": 13,
      "-": 14,
      ".": 15,
      "/": 16,
      "0": 17,
      "1": 18,
      "2": 19,
      "3": 20,
      "4": 21,
      "5": 22,
      "6": 23,
      "7": 24,
      "8": 25,
      "9": 26,
      ":": 27,
      ";": 28,
      "<": 29,
      "=": 30,
      ">": 31,
      "?": 32,
      "@": 33,
      "A": 34,
      "B": 35,
      "C": 36,
      "D": 37,
      "E": 38,
      "F": 39,
      "G": 40,
      "H": 41,
      "I": 42,
      "J": 43,
      "K": 44,
      "L": 45,
      "M": 46,
      "N": 47,
      "O": 48,
      "P": 49,
      "Q": 50,
      "R": 51,
      "S": 52,
      "T": 53,
      "U": 54,
      "V": 55,
      "W": 56,
      "X": 57,
      "Y": 58,
      "Z": 59,
      "[": 60,
      "\\": 61,
      "]": 62,
      "^": 63,
      "_": 64,
      "`": 65,
      "a": 66,
      "b": 67,
      "c": 68,
      "d": 69,
      "e": 70,
      "f": 71,
      "g": 72,
      "h": 73,
      "i": 74,
      "j": 75,
      "k": 76,
      "l": 77,
      "m": 78,
      "n": 79,
      "o": 80,
      "p": 81,
      "q": 82,
      "r": 83,
      "s": 84,
      "t": 85,
      "u": 86,
      "v": 87,
      "w": 88,
      "x": 89,
      "y": 90,
      "z": 91,
      "{": 92,
      "|": 93,
      "}": 94,
      "~": 95,
      "¡": 96,
      "¢": 97,
      "£": 98,
      "¤": 99,
      "¥": 100,
      "¦": 101,
      "§": 102,
      "¨": 103,
      "©": 104,
      "ª": 105,
      "«": 106,
      "¬": 107,
      "®": 108,
      "¯": 109,
      "°": 110,
      "±": 111,
      "²": 112,
      "³": 113,
      "´": 114,
      "µ": 115,
      "¶": 116,
      "·": 117,
      "¸": 118,
      "¹": 119,
      "º": 120,
      "»": 121,
      "¼": 122,
      "½": 123,
      "¾": 124,
      "¿": 125,
      "Â": 126,
      "Ã": 127,
      "Ä": 128,
      "Å": 129,
      "Æ": 130,
      "Ç": 131,
      "É": 132,
      "Ê": 133,
      "Ì": 134,
      "Î": 135,
      "Ï": 136,
      "Ð": 137,
      "Ñ": 138,
      "Ø": 139,
      "Ù": 140,
      "Ý": 141,
      "á": 142,
      "â": 143,
      "ã": 144,
      "ä": 145,
      "å": 146,
      "æ": 147,
      "ç": 148,
      "è": 149,
      "é": 150,
      "ê": 151,
      "ë": 152,
      "ì": 153,
      "í": 154,
      "ï": 155,
      "ð": 156,
      "ĉ": 157,
      "Ċ": 158,
      "Ġ": 159,
      "Ģ": 160,
      "ģ": 161,
      "Ĥ": 162,
      "ĥ": 163,
      "Ħ": 164,
      "ħ": 165,
      "Ĩ": 166,
      "ĩ": 167,
      "Ī": 168,
      "ī": 169,
      "Ĭ": 170,
      "ĭ": 171,
      "Į": 172,
      "į": 173,
      "İ": 174,
      "ı": 175,
      "Ĳ": 176,
      "ĳ": 177,
      "Ĵ": 178,
      "ĵ": 179,
      "Ķ": 180,
      "ķ": 181,
      "ĸ": 182,
      "Ĺ": 183,
      "ĺ": 184,
      "Ļ": 185,
      "ļ": 186,
      "Ľ": 187,
      "ľ": 188,
      "Ŀ": 189,
      "ŀ": 190,
      "Ł": 191,
      "ł": 192,
      "Ń": 193,
      "er": 194,
      "tĊ": 195,
      "eĊ": 196,
      "es": 197,
      "in": 198,
      "\"Ċ": 199,
      "on": 200,
      "sĊ": 201,
      "rĊ": 202,
      "at": 203,
      "st": 204,
      "en": 205,
      "al": 206,
      "ro": 207,
      "ing": 208,
      "re": 209,
      "il": 210,
      "ct": 211,
      "an": 212,
      "am": 213,
      "errĊ": 214,
      "et": 215,
      "or": 216,
      "it": 217,
      "dĊ": 218,
      "ingĊ": 219,
      "ion": 220,
      "est": 221,
      "erĊ": 222,
      "ar": 223,
      "ex": 224,
      "str": 225,
      "ic": 226,
      "ou": 227,
      "ilĊ": 228,
      "nilĊ": 229,
      "ed": 230,
      "yĊ": 231,
      "Con": 232,
      "tr": 233,
      "con": 234,
      "cĊ": 235,
      "el": 236,
      "ck": 237,
      "fi": 238,
      "od": 239,
      "lo": 240,
      "esĊ": 241,
      "fĊ": 242,
      "ch": 243,
      "stringĊ": 244,
      "pĊ": 245,
      "pe": 246,
      "test": 247,
      "ad": 248,
      "qu": 249,
      "Er": 250,
      "Re": 251,
      "im": 252,
      "ag": 253,
      "ĠĠ": 254,
      "ul": 255,
      "as": 256,
      "ameĊ": 257,
      "om": 258,
      "pt": 259,
      "ent": 260,
      "le": 261,
      "erv": 262,
      "gĊ": 263,
      "id": 264,
      "ol": 265,
      "St": 266,
      "li": 267,
      "In": 268,
      "ut": 269,
      "xĊ": 270,
      "un": 271,
      "ot": 272,
      "res": 273,
      "ĉĉ": 274,
      "Erro": 275,
      "em": 276,
      "ew": 277,
      "alĊ": 278,
      "eĠ": 279,
      "ab": 280,
      "0Ċ": 281,
      "int": 282,
      "ith": 283,
      "ap": 284,
      ":Ġ": 285,
      "ueĊ": 286,
      "ionĊ": 287,
      "NameĊ": 288,
      "ub": 289,
      "aĊ": 290,
      "erro": 291,
      "is": 292,
      "entĊ": 293,
      "ce": 294,
      "Res": 295,
      "pl": 296,
      "tex": 297,
      "Serv": 298,
      "to": 299,
      "1Ċ": 300,
      "Confi": 301,
      "ate": 302,
      "hĊ": 303,
      "ctxĊ": 304,
      "Val": 305,
      "ur": 306,
      "se": 307,
      "pect": 308,
      "fa": 309,
      "yp": 310,
      "our": 311,
      "com": 312,
      "bĊ": 313,
      "textĊ": 314,
      "pro": 315,
      "ain": 316,
      "s\"Ċ": 317,
      "_Ċ": 318,
      "seĊ": 319,
      "New": 320,
      "edĠ": 321,
      "nĊ": 322,
      "En": 323,
      "ter": 324,
      "expect": 325,
      "tim": 326,
      "oo": 327,
      "ir": 328,
      "Pro": 329,
      "estĊ": 330,
      "Ex": 331,
      "ID": 332,
      "ult": 333,
      "iĊ": 334,
      "tt": 335,
      "TĊ": 336,
      "ser": 337,
      "ErrorĊ": 338,
      "Str": 339,
      "Error": 340,
      "\"g": 341,
      "ist": 342,
      "2Ċ": 343,
      "ect": 344,
      "um": 345,
      "oĊ": 346,
      "ceĊ": 347,
      "enĊ": 348,
      "ĠĠĠĠ": 349,
      "ack": 350,
      "di": 351,
      "val": 352,
      "requ": 353,
      "Test": 354,
      "Lo": 355,
      "kĊ": 356,
      "oun": 357,
      "lientĊ": 358,
      "nam": 359,
      "Servic": 360,
      "wan": 361,
      "Ad": 362,
      "e\"Ċ": 363,
      "Stat": 364,
      "sh": 365,
      "po": 366,
      "ver": 367,
      "Ch": 368,
      "errorĊ": 369,
      "lĊ": 370,
      "ation": 371,
      "htt": 372,
      "Typ": 373,
      "testingĊ": 374,
      "de": 375,
      "ConfigĊ": 376,
      "and": 377,
      "for": 378,
      "mĊ": 379,
      "Fat": 380,
      ":Ġ%": 381,
      "vĊ": 382,
      "IDĊ": 383,
      "Di": 384,
      "`Ċ": 385,
      ",Ġ": 386,
      "De": 387,
      "tain": 388,
      "edĊ": 389,
      "Met": 390,
      "4Ċ": 391,
      "TypeĊ": 392,
      "vid": 393,
      "fm": 394,
      ".com": 395,
      "ri": 396,
      "etĊ": 397,
      "Opt": 398,
      "Ġ%": 399,
      "met": 400,
      "trueĊ": 401,
      "pen": 402,
      "Requ": 403,
      "atch": 404,
      "nameĊ": 405,
      "Tim": 406,
      "confi": 407,
      "ust": 408,
      "ValueĊ": 409,
      "gr": 410,
      "ErrorfĊ": 411,
      "by": 412,
      "timeĊ": 413,
      "ionsĊ": 414,
      "us": 415,
      "Add": 416,
      ".com/": 417,
      "ctĊ": 418,
      "odeĊ": 419,
      "up": 420,
      "ireĊ": 421,
      "ow": 422,
      "por": 423,
      "serv": 424,
      "fault": 425,
      "rit": 426,
      "With": 427,
      "ess": 428,
      "requireĊ": 429,
      "fil": 430,
      "v\"Ċ": 431,
      "ithub": 432,
      "fmtĊ": 433,
      "agsĊ": 434,
      "Par": 435,
      "arg": 436,
      "go": 437,
      "athĊ": 438,
      "ke": 439,
      "abel": 440,
      "ool": 441,
      "add": 442,
      "ang": 443,
      "ers": 444,
      "out": 445,
      "ithub.com/": 446,
      "error": 447,
      "00": 448,
      "Fil": 449,
      "ource": 450,
      "ma": 451,
      "ode": 452,
      "th": 453,
      "\"github.com/": 454,
      "\"\"Ċ": 455,
      "uct": 456,
      "ckĊ": 457,
      "ra": 458,
      "pon": 459,
      "To": 460,
      "ContextĊ": 461,
      "ctyĊ": 462,
      "qĊ": 463,
      "alfĊ": 464,
      "Un": 465,
      "FatalfĊ": 466,
      "all": 467,
      "contextĊ": 468,
      "Equ": 469,
      "ationĊ": 470,
      "bu": 471,
      "intĊ": 472,
      "iz": 473,
      "Ke": 474,
      "iv": 475,
      "StringĊ": 476,
      "icĊ": 477,
      "ateĊ": 478,
      "struct": 479,
      "oolĊ": 480,
      "pa": 481,
      "Config": 482,
      "64Ċ": 483,
      "Com": 484,
      "pr": 485,
      "ersĊ": 486,
      "bj": 487,
      "clientĊ": 488,
      "1\"Ċ": 489,
      "ost": 490,
      "sĠ": 491,
      "byt": 492,
      "Run": 493,
      "ype": 494,
      "ead": 495,
      "EqualĊ": 496,
      "cl": 497,
      "fal": 498,
      "chem": 499,
      "able": 500,
      "red": 501,
      "Writ": 502,
      "ream": 503,
      "asser": 504,
      "wĊ": 505,
      "lenĊ": 506,
      "outĊ": 507,
      "elĊ": 508,
      "want": 509,
      "if": 510,
      "No": 511,
      "act": 512,
      "foo": 513,
      "mo": 514,
      "ĉĉĉĉ": 515,
      "opt": 516,
      "par": 517,
      "port": 518,
      "toĠ": 519,
      "Get": 520,
      "\"b": 521,
      "Service": 522,
      "end": 523,
      "Bu": 524,
      "\":Ġ": 525,
      "Se": 526,
      "ff": 527,
      "Ġn": 528,
      "\"test": 529,
      "falseĊ": 530,
      "ataĊ": 531,
      "httpĊ": 532,
      "structsĊ": 533,
      "ErrĊ": 534,
      "anc": 535,
      "lient": 536,
      "ingĠ": 537,
      "RequestĊ": 538,
      "Provid": 539,
      "op": 540,
      "Tr": 541,
      "ig": 542,
      "0.": 543,
      "ind": 544,
      "contain": 545,
      "ingsĊ": 546,
      "OptionsĊ": 547,
      "js": 548,
      "pbĊ": 549,
      "boolĊ": 550,
      "okĊ": 551,
      "For": 552,
      "got": 553,
      "3Ċ": 554,
      ":\"": 555,
      "eck": 556,
      "json": 557,
      "ata": 558,
      "config": 559,
      "ultĊ": 560,
      "utĊ": 561,
      "diagsĊ": 562,
      "t\"Ċ": 563,
      "\\n": 564,
      "pendĊ": 565,
      "mdĊ": 566,
      "assertĊ": 567,
      "stat": 568,
      "reqĊ": 569,
      "ip": 570,
      "Up": 571,
      "yĠ": 572,
      "gg": 573,
      "Respon": 574,
      "wor": 575,
      "new": 576,
      "ageĊ": 577,
      "Read": 578,
      "leĊ": 579,
      "cre": 580,
      "stan": 581,
      "ValĊ": 582,
      "wantĊ": 583,
      "Ma": 584,
      "Label": 585,
      "Nam": 586,
      "age": 587,
      "cri": 588,
      "ue": 589,
      "ourceĊ": 590,
      "cc": 591,
      "default": 592,
      ",Ċ": 593,
      "orĊ": 594,
      "ClientĊ": 595,
      "LĊ": 596,
      ":Ġ%v\"Ċ": 597,
      "byteĊ": 598,
      "ild": 599,
      "gotĊ": 600,
      "has": 601,
      "y\"Ċ": 602,
      "\"s": 603,
      "ans": 604,
      "PathĊ": 605,
      "Contain": 606,
      "but": 607,
      "putĊ": 608,
      "form": 609,
      "servic": 610,
      "Ap": 611,
      "http": 612,
      "tri": 613,
      "\"n": 614,
      "Resource": 615,
      "s/": 616,
      "otĠ": 617,
      "ynam": 618,
      "rsĊ": 619,
      "ail": 620,
      "ath": 621,
      "Al": 622,
      "run": 623,
      "with": 624,
      "respĊ": 625,
      "ach": 626,
      "Head": 627,
      "inĊ": 628,
      "rom": 629,
      "Obj": 630,
      "Int": 631,
      "usĊ": 632,
      "ress": 633,
      "uth": 634,
      "Set": 635,
      "empt": 636,
      "int64Ċ": 637,
      "valid": 638,
      "ric": 639,
      "put": 640,
      "stĊ": 641,
      "Qu": 642,
      "oul": 643,
      "NoErrorĊ": 644,
      "List": 645,
      "expected": 646,
      "\"/": 647,
      "fail": 648,
      "provid": 649,
      "\"foo": 650,
      "ay": 651,
      "itĊ": 652,
      "idĊ": 653,
      "UR": 654,
      "ock": 655,
      "art": 656,
      "ert": 657,
      "foĊ": 658,
      "Pl": 659,
      "Sh": 660,
      "Vers": 661,
      "trĊ": 662,
      "Ar": 663,
      "KeyĊ": 664,
      "Type": 665,
      "appendĊ": 666,
      "Not": 667,
      "av": 668,
      "\"d": 669,
      "configĊ": 670,
      "Back": 671,
      "ann": 672,
      "Fi": 673,
      "}\"Ċ": 674,
      "chemaĊ": 675,
      "mod": 676,
      "ore": 677,
      "Default": 678,
      "eld": 679,
      "intfĊ": 680,
      "StateĊ": 681,
      "\"`Ċ": 682,
      "exĊ": 683,
      "AddrĊ": 684,
      "war": 685,
      "tcĊ": 686,
      "err": 687,
      "Cre": 688,
      "dynam": 689,
      "expectedĠ": 690,
      "ountĊ": 691,
      "Fun": 692,
      "ep": 693,
      "2\"Ċ": 694,
      "terĊ": 695,
      "ref": 696,
      "erĠ": 697,
      "cal": 698,
      "set": 699,
      "--": 700,
      "Time": 701,
      "ern": 702,
      "RunĊ": 703,
      "gro": 704,
      "optsĊ": 705,
      "stream": 706,
      "osĊ": 707,
      "Quer": 708,
      "ial": 709,
      "At": 710,
      "\"{": 711,
      "olic": 712,
      "ServiceĊ": 713,
      "meth": 714,
      "Pre": 715,
      "Clo": 716,
      "argsĊ": 717,
      "Sub": 718,
      "Hand": 719,
      "cod": 720,
      "dynamicĊ": 721,
      "urationĊ": 722,
      "12": 723,
      "PtrĊ": 724,
      "Ind": 725,
      "tryĊ": 726,
      "Act": 727,
      "Instan": 728,
      "By": 729,
      "low": 730,
      "ure": 731,
      "sit": 732,
      "ev": 733,
      "An": 734,
      "anĊ": 735,
      "loat": 736,
      "ĠĠĠĠĠĠĠĠ": 737,
      "\"c": 738,
      "label": 739,
      "gram": 740,
      "tsĊ": 741,
      "printfĊ": 742,
      "Cl": 743,
      "testĊ": 744,
      "gin": 745,
      "dĠ": 746,
      "Tok": 747,
      "Upd": 748,
      "\"m": 749,
      "ec": 750,
      "uĊ": 751,
      "TimeĊ": 752,
      "container": 753,
      "cript": 754,
      "elet": 755,
      "\"Ġ": 756,
      "point": 757,
      "Conn": 758,
      "expectedĊ": 759,
      "typ": 760,
      "keĊ": 761,
      "ggerĊ": 762,
      "isto": 763,
      "stringsĊ": 764,
      "Match": 765,
      "istogram": 766,
      "/v": 767,
      "lockĊ": 768,
      "get": 769,
      "hash": 770,
      "Client": 771,
      "ull": 772,
      "tribut": 773,
      "pend": 774,
      "grp": 775,
      "FileĊ": 776,
      "5Ċ": 777,
      "theĠ": 778,
      "espa": 779,
      "Mod": 780,
      "Is": 781,
      "condĊ": 782,
      "p/": 783,
      "work": 784,
      "addrsĊ": 785,
      "Comm": 786,
      "TT": 787,
      "own": 788,
      "des": 789,
      "ectĊ": 790,
      "pre": 791,
      "proto": 792,
      "ON": 793,
      "SprintfĊ": 794,
      "URLĊ": 795,
      "d\"Ċ": 796,
      "NewĊ": 797,
      "valu": 798,
      "FatalĊ": 799,
      "izeĊ": 800,
      "Ġs": 801,
      "String": 802,
      "ple": 803,
      "aw": 804,
      "over": 805,
      "AC": 806,
      "IP": 807,
      "Reg": 808,
      "Por": 809,
      "Key": 810,
      "ableĊ": 811,
      "Trans": 812,
      "back": 813,
      "intern": 814,
      "From": 815,
      "ProviderĊ": 816,
      "ffĊ": 817,
      "ed\"Ċ": 818,
      "InfoĊ": 819,
      "=Ġ": 820,
      "pectĊ": 821,
      "aseĊ": 822,
      "makeĊ": 823,
      "DirĊ": 824,
      "SetĊ": 825,
      "ive": 826,
      "ase": 827,
      "upĊ": 828,
      "adĊ": 829,
      "reg": 830,
      "ResponseĊ": 831,
      "Fail": 832,
      "fgĊ": 833,
      "ing\"Ċ": 834,
      "Status": 835,
      "Rout": 836,
      "mar": 837,
      "Object": 838,
      "ĉĉĉ": 839,
      "g/": 840,
      "yn": 841,
      "ac": 842,
      "Write": 843,
      "ressĊ": 844,
      "empty": 845,
      "ĠnotĠ": 846,
      "ourc": 847,
      "oog": 848,
      "iesĊ": 849,
      "Check": 850,
      "sub": 851,
      "ener": 852,
      "cor": 853,
      "gsĊ": 854,
      "ampl": 855,
      "Ev": 856,
      "Request": 857,
      "icor": 858,
      "hashicor": 859,
      "MetaĊ": 860,
      "Im": 861,
      "cur": 862,
      "lock": 863,
      "ServerĊ": 864,
      "oogle": 865,
      "sr": 866,
      "Stream": 867,
      "net": 868,
      "es\"Ċ": 869,
      "fixĊ": 870,
      "\"foo\"Ċ": 871,
      "HTT": 872,
      "HTTP": 873,
      "hel": 874,
      "logĊ": 875,
      "hashicorp/": 876,
      "Out": 877,
      "rout": 878,
      "ule": 879,
      "app": 880,
      "VersionĊ": 881,
      "ms": 882,
      "FuncĊ": 883,
      "0\"Ċ": 884,
      "Cont": 885,
      "edĠtoĠ": 886,
      "load": 887,
      "name": 888,
      "unk": 889,
      "\"t": 890,
      "uster": 891,
      "\",Ċ": 892,
      "col": 893,
      "End": 894,
      "lin": 895,
      "ityĊ": 896,
      "Po": 897,
      "lic": 898,
      "LS": 899,
      "tf": 900,
      "json:\"": 901,
      "read": 902,
      "CloseĊ": 903,
      "api": 904,
      "HeaderĊ": 905,
      "ign": 906,
      "Polic": 907,
      "Fl": 908,
      "internal": 909,
      "Node": 910,
      "Des": 911,
      "oc": 912,
      "pec": 913,
      "cmdĊ": 914,
      "Mess": 915,
      "check": 916,
      "\"a": 917,
      "Field": 918,
      "oreĊ": 919,
      "match": 920,
      "StatusĊ": 921,
      ".g": 922,
      "list": 923,
      "{Ċ": 924,
      "TimeoutĊ": 925,
      "Proto": 926,
      "Exp": 927,
      "omit": 928,
      "fl": 929,
      "ity": 930,
      "dle": 931,
      "groun": 932,
      "oneĊ": 933,
      "obj": 934,
      "isĠ": 935,
      "vers": 936,
      "TLS": 937,
      "io": 938,
      "cm": 939,
      "er\"Ċ": 940,
      "ast": 941,
      ",omit": 942,
      "`json:\"": 943,
      "cket": 944,
      "10": 945,
      "6Ċ": 946,
      "angeĊ": 947,
      "Or": 948,
      "//": 949,
      "lerĊ": 950,
      "\"github.com/hashicorp/": 951,
      ",omitempty": 952,
      "CountĊ": 953,
      "IndexĊ": 954,
      "atew": 955,
      "Server": 956,
      "cons": 957,
      "Dis": 958,
      "beĠ": 959,
      "1.": 960,
      "conn": 961,
      "Create": 962,
      "anag": 963,
      "groundĊ": 964,
      "forĠ": 965,
      "key": 966,
      "ToĊ": 967,
      "tra": 968,
      "esĠ": 969,
      "uleĊ": 970,
      "Has": 971,
      "exp": 972,
      "Valu": 973,
      "bo": 974,
      "JS": 975,
      "Auth": 976,
      "BĊ": 977,
      "BackgroundĊ": 978,
      "istĊ": 979,
      "Diag": 980,
      "Ret": 981,
      "ific": 982,
      "shoul": 983,
      "Jo": 984,
      "anyĊ": 985,
      "service": 986,
      "cfgĊ": 987,
      "ResultĊ": 988,
      "odyĊ": 989,
      "Attribut": 990,
      "resultĊ": 991,
      "Value": 992,
      "client": 993,
      "ount": 994,
      "Su": 995,
      "keyĊ": 996,
      "ar\"Ċ": 997,
      "mov": 998,
      "DataĊ": 999,
      "comm": 1000,
      "%s": 1001,
      "aĠ": 1002,
      "time": 1003,
      "RP": 1004,
      "enc": 1005,
      "Meth": 1006,
      "Provider": 1007,
      "Err": 1008,
      "SchemaĊ": 1009,
      "State": 1010,
      "tok": 1011,
      "withĠ": 1012,
      "arget": 1013,
      "SizeĊ": 1014,
      "Byt": 1015,
      "indĊ": 1016,
      "Metric": 1017,
      "ret": 1018,
      "path": 1019,
      "CmdĊ": 1020,
      "Id": 1021,
      "wh": 1022,
      "descĊ": 1023,
      "oĠ": 1024,
      "Max": 1025,
      "quer": 1026,
      "terra": 1027,
      "inĠ": 1028,
      "://": 1029,
      "On": 1030,
      "Gro": 1031,
      "RPC": 1032,
      "af": 1033,
      "Ref": 1034,
      "Op": 1035,
      "eg": 1036,
      "type": 1037,
      "\"http": 1038,
      "typesĊ": 1039,
      "As": 1040,
      "NodeĊ": 1041,
      "Query": 1042,
      "32Ċ": 1043,
      "errorsĊ": 1044,
      "sp": 1045,
      "Sp": 1046,
      "nost": 1047,
      "artĊ": 1048,
      "adataĊ": 1049,
      "empl": 1050,
      "nap": 1051,
      "/internal": 1052,
      ",Ġgot": 1053,
      "s.": 1054,
      "JSON": 1055,
      "Em": 1056,
      "Delet": 1057,
      "ttĊ": 1058,
      "bufĊ": 1059,
      "pecĊ": 1060,
      "portĊ": 1061,
      "Data": 1062,
      "entsĊ": 1063,
      "WriterĊ": 1064,
      "TC": 1065,
      "Col": 1066,
      "Be": 1067,
      "Expect": 1068,
      "min": 1069,
      "OptsĊ": 1070,
      "ass": 1071,
      "PortĊ": 1072,
      "float": 1073,
      "alanc": 1074,
      "iew": 1075,
      "estam": 1076,
      "verĊ": 1077,
      "log": 1078,
      "CodeĊ": 1079,
      "Ro": 1080,
      "ExpectĊ": 1081,
      "eckĊ": 1082,
      "ample": 1083,
      "metric": 1084,
      "ject": 1085,
      "iss": 1086,
      "/internal/": 1087,
      "GetĊ": 1088,
      "txĊ": 1089,
      "ĠtoĠ": 1090,
      "agĊ": 1091,
      "napsh": 1092,
      "ait": 1093,
      "Instance": 1094,
      "Response": 1095,
      "host": 1096,
      "data": 1097,
      "ire": 1098,
      "ancelĊ": 1099,
      "user": 1100,
      "writ": 1101,
      "iddle": 1102,
      "ModeĊ": 1103,
      "v3": 1104,
      "Host": 1105,
      "\":Ġ\"": 1106,
      "ated": 1107,
      "AddressĊ": 1108,
      "cont": 1109,
      "Log": 1110,
      "EntryĊ": 1111,
      "DurationĊ": 1112,
      "Histogram": 1113,
      "env": 1114,
      ")Ġ": 1115,
      "loggerĊ": 1116,
      "\"-": 1117,
      "Diagnost": 1118,
      "pathĊ": 1119,
      "labelsĊ": 1120,
      "s_": 1121,
      "valĊ": 1122,
      "sc": 1123,
      "ential": 1124,
      "}Ċ": 1125,
      "auth": 1126,
      "Inter": 1127,
      "__": 1128,
      "ry": 1129,
      "ange": 1130,
      "xy": 1131,
      "\\n\"Ċ": 1132,
      "andĊ": 1133,
      ".\"Ċ": 1134,
      "ACL": 1135,
      ":Ġ%s\"Ċ": 1136,
      "refle": 1137,
      "10Ċ": 1138,
      "SecondĊ": 1139,
      "owĊ": 1140,
      "Sc": 1141,
      "AP": 1142,
      "Ms": 1143,
      "Empt": 1144,
      "apiĊ": 1145,
      "Parse": 1146,
      "consul": 1147,
      "ccess": 1148,
      "dbĊ": 1149,
      "99": 1150,
      ",Ġwant": 1151,
      "ResourceĊ": 1152,
      "Build": 1153,
      "LabelsĊ": 1154,
      "Hel": 1155,
      "ContainsĊ": 1156,
      "stateĊ": 1157,
      "MapĊ": 1158,
      "plan": 1159,
      "upd": 1160,
      "ustom": 1161,
      "actu": 1162,
      "And": 1163,
      "ies": 1164,
      "rid": 1165,
      "resĊ": 1166,
      "setĊ": 1167,
      "posit": 1168,
      "Valid": 1169,
      "grpc": 1170,
      "cover": 1171,
      "urn": 1172,
      "Update": 1173,
      "Ġ%q": 1174,
      "\"in": 1175,
      "su": 1176,
      "Sampl": 1177,
      "64": 1178,
      "Th": 1179,
      "redential": 1180,
      "TokenĊ": 1181,
      "Num": 1182,
      "file": 1183,
      "schemaĊ": 1184,
      ",omitempty\"`Ċ": 1185,
      "of": 1186,
      "ugin": 1187,
      "tl": 1188,
      "ListĊ": 1189,
      "Pr": 1190,
      "Cert": 1191,
      "server": 1192,
      "ValuesĊ": 1193,
      "Namespa": 1194,
      "ook": 1195,
      "containerd": 1196,
      "Call": 1197,
      "SĊ": 1198,
      "T\"Ċ": 1199,
      "be": 1200,
      "tit": 1201,
      "olang": 1202,
      "methe": 1203,
      "asesĊ": 1204,
      "max": 1205,
      "ocker": 1206,
      "Us": 1207,
      "LockĊ": 1208,
      ".or": 1209,
      "rect": 1210,
      "ify": 1211,
      "\"fail": 1212,
      "moby": 1213,
      "sum": 1214,
      "KindĊ": 1215,
      "terraform": 1216,
      "Param": 1217,
      "ateĠ": 1218,
      "atorĊ": 1219,
      "istr": 1220,
      "ArgsĊ": 1221,
      "3\"Ċ": 1222,
      "text": 1223,
      "odĊ": 1224,
      "try": 1225,
      "0.0.": 1226,
      "extĊ": 1227,
      "local": 1228,
      "ifi": 1229,
      "Lin": 1230,
      "valueĊ": 1231,
      "pg": 1232,
      "Net": 1233,
      "ConnĊ": 1234,
      "ionĠ": 1235,
      ".org/": 1236,
      "PrefixĊ": 1237,
      "rp": 1238,
      "abl": 1239,
      "Per": 1240,
      "\"w": 1241,
      "string": 1242,
      "Schem": 1243,
      "Ag": 1244,
      "Ser": 1245,
      "code": 1246,
      "ChĊ": 1247,
      "\"un": 1248,
      "pris": 1249,
      "ipĊ": 1250,
      "onĊ": 1251,
      "Gatew": 1252,
      "Path": 1253,
      "filep": 1254,
      "LenĊ": 1255,
      "ds": 1256,
      "Manag": 1257,
      "uration": 1258,
      "hc": 1259,
      "inputĊ": 1260,
      "Mar": 1261,
      "promethe": 1262,
      "ioĊ": 1263,
      "API": 1264,
      "Connect": 1265,
      "olang.org/": 1266,
      "cancelĊ": 1267,
      "must": 1268,
      "endĊ": 1269,
      "TCP": 1270,
      "cli": 1271,
      "Descript": 1272,
      "He": 1273,
      "validĠ": 1274,
      "BodyĊ": 1275,
      "Pe": 1276,
      "Load": 1277,
      "stack": 1278,
      "Token": 1279,
      "ainĊ": 1280,
      "Shoul": 1281,
      "shouldĠ": 1282,
      "cent": 1283,
      "%v": 1284,
      "aem": 1285,
      "fix": 1286,
      "20": 1287,
      "Parall": 1288,
      "\":": 1289,
      "Ġ%v\"Ċ": 1290,
      "pb": 1291,
      "Resol": 1292,
      "TE": 1293,
      "Rel": 1294,
      "codeĊ": 1295,
      "JoinĊ": 1296,
      "addrĊ": 1297,
      "head": 1298,
      "\"google": 1299,
      "2/": 1300,
      "hand": 1301,
      "elect": 1302,
      "CheckĊ": 1303,
      "MessageĊ": 1304,
      "id\"Ċ": 1305,
      "plic": 1306,
      "dataĊ": 1307,
      "streamĊ": 1308,
      "RangeĊ": 1309,
      "File": 1310,
      "reflectĊ": 1311,
      "icsĊ": 1312,
      "ext": 1313,
      "ment": 1314,
      "lean": 1315,
      "AddĊ": 1316,
      "positor": 1317,
      "8Ċ": 1318,
      "imit": 1319,
      "errorĠ": 1320,
      "iddlewar": 1321,
      "Timestam": 1322,
      "mot": 1323,
      "InstanceĊ": 1324,
      "name\"Ċ": 1325,
      "Mem": 1326,
      ")\"Ċ": 1327,
      "andĠ": 1328,
      ".golang.org/": 1329,
      "2.": 1330,
      "connect": 1331,
      "HandlerĊ": 1332,
      "Remov": 1333,
      "pointĊ": 1334,
      "MetadataĊ": 1335,
      "\"google.golang.org/": 1336,
      "IN": 1337,
      "Container": 1338,
      "request": 1339,
      "\"p": 1340,
      "ug": 1341,
      "\"expectedĠ": 1342,
      "method": 1343,
      "field": 1344,
      "dis": 1345,
      "StoreĊ": 1346,
      "ParallelĊ": 1347,
      "StringValĊ": 1348,
      "Action": 1349,
      "Enter": 1350,
      "kip": 1351,
      "cond": 1352,
      "\"o": 1353,
      "state": 1354,
      "argetĊ": 1355,
      "Ġ%v": 1356,
      "RE": 1357,
      "modelĊ": 1358,
      "create": 1359,
      "return": 1360,
      "l\"Ċ": 1361,
      "ave": 1362,
      "Source": 1363,
      "w\"Ċ": 1364,
      "arĊ": 1365,
      "Enterpris": 1366,
      "ourcesĊ": 1367,
      "enĠ": 1368,
      "UnlockĊ": 1369,
      "ary": 1370,
      "mock": 1371,
      "from": 1372,
      "Ab": 1373,
      "essĊ": 1374,
      "\"default": 1375,
      "stor": 1376,
      "resol": 1377,
      "resource": 1378,
      "epĊ": 1379,
      "nown": 1380,
      "root": 1381,
      "Float": 1382,
      "Af": 1383,
      "result": 1384,
      "Root": 1385,
      "Bucket": 1386,
      "c\"Ċ": 1387,
      "connĊ": 1388,
      "\"failedĠtoĠ": 1389,
      "opĊ": 1390,
      "Cach": 1391,
      "}`Ċ": 1392,
      "iteĊ": 1393,
      "p\"Ċ": 1394,
      "endpoint": 1395,
      "Name": 1396,
      "napshot": 1397,
      "astĊ": 1398,
      "nsĊ": 1399,
      "\"fm": 1400,
      "ConfigurationĊ": 1401,
      "tfdiagsĊ": 1402,
      "0x": 1403,
      "cord": 1404,
      "ayĊ": 1405,
      "fileĊ": 1406,
      "curr": 1407,
      "ofĠ": 1408,
      "exist": 1409,
      "\"fmt\"Ċ": 1410,
      "DiagnosticsĊ": 1411,
      "msgĊ": 1412,
      "Cluster": 1413,
      "alth": 1414,
      "action": 1415,
      "ound": 1416,
      "ationsĊ": 1417,
      "def": 1418,
      "%s\"Ċ": 1419,
      "ari": 1420,
      "Tra": 1421,
      "filepathĊ": 1422,
      "arch": 1423,
      "muĊ": 1424,
      "User": 1425,
      "histogram": 1426,
      "float64Ċ": 1427,
      "optionsĊ": 1428,
      "igh": 1429,
      "b\"Ċ": 1430,
      "CommandĊ": 1431,
      "ureĊ": 1432,
      "ostĊ": 1433,
      "thĊ": 1434,
      "odesĊ": 1435,
      "oundĊ": 1436,
      "Mil": 1437,
      "text\"Ċ": 1438,
      "tem": 1439,
      "do": 1440,
      "eldĊ": 1441,
      "ply": 1442,
      "Endpoint": 1443,
      "\"testing\"Ċ": 1444,
      "clo": 1445,
      "atĊ": 1446,
      "\"--": 1447,
      "pk": 1448,
      "redĊ": 1449,
      "Ver": 1450,
      "diffĊ": 1451,
      "-0": 1452,
      "BytesĊ": 1453,
      "CA": 1454,
      "eren": 1455,
      "ownĊ": 1456,
      "Watch": 1457,
      "providersĊ": 1458,
      "cluster": 1459,
      "old": 1460,
      "Balanc": 1461,
      "34": 1462,
      "SourceĊ": 1463,
      "Milli": 1464,
      "num": 1465,
      "secondĊ": 1466,
      "\"1": 1467,
      "cach": 1468,
      "ion\"Ċ": 1469,
      "io/": 1470,
      "LoggerĊ": 1471,
      "isĊ": 1472,
      "meta": 1473,
      "es/": 1474,
      "0000": 1475,
      "testut": 1476,
      "eng": 1477,
      "\"bar\"Ċ": 1478,
      "Slic": 1479,
      "Buff": 1480,
      "namespa": 1481,
      "Append": 1482,
      "iveĊ": 1483,
      "NamespaceĊ": 1484,
      "\"__": 1485,
      "iewĊ": 1486,
      "ReaderĊ": 1487,
      "init": 1488,
      "QueryĊ": 1489,
      "int32Ċ": 1490,
      "anĠ": 1491,
      "instan": 1492,
      "Group": 1493,
      "PolicyĊ": 1494,
      "go-": 1495,
      "grpcĊ": 1496,
      "netĊ": 1497,
      "box": 1498,
      "ST": 1499,
      "25": 1500,
      "otĊ": 1501,
      "Partit": 1502,
      "Min": 1503,
      "uint64Ċ": 1504,
      "mess": 1505,
      ":Ġ%w\"Ċ": 1506,
      "rele": 1507,
      "token": 1508,
      "\"C": 1509,
      "ServicesĊ": 1510,
      "formĊ": 1511,
      "cliĊ": 1512,
      "MsgĊ": 1513,
      "actualĊ": 1514,
      "jĊ": 1515,
      "not": 1516,
      "Filter": 1517,
      "hclĊ": 1518,
      "resourceĊ": 1519,
      "11": 1520,
      "ActionĊ": 1521,
      "provider": 1522,
      "Credential": 1523,
      "Ident": 1524,
      "ĉĉĉĉĉ": 1525,
      "UpdateĊ": 1526,
      "miss": 1527,
      "\"con": 1528,
      "AllĊ": 1529,
      "RefĊ": 1530,
      "Peer": 1531,
      "\"A": 1532,
      "EventĊ": 1533,
      "Enterprise": 1534,
      "plyĊ": 1535,
      "/v2/": 1536,
      "Have": 1537,
      "statusĊ": 1538,
      "\"G": 1539,
      "Nil": 1540,
      "Spec": 1541,
      "outputĊ": 1542,
      "az": 1543,
      "AppendĊ": 1544,
      "marsh": 1545,
      "e-": 1546,
      "build": 1547,
      "{{": 1548,
      "idxĊ": 1549,
      "otal": 1550,
      "Enable": 1551,
      "ObjectĊ": 1552,
      "\"%": 1553,
      "Method": 1554,
      "Del": 1555,
      "ShouldĊ": 1556,
      "WriteĊ": 1557,
      "upport": 1558,
      "bytesĊ": 1559,
      "Pub": 1560,
      "dirĊ": 1561,
      "Plan": 1562,
      "chunk": 1563,
      "Event": 1564,
      "protoĊ": 1565,
      "runtimeĊ": 1566,
      "ister": 1567,
      "NĊ": 1568,
      "a\"Ċ": 1569,
      "Local": 1570,
      "y_": 1571,
      "pars": 1572,
      "example": 1573,
      "time\"Ċ": 1574,
      "are": 1575,
      "MillisecondĊ": 1576,
      "e_": 1577,
      "Sum": 1578,
      "ĉĉĉĉ\"": 1579,
      "ecut": 1580,
      "moby/": 1581,
      "plugin": 1582,
      "Start": 1583,
      "Ġ=Ġ": 1584,
      "param": 1585,
      "\"Expect": 1586,
      "Std": 1587,
      "usterĊ": 1588,
      "Ġc": 1589,
      "uxĊ": 1590,
      "last": 1591,
      "StrĊ": 1592,
      "OutputĊ": 1593,
      "target": 1594,
      "50": 1595,
      "Allow": 1596,
      "envo": 1597,
      "dir": 1598,
      "/test": 1599,
      "oth": 1600,
      "9Ċ": 1601,
      "ber": 1602,
      "Datacent": 1603,
      "infoĊ": 1604,
      "SpecĊ": 1605,
      "apĊ": 1606,
      "testsĊ": 1607,
      "\"test_": 1608,
      "cret": 1609,
      "riv": 1610,
      "Ġ(": 1611,
      "Attr": 1612,
      "Repositor": 1613,
      "rol": 1614,
      "csĊ": 1615,
      "s-": 1616,
      "\"google.golang.org/grpc": 1617,
      "TimestampĊ": 1618,
      "start": 1619,
      "helm": 1620,
      "Coun": 1621,
      "Network": 1622,
      "Wait": 1623,
      "Version": 1624,
      "DiagsĊ": 1625,
      "peer": 1626,
      "syn": 1627,
      "trans": 1628,
      "\"net": 1629,
      "outer": 1630,
      "Rele": 1631,
      "delet": 1632,
      "Marsh": 1633,
      "efi": 1634,
      "Mock": 1635,
      "Code": 1636,
      "MethodĊ": 1637,
      "respon": 1638,
      "Option": 1639,
      "DiffĊ": 1640,
      "\"dc": 1641,
      "\"P": 1642,
      "output": 1643,
      "TestĊ": 1644,
      "efik": 1645,
      "inst": 1646,
      "plet": 1647,
      "fo": 1648,
      "Form": 1649,
      "srvĊ": 1650,
      "polic": 1651,
      "HistogramĊ": 1652,
      "ErrorsĊ": 1653,
      "entĠ": 1654,
      "Null": 1655,
      "url": 1656,
      "War": 1657,
      "\"Un": 1658,
      "Row": 1659,
      "IPĊ": 1660,
      "s://": 1661,
      "node": 1662,
      "sv": 1663,
      "\\\"": 1664,
      "ecĊ": 1665,
      "sq": 1666,
      "jsonĊ": 1667,
      "testC": 1668,
      ".Ġ": 1669,
      "lect": 1670,
      "igr": 1671,
      "cept": 1672,
      "Lev": 1673,
      "Wor": 1674,
      "ResourceInstance": 1675,
      "prometheus": 1676,
      "ong": 1677,
      "child": 1678,
      "DBĊ": 1679,
      "\"a\"Ċ": 1680,
      "\":\"": 1681,
      "JSONĊ": 1682,
      "LE": 1683,
      "\"github.com/hashicorp/consul": 1684,
      "spec": 1685,
      "matĊ": 1686,
      "fir": 1687,
      "Listen": 1688,
      "traefik": 1689,
      "EmptyĊ": 1690,
      "Colum": 1691,
      "fore": 1692,
      "\"test\"Ċ": 1693,
      "Bind": 1694,
      "tm": 1695,
      "\"github.com/hashicorp/terraform": 1696,
      "80": 1697,
      "EndpointĊ": 1698,
      "100Ċ": 1699,
      "ulti": 1700,
      "Comp": 1701,
      "\"context\"Ċ": 1702,
      "Result": 1703,
      "Loc": 1704,
      "serverĊ": 1705,
      "Content": 1706,
      "assert": 1707,
      "object": 1708,
      "redi": 1709,
      "Index": 1710,
      "Interv": 1711,
      "ProtoĊ": 1712,
      "value": 1713,
      "7.": 1714,
      "comp": 1715,
      "ĠforĠ": 1716,
      "ĉĉĉ\"": 1717,
      "Context": 1718,
      "containerd/": 1719,
      "filter": 1720,
      "yam": 1721,
      "nat": 1722,
      "FilterĊ": 1723,
      "bucket": 1724,
      "Intent": 1725,
      "chart": 1726,
      "Docker": 1727,
      "OK": 1728,
      "Health": 1729,
      "OptionĊ": 1730,
      "oryĊ": 1731,
      "ER": 1732,
      "tĠ": 1733,
      "perĊ": 1734,
      "resh": 1735,
      "der": 1736,
      "daem": 1737,
      "Att": 1738,
      "Oper": 1739,
      "mem": 1740,
      "Change": 1741,
      "nal": 1742,
      "Custom": 1743,
      "ncĊ": 1744,
      "Gener": 1745,
      "pkg/": 1746,
      "\"github.com/hashicorp/terraform/internal/": 1747,
      "Sign": 1748,
      "he": 1749,
      "ler": 1750,
      "error:Ġ%v\"Ċ": 1751,
      "\"ExpectedĠ": 1752,
      "Abs": 1753,
      "y-": 1754,
      "instance": 1755,
      "sedĊ": 1756,
      "cketĊ": 1757,
      "Target": 1758,
      "adata": 1759,
      "event": 1760,
      "Router": 1761,
      "StreamĊ": 1762,
      "lob": 1763,
      "DatacenterĊ": 1764,
      "oriz": 1765,
      "agesĊ": 1766,
      "ired": 1767,
      "ffsetĊ": 1768,
      "\\x": 1769,
      "v1Ċ": 1770,
      "loc": 1771,
      "group": 1772,
      "atĠ": 1773,
      "AtĊ": 1774,
      "AttributesĊ": 1775,
      "block": 1776,
      "chĊ": 1777,
      "\",": 1778,
      "Discover": 1779,
      "ens": 1780,
      "cert": 1781,
      "Dest": 1782,
      "bar": 1783,
      "ym": 1784,
      "Policy": 1785,
      "NilĊ": 1786,
      "error\"Ċ": 1787,
      "FnĊ": 1788,
      "Route": 1789,
      "ush": 1790,
      "ard": 1791,
      "methodNameĊ": 1792,
      "ItĊ": 1793,
      "Schema": 1794,
      "mtĊ": 1795,
      "Table": 1796,
      "confĊ": 1797,
      "CĊ": 1798,
      "Module": 1799,
      "7Ċ": 1800,
      "lish": 1801,
      "}}": 1802,
      "Must": 1803,
      "ccur": 1804,
      "olum": 1805,
      "per": 1806,
      "'Ċ": 1807,
      "NowĊ": 1808,
      "kub": 1809,
      "ModuleĊ": 1810,
      "nodeĊ": 1811,
      "ccĊ": 1812,
      "pub": 1813,
      "\"github.com/containerd/": 1814,
      "Subs": 1815,
      "Gateway": 1816,
      "sd": 1817,
      "Access": 1818,
      "1:": 1819,
      "\"re": 1820,
      "Over": 1821,
      "ponent": 1822,
      "ward": 1823,
      "BuilderĊ": 1824,
      "objĊ": 1825,
      "Posit": 1826,
      "index": 1827,
      "GroupĊ": 1828,
      "containerĊ": 1829,
      "queryĊ": 1830,
      "ricĊ": 1831,
      "PoolĊ": 1832,
      "Ter": 1833,
      "base": 1834,
      "-Ġ": 1835,
      "Middlewar": 1836,
      "status": 1837,
      "urlĊ": 1838,
      "cess": 1839,
      "StartĊ": 1840,
      "Work": 1841,
      "entryĊ": 1842,
      "ize": 1843,
      "workĊ": 1844,
      "Syn": 1845,
      "Cop": 1846,
      "NilErrorĊ": 1847,
      "TableĊ": 1848,
      "BlockĊ": 1849,
      "encod": 1850,
      "TrueĊ": 1851,
      "rap": 1852,
      "rpc": 1853,
      "map": 1854,
      "strcon": 1855,
      "DoneĊ": 1856,
      "RO": 1857,
      "utd": 1858,
      "ement": 1859,
      "jectĊ": 1860,
      "100": 1861,
      "bin": 1862,
      "item": 1863,
      "srcĊ": 1864,
      "ConfigEntryĊ": 1865,
      "\"v": 1866,
      "call": 1867,
      "backend": 1868,
      "Output": 1869,
      "imitĊ": 1870,
      "©Ċ": 1871,
      "Î©Ċ": 1872,
      "ick": 1873,
      "attribut": 1874,
      "3.": 1875,
      "\"github.com/moby/": 1876,
      "Delete": 1877,
      "\"S": 1878,
      "fromĠ": 1879,
      "DescriptionĊ": 1880,
      "loadĊ": 1881,
      "16": 1882,
      "ExprĊ": 1883,
      ";Ġ": 1884,
      "plansĊ": 1885,
      "orĠ": 1886,
      "Env": 1887,
      "\"github.com/hashicorp/consul/": 1888,
      "ServiceNameĊ": 1889,
      "ertĊ": 1890,
      "IĊ": 1891,
      "pool": 1892,
      "CreateĊ": 1893,
      "IdĊ": 1894,
      "ĠĠĠĠĠĠ": 1895,
      "onĠ": 1896,
      "ResponseWriterĊ": 1897,
      "aa": 1898,
      "Certific": 1899,
      "FieldsĊ": 1900,
      "Format": 1901,
      "dit": 1902,
      "Address": 1903,
      "LabelĊ": 1904,
      "registr": 1905,
      "Record": 1906,
      "pan": 1907,
      "retĊ": 1908,
      "au": 1909,
      "network": 1910,
      "ceiv": 1911,
      "oud": 1912,
      "andbox": 1913,
      "Cal": 1914,
      "Item": 1915,
      "\"r": 1916,
      "AR": 1917,
      "Occur": 1918,
      "4\"Ċ": 1919,
      "\"go": 1920,
      "FieldĊ": 1921,
      "erg": 1922,
      "\"dc1\"Ċ": 1923,
      "ort": 1924,
      "ix": 1925,
      "ObjectValĊ": 1926,
      "RuleĊ": 1927,
      "FlagsĊ": 1928,
      "Asser": 1929,
      "33": 1930,
      "HaveOccur": 1931,
      "RPCĊ": 1932,
      "prometheus/": 1933,
      "\"string": 1934,
      "Block": 1935,
      "HaveOccurredĊ": 1936,
      "\"unexpectedĠ": 1937,
      "gan": 1938,
      "leanupĊ": 1939,
      "MatcherĊ": 1940,
      "Mut": 1941,
      "Remove": 1942,
      "\"f": 1943,
      "Point": 1944,
      "rcĊ": 1945,
      "Sess": 1946,
      "1/": 1947,
      "\"k": 1948,
      "ganiz": 1949,
      "make": 1950,
      "Chunk": 1951,
      "Servers": 1952,
      "\"Fail": 1953,
      "butĠ": 1954,
      "Aut": 1955,
      "wait": 1956,
      "ourceĠ": 1957,
      "configschemaĊ": 1958,
      "update": 1959,
      "value\"Ċ": 1960,
      "\"time\"Ċ": 1961,
      "proxy": 1962,
      "eigh": 1963,
      "MatchĊ": 1964,
      "ssĊ": 1965,
      "psĊ": 1966,
      "ortĊ": 1967,
      "redisĊ": 1968,
      "wsĊ": 1969,
      "GĊ": 1970,
      "mote": 1971,
      "abil": 1972,
      "OO": 1973,
      "gress": 1974,
      "ask": 1975,
      "fake": 1976,
      "\"B": 1977,
      "AM": 1978,
      "Retry": 1979,
      "Ġ%s\"Ċ": 1980,
      "RouterĊ": 1981,
      "EnvĊ": 1982,
      "\"12": 1983,
      "xyĊ": 1984,
      "Image": 1985,
      "refĊ": 1986,
      "statesĊ": 1987,
      "flag": 1988,
      "watch": 1989,
      "berĊ": 1990,
      "IntervalĊ": 1991,
      "paceĊ": 1992,
      "engthĊ": 1993,
      "\"D": 1994,
      "il\"Ċ": 1995,
      "ly": 1996,
      "ReadĊ": 1997,
      "Vari": 1998,
      "ĠwithĠ": 1999,
      "std": 2000,
      "pla": 2001,
      "xds": 2002,
      "SamplesĊ": 2003,
      "32": 2004,
      "Dial": 2005,
      "ed_": 2006,
      "\"https://": 2007,
      "hello": 2008,
      "`{": 2009,
      "ildĊ": 2010,
      "attr": 2011,
      "Protocol": 2012,
      "meta_": 2013,
      "Entry": 2014,
      "allow": 2015,
      "Proxy": 2016,
      "jo": 2017,
      "NamesĊ": 2018,
      "HostĊ": 2019,
      "table": 2020,
      "7.0.0.": 2021,
      "Attribute": 2022,
      "Warn": 2023,
      "Det": 2024,
      "\"__meta_": 2025,
      "\".": 2026,
      "vert": 2027,
      "%q": 2028,
      "MetricsĊ": 2029,
      "rtĊ": 2030,
      "addr": 2031,
      "56": 2032,
      "RĊ": 2033,
      "known": 2034,
      "hav": 2035,
      "ta": 2036,
      "Select": 2037,
      "DeleteĊ": 2038,
      "first": 2039,
      "CtxĊ": 2040,
      "orm": 2041,
      "Arg": 2042,
      "Stor": 2043,
      "Empty": 2044,
      "repo": 2045,
      "tokenĊ": 2046,
      "json\"Ċ": 2047,
      "AĊ": 2048,
      "ce\"Ċ": 2049,
      "Le": 2050,
      "tingsĊ": 2051,
      "alĠ": 2052,
      "actionĊ": 2053,
      "Registr": 2054,
      "AfterĊ": 2055,
      "Ele": 2056,
      "balanc": 2057,
      "doneĊ": 2058,
      "BufferĊ": 2059,
      "NotToĊ": 2060,
      "cp": 2061,
      "FĊ": 2062,
      "NodesĊ": 2063,
      "imple": 2064,
      "\"strings\"Ċ": 2065,
      "dstĊ": 2066,
      "annel": 2067,
      "core": 2068,
      "Map": 2069,
      "storeĊ": 2070,
      "\"UnexpectedĠ": 2071,
      "Header": 2072,
      "sha": 2073,
      "fsĊ": 2074,
      "storageĊ": 2075,
      "Lock": 2076,
      "\"FailedĠtoĠ": 2077,
      ":Ċ": 2078,
      "schem": 2079,
      "SampleĊ": 2080,
      "Stack": 2081,
      "Span": 2082,
      "parse": 2083,
      "uiĊ": 2084,
      "triesĊ": 2085,
      "returnedĠ": 2086,
      "rapp": 2087,
      "mentĊ": 2088,
      "ero": 2089,
      "Templ": 2090,
      "valueĠ": 2091,
      "cmpĊ": 2092,
      "warm": 2093,
      "lineĊ": 2094,
      "mark": 2095,
      "planĊ": 2096,
      "sy": 2097,
      "UD": 2098,
      "ca": 2099,
      "codesĊ": 2100,
      "nameĠ": 2101,
      "providerĊ": 2102,
      "Nest": 2103,
      "agent": 2104,
      "ingress": 2105,
      "StringsĊ": 2106,
      "esh": 2107,
      "SuiteĊ": 2108,
      "/go-": 2109,
      "appĊ": 2110,
      "targetĊ": 2111,
      "/pkg/": 2112,
      "Do": 2113,
      "eb": 2114,
      "arsĊ": 2115,
      "/http": 2116,
      "Limit": 2117,
      "project": 2118,
      "Apply": 2119,
      "\"GE": 2120,
      "00Ċ": 2121,
      "testing": 2122,
      "Skip": 2123,
      "edi": 2124,
      "OffsetĊ": 2125,
      "optĊ": 2126,
      "Register": 2127,
      "Ġ%q\"Ċ": 2128,
      "support": 2129,
      "Invalid": 2130,
      "78": 2131,
      "Init": 2132,
      "enameĊ": 2133,
      "OKĊ": 2134,
      "Encod": 2135,
      "ManagerĊ": 2136,
      "----": 2137,
      "wantErrĊ": 2138,
      "Unmarsh": 2139,
      "ant": 2140,
      "gestĊ": 2141,
      "clu": 2142,
      "Inst": 2143,
      "bar\"Ċ": 2144,
      "Transport": 2145,
      "envĊ": 2146,
      "natsĊ": 2147,
      "atab": 2148,
      "flagsĊ": 2149,
      "expectĊ": 2150,
      "bug": 2151,
      "Overrid": 2152,
      "indow": 2153,
      "sn": 2154,
      "Arra": 2155,
      "outĠ": 2156,
      "cmd": 2157,
      "db": 2158,
      "elem": 2159,
      "image": 2160,
      "pack": 2161,
      "ateg": 2162,
      "versionĊ": 2163,
      "stem": 2164,
      "sign": 2165,
      "anif": 2166,
      "EnterpriseMetaĊ": 2167,
      "Ġ%s": 2168,
      "should": 2169,
      "ationĠ": 2170,
      "pendenc": 2171,
      "expĊ": 2172,
      "\"err": 2173,
      "Tem": 2174,
      "module": 2175,
      "angesĊ": 2176,
      "whenĠ": 2177,
      "manag": 2178,
      "cloud": 2179,
      "PartitionĊ": 2180,
      "kipĊ": 2181,
      "tls": 2182,
      "zĊ": 2183,
      "ProxyĊ": 2184,
      "Rul": 2185,
      "Forward": 2186,
      "\"b\"Ċ": 2187,
      "Def": 2188,
      "ill": 2189,
      "Ġ%d\"Ċ": 2190,
      "Agent": 2191,
      "ListenerĊ": 2192,
      "BalancerĊ": 2193,
      "sampl": 2194,
      "bodyĊ": 2195,
      "()Ġ": 2196,
      "age\"Ċ": 2197,
      "FoundĊ": 2198,
      "msg": 2199,
      "eat": 2200,
      "es_": 2201,
      "44": 2202,
      "faceĊ": 2203,
      "\"F": 2204,
      "muxĊ": 2205,
      "ContainerĊ": 2206,
      "ator": 2207,
      "key\"Ċ": 2208,
      "es.": 2209,
      "ok": 2210,
      "TĠ": 2211,
      "SliceĊ": 2212,
      "Input": 2213,
      "\"GET\"Ċ": 2214,
      "vis": 2215,
      "ResourcesĊ": 2216,
      "Runn": 2217,
      "panicĊ": 2218,
      "\"test-": 2219,
      "ĠĠĠĠĠĠĠĠĠĠĠĠĠĠĠĠ": 2220,
      "lyĠ": 2221,
      "del": 2222,
      "current": 2223,
      "subĊ": 2224,
      "ancel": 2225,
      "UserĊ": 2226,
      "ender": 2227,
      "testutilĊ": 2228,
      "Cur": 2229,
      "\"http://": 2230,
      "no": 2231,
      "TLSĊ": 2232,
      "l:\"": 2233,
      "Snapshot": 2234,
      "Summar": 2235,
      "ReqĊ": 2236,
      "\"default\"Ċ": 2237,
      "TransportĊ": 2238,
      "EnabledĊ": 2239,
      "write": 2240,
      "require": 2241,
      "eam": 2242,
      "pDirĊ": 2243,
      "crib": 2244,
      "\"invalidĠ": 2245,
      "ptestĊ": 2246,
      "TargetĊ": 2247,
      "httptestĊ": 2248,
      "Trim": 2249,
      "newĊ": 2250,
      "prefixĊ": 2251,
      "LengthĊ": 2252,
      "ory": 2253,
      "GatewayĊ": 2254,
      "ailĊ": 2255,
      "UDP": 2256,
      "ernet": 2257,
      "lay": 2258,
      "Destin": 2259,
      "req": 2260,
      "failed": 2261,
      "Pass": 2262,
      "asĊ": 2263,
      "asĠ": 2264,
      "HTTPĊ": 2265,
      "descript": 2266,
      "test.": 2267,
      "diff": 2268,
      "WithTimeoutĊ": 2269,
      "serviceĊ": 2270,
      "docker": 2271,
      "s1Ċ": 2272,
      "NewRequestĊ": 2273,
      "query": 2274,
      "askĊ": 2275,
      "hcl": 2276,
      ":\\n": 2277,
      "Tx": 2278,
      "listener": 2279,
      "]Ċ": 2280,
      "faultĊ": 2281,
      "TypesĊ": 2282,
      "format": 2283,
      "ifierĊ": 2284,
      "lsĊ": 2285,
      "]Ġ": 2286,
      "Authoriz": 2287,
      "aitĊ": 2288,
      "rong": 2289,
      "er_": 2290,
      "Hook": 2291,
      "VĊ": 2292,
      "resolverĊ": 2293,
      "LogĊ": 2294,
      "\"id\"Ċ": 2295,
      "ĉĉĉĉĉĉ": 2296,
      "ViewĊ": 2297,
      "18": 2298,
      "countĊ": 2299,
      "\"\\n\"Ċ": 2300,
      "Direct": 2301,
      "ative": 2302,
      "awsĊ": 2303,
      "ingle": 2304,
      "prec": 2305,
      "erence": 2306,
      "Top": 2307,
      "after": 2308,
      "IntĊ": 2309,
      "Plugin": 2310,
      "strconvĊ": 2311,
      "55": 2312,
      "\"[": 2313,
      "rypt": 2314,
      "19": 2315,
      "localhost": 2316,
      "one\"Ċ": 2317,
      "Validate": 2318,
      "rape": 2319,
      "LimitĊ": 2320,
      "ĠisĠ": 2321,
      "IPv": 2322,
      "version": 2323,
      "xx": 2324,
      "\"google.golang.org/grpc/": 2325,
      "ageĠ": 2326,
      ":Ġ%v": 2327,
      "Ġ%sĠ": 2328,
      "StopĊ": 2329,
      "tru": 2330,
      "SeriesĊ": 2331,
      "annotĠ": 2332,
      "\":Ġ{Ċ": 2333,
      "Cons": 2334,
      "Execut": 2335,
      "Co": 2336,
      "total": 2337,
      "indexĊ": 2338,
      "Cache": 2339,
      "\"id": 2340,
      "ressionĊ": 2341,
      "Shutd": 2342,
      "ction": 2343,
      "metadataĊ": 2344,
      "Handler": 2345,
      "syncĊ": 2346,
      "Pay": 2347,
      "gatew": 2348,
      "dev": 2349,
      "tx": 2350,
      "1234": 2351,
      "ContentĊ": 2352,
      "\",Ġ": 2353,
      "16Ċ": 2354,
      "rior": 2355,
      "configuration": 2356,
      "route": 2357,
      "one": 2358,
      "AN": 2359,
      "\"1\"Ċ": 2360,
      "CredentialsĊ": 2361,
      "ual": 2362,
      "alo": 2363,
      "MarshalĊ": 2364,
      "jsĊ": 2365,
      "inal": 2366,
      "elin": 2367,
      "direct": 2368,
      "errors\"Ċ": 2369,
      "e2": 2370,
      "Consum": 2371,
      "metav": 2372,
      "Last": 2373,
      "top": 2374,
      "\"Error": 2375,
      "Report": 2376,
      "ve": 2377,
      "v3Ċ": 2378,
      "second": 2379,
      "metav1Ċ": 2380,
      "content": 2381,
      "EN": 2382,
      "1Ġ": 2383,
      "fun": 2384,
      "gener": 2385,
      "sess": 2386,
      "lib": 2387,
      "aryĊ": 2388,
      "ensit": 2389,
      "ĠinĠ": 2390,
      "ternal": 2391,
      "Condit": 2392,
      ",omitempty\"Ġ": 2393,
      "ux": 2394,
      "ullĊ": 2395,
      "inter": 2396,
      "lnĊ": 2397,
      "append": 2398,
      "plication": 2399,
      "SpanĊ": 2400,
      "sm": 2401,
      "\"bad": 2402,
      "Intention": 2403,
      "Require": 2404,
      "Red": 2405,
      "ClusterĊ": 2406,
      "Series": 2407,
      "ph": 2408,
      "custom": 2409,
      "AgentĊ": 2410,
      "serĊ": 2411,
      "ganization": 2412,
      "co": 2413,
      "HelperĊ": 2414,
      "ument": 2415,
      "riverĊ": 2416,
      "oper": 2417,
      "InputĊ": 2418,
      "90": 2419,
      "Raw": 2420,
      "Port": 2421,
      "EndĊ": 2422,
      "PlanĊ": 2423,
      "aclĊ": 2424,
      "CfgĊ": 2425,
      "HeadersĊ": 2426,
      "80\"Ċ": 2427,
      "Info": 2428,
      "Exist": 2429,
      "validate": 2430,
      "haveĠ": 2431,
      "MĊ": 2432,
      "test\"Ċ": 2433,
      "with-": 2434,
      "ccessĊ": 2435,
      "TypeNameĊ": 2436,
      "nextĊ": 2437,
      "runĊ": 2438,
      "SummaryĊ": 2439,
      "prom": 2440,
      "parent": 2441,
      "snapshot": 2442,
      "BucketĊ": 2443,
      "SpaceĊ": 2444,
      ".io/": 2445,
      "false": 2446,
      "command": 2447,
      "rivate": 2448,
      "OfĊ": 2449,
      "ledĊ": 2450,
      "CleanupĊ": 2451,
      "NextĊ": 2452,
      "createĠ": 2453,
      "orig": 2454,
      "chr": 2455,
      "Discovery": 2456,
      "atalo": 2457,
      "Resolver": 2458,
      "DS": 2459,
      "fileĠ": 2460,
      "Iter": 2461,
      "NotFoundĊ": 2462,
      "ookĊ": 2463,
      "file\"Ċ": 2464,
      "Message": 2465,
      "Plat": 2466,
      "c/": 2467,
      "valuesĊ": 2468,
      "After": 2469,
      "EC": 2470,
      "md": 2471,
      "TO": 2472,
      "\"%s": 2473,
      "LabelValueĊ": 2474,
      "CL": 2475,
      "BucketsĊ": 2476,
      "go/": 2477,
      "DefaultĊ": 2478,
      "aut": 2479,
      "SQ": 2480,
      "Handle": 2481,
      "my": 2482,
      "contentĊ": 2483,
      "Prefix": 2484,
      "raw": 2485,
      "overrid": 2486,
      "uint32Ċ": 2487,
      "atedĠ": 2488,
      "spa": 2489,
      "subs": 2490,
      "15": 2491,
      "test_": 2492,
      "Wh": 2493,
      "OpĊ": 2494,
      "Batch": 2495,
      "Migr": 2496,
      ".google": 2497,
      "metricsĊ": 2498,
      "\"github.com/moby/moby": 2499,
      "viewĊ": 2500,
      "resourceĠ": 2501,
      "Search": 2502,
      "*\"Ċ": 2503,
      "que": 2504,
      "FromStringsĊ": 2505,
      "off": 2506,
      "Uni": 2507,
      "uginĊ": 2508,
      "IsĊ": 2509,
      "casesĊ": 2510,
      "ĠtheĠ": 2511,
      "lobal": 2512,
      "OĊ": 2513,
      "Weigh": 2514,
      "ilsĊ": 2515,
      "baseĊ": 2516,
      "true": 2517,
      "TheĠ": 2518,
      "Secret": 2519,
      "\"shouldĠ": 2520,
      "Struct": 2521,
      "ypesĊ": 2522,
      "chang": 2523,
      "StatsĊ": 2524,
      "daemon": 2525,
      "Upstream": 2526,
      "testCasesĊ": 2527,
      "templ": 2528,
      "ody": 2529,
      "input": 2530,
      "Before": 2531,
      "isĠnotĠ": 2532,
      "Deep": 2533,
      ".com\"Ċ": 2534,
      "o\"Ċ": 2535,
      "open": 2536,
      "modul": 2537,
      "SubjectĊ": 2538,
      "lb": 2539,
      "8s.": 2540,
      "metadata": 2541,
      "Dynam": 2542,
      "ing/": 2543,
      "errdef": 2544,
      "RouteĊ": 2545,
      "Lead": 2546,
      "40": 2547,
      "erenceĊ": 2548,
      "az\"Ċ": 2549,
      "KeysĊ": 2550,
      "Tri": 2551,
      "Daem": 2552,
      "und": 2553,
      "Disable": 2554,
      "8.": 2555,
      "ImageĊ": 2556,
      "Plann": 2557,
      "TI": 2558,
      "plĊ": 2559,
      "Backend": 2560,
      "StatusOKĊ": 2561,
      "bserv": 2562,
      "InterfaceĊ": 2563,
      "ShutdownĊ": 2564,
      "does": 2565,
      "\"hello": 2566,
      "suiteĊ": 2567,
      "\"errorĠ": 2568,
      "napshotĊ": 2569,
      "slic": 2570,
      "rel": 2571,
      "\"default-": 2572,
      "dest": 2573,
      "HasErrorsĊ": 2574,
      "SettingsĊ": 2575,
      "true\"Ċ": 2576,
      "22": 2577,
      "Rule": 2578,
      "#v\"Ċ": 2579,
      "wgĊ": 2580,
      "\"os\"Ċ": 2581,
      "count": 2582,
      "SrcĊ": 2583,
      "att": 2584,
      "Component": 2585,
      "BackendĊ": 2586,
      "LevelĊ": 2587,
      "Dir": 2588,
      "histogramĊ": 2589,
      "HashĊ": 2590,
      "timestam": 2591,
      "exprĊ": 2592,
      "actual": 2593,
      "%d": 2594,
      "PrintfĊ": 2595,
      "receiv": 2596,
      "atesĊ": 2597,
      "FlagĊ": 2598,
      "LocationĊ": 2599,
      "auseĊ": 2600,
      "api/": 2601,
      "curity": 2602,
      "Flag": 2603,
      "AL": 2604,
      "Tag": 2605,
      "cribeĊ": 2606,
      "complet": 2607,
      "DN": 2608,
      "ware": 2609,
      "river": 2610,
      "uteĊ": 2611,
      "startĊ": 2612,
      "remov": 2613,
      "uint": 2614,
      "envoy_": 2615,
      "FormatĊ": 2616,
      "log\"Ċ": 2617,
      "discover": 2618,
      "tlsĊ": 2619,
      "ementĊ": 2620,
      "aint": 2621,
      "Member": 2622,
      "middlewar": 2623,
      "SE": 2624,
      "stop": 2625,
      "+v\"Ċ": 2626,
      "buf": 2627,
      "setup": 2628,
      "Failure": 2629,
      "WaitĊ": 2630,
      "Permiss": 2631,
      "ColumnĊ": 2632,
      "},Ċ": 2633,
      "\"github.com/containerd/containerd": 2634,
      "Kind": 2635,
      "aug": 2636,
      "ns": 2637,
      "report": 2638,
      "Post": 2639,
      "paramsĊ": 2640,
      "storage": 2641,
      "SkipĊ": 2642,
      "gh": 2643,
      "intlnĊ": 2644,
      ",ĠgotĠ%v\"Ċ": 2645,
      "itĠ": 2646,
      "option": 2647,
      "Dynamic": 2648,
      "WriteStringĊ": 2649,
      "flagĊ": 2650,
      "cop": 2651,
      "oldĊ": 2652,
      "metaĊ": 2653,
      "limit": 2654,
      "unknown": 2655,
      "\"run": 2656,
      "-with-": 2657,
      "romĊ": 2658,
      "\"/\"Ċ": 2659,
      "var": 2660,
      "etch": 2661,
      "rpcĊ": 2662,
      "Counter": 2663,
      "#v": 2664,
      "redsĊ": 2665,
      "kubernet": 2666,
      "RecorderĊ": 2667,
      "Paramet": 2668,
      "Agg": 2669,
      "PosĊ": 2670,
      "\"ErrorĠ": 2671,
      "poolĊ": 2672,
      "CacheĊ": 2673,
      "\"127.0.0.": 2674,
      "sec": 2675,
      "requestĊ": 2676,
      "sppbĊ": 2677,
      "=\"Ċ": 2678,
      "Of": 2679,
      "ami": 2680,
      "Unknown": 2681,
      "CallĊ": 2682,
      "aseĠ": 2683,
      "Generate": 2684,
      "Multi": 2685,
      "atter": 2686,
      "ptrĊ": 2687,
      "required": 2688,
      "IdxĊ": 2689,
      "ĠbeĠ": 2690,
      "Equal": 2691,
      "8s.io/": 2692,
      "bt": 2693,
      "StatusCodeĊ": 2694,
      "FailureĊ": 2695,
      "..": 2696,
      "SchemeĊ": 2697,
      "\"1.": 2698,
      "cf": 2699,
      "Ali": 2700,
      "Den": 2701,
      "cr": 2702,
      "store": 2703,
      "convert": 2704,
      "ib": 2705,
      "Ġm": 2706,
      "All": 2707,
      "Control": 2708,
      "17": 2709,
      "Prop": 2710,
      "buff": 2711,
      "det": 2712,
      "UL": 2713,
      "Collect": 2714,
      "process": 2715,
      "200": 2716,
      "Fact": 2717,
      "networkĊ": 2718,
      "ite": 2719,
      "oneĠ": 2720,
      "balancerĊ": 2721,
      "Go": 2722,
      "MetricĊ": 2723,
      "ablesĊ": 2724,
      "BoolĊ": 2725,
      "Fix": 2726,
      "\"github.com/prometheus/": 2727,
      "DigestĊ": 2728,
      "iter": 2729,
      "Bin": 2730,
      "e2eĊ": 2731,
      "ty": 2732,
      "\"errors\"Ċ": 2733,
      "URL": 2734,
      "replyĊ": 2735,
      "Positive": 2736,
      "Each": 2737,
      "OR": 2738,
      "ServersĊ": 2739,
      "Role": 2740,
      "Rol": 2741,
      "avail": 2742,
      "14": 2743,
      "otstr": 2744,
      "use": 2745,
      "ctionĊ": 2746,
      "Lay": 2747,
      "Complet": 2748,
      "]\"Ċ": 2749,
      "Meta": 2750,
      "foo\"Ċ": 2751,
      "tom": 2752,
      "\"github.com/moby/moby/v2/": 2753,
      "kgo": 2754,
      "5\"Ċ": 2755,
      "DĊ": 2756,
      "acl": 2757,
      "pass": 2758,
      "SnapshotĊ": 2759,
      "io\"Ċ": 2760,
      "Level": 2761,
      "Mapp": 2762,
      "execut": 2763,
      "Dom": 2764,
      "Slice": 2765,
      "LoadBalancerĊ": 2766,
      "Diff": 2767,
      "handlerĊ": 2768,
      "Range": 2769,
      "%d\"Ċ": 2770,
      "anner": 2771,
      "sql": 2772,
      "Store": 2773,
      "Down": 2774,
      "google": 2775,
      "mathĊ": 2776,
      "y.": 2777,
      "ĠandĠ": 2778,
      "ResolverĊ": 2779,
      "\"to": 2780,
      "\"ap": 2781,
      "Ext": 2782,
      "methodĊ": 2783,
      "line": 2784,
      "\"k8s.io/": 2785,
      "ptĊ": 2786,
      "\"name\"Ċ": 2787,
      "on-": 2788,
      "prev": 2789,
      "\"github.com/st": 2790,
      "SpansĊ": 2791,
      "retchr": 2792,
      "ify/": 2793,
      "Ingress": 2794,
      "retchr/test": 2795,
      "atom": 2796,
      "\"github.com/stretchr/test": 2797,
      "rongĠ": 2798,
      "source": 2799,
      "AttributeĊ": 2800,
      "Exec": 2801,
      "App": 2802,
      "Pack": 2803,
      "ParamsĊ": 2804,
      "rul": 2805,
      "\"github.com/stretchr/testify/": 2806,
      "Bad": 2807,
      "ootĊ": 2808,
      "Ġ%v,Ġwant": 2809,
      "Mode": 2810,
      "Mesh": 2811,
      "address": 2812,
      "ation\"Ċ": 2813,
      "invalid": 2814,
      "plo": 2815,
      "ystem": 2816,
      "Inv": 2817,
      "Metrics": 2818,
      ".tf": 2819,
      "UiĊ": 2820,
      "msĊ": 2821,
      "series": 2822,
      "Chain": 2823,
      "ryĊ": 2824,
      "20Ċ": 2825,
      "prefix": 2826,
      "closeĊ": 2827,
      "skip": 2828,
      "straint": 2829,
      "statsĊ": 2830,
      "ord": 2831,
      "RoutersĊ": 2832,
      "backendĊ": 2833,
      "svcĊ": 2834,
      "checkĊ": 2835,
      "ocket": 2836,
      "-w": 2837,
      "credential": 2838,
      "rootĊ": 2839,
      "ss": 2840,
      "StmtĊ": 2841,
      "rawĊ": 2842,
      "clusterĊ": 2843,
      "boxĊ": 2844,
      "Track": 2845,
      "retryĊ": 2846,
      "ech": 2847,
      "lyĊ": 2848,
      "ccount": 2849,
      "VarĊ": 2850,
      "path/": 2851,
      "poĊ": 2852,
      "%v\"Ċ": 2853,
      "Repla": 2854,
      "retry": 2855,
      "AddressesĊ": 2856,
      "\"type": 2857,
      "Fal": 2858,
      "errsĊ": 2859,
      "o/": 2860,
      "LineĊ": 2861,
      "diag": 2862,
      "CopyĊ": 2863,
      "us\"Ċ": 2864,
      "\"h": 2865,
      "-0-": 2866,
      "plat": 2867,
      "secret": 2868,
      "resourcesĊ": 2869,
      "OS": 2870,
      "If": 2871,
      "ValidĊ": 2872,
      "ef": 2873,
      "RootĊ": 2874,
      "Command": 2875,
      "MiddlewareĊ": 2876,
      "Prepa": 2877,
      "OptĊ": 2878,
      "Addr": 2879,
      "select": 2880,
      "bugĊ": 2881,
      "setupĊ": 2882,
      "Subscript": 2883,
      "redis": 2884,
      ",ĠbutĠ": 2885,
      "backĊ": 2886,
      "LoadĊ": 2887,
      "m\"Ċ": 2888,
      "record": 2889,
      "AB": 2890,
      "dc": 2891,
      "Pool": 2892,
      "Sle": 2893,
      "_S": 2894,
      "ĠnoĠ": 2895,
      "initial": 2896,
      "ormal": 2897,
      "ME": 2898,
      "Pod": 2899,
      "ultip": 2900,
      "formatĊ": 2901,
      "OptionalĊ": 2902,
      "main": 2903,
      "tag": 2904,
      "uctĊ": 2905,
      "NumberĊ": 2906,
      "grad": 2907,
      "\"{4": 2908,
      "Aggreg": 2909,
      "NewRequest": 2910,
      "export": 2911,
      "GRPC": 2912,
      "ed-": 2913,
      "DateĊ": 2914,
      "y/": 2915,
      "post": 2916,
      "null": 2917,
      "uni": 2918,
      "TagĊ": 2919,
      "Team": 2920,
      "Wrapp": 2921,
      "Curr": 2922,
      "gest": 2923,
      "Fir": 2924,
      "DoĊ": 2925,
      "scĊ": 2926,
      "Reas": 2927,
      "ChainĊ": 2928,
      "\"M": 2929,
      "Publish": 2930,
      "Open": 2931,
      "cordĊ": 2932,
      "exec": 2933,
      "Release": 2934,
      "channel": 2935,
      "uresĊ": 2936,
      "ceĠ": 2937,
      "resultsĊ": 2938,
      "ParseĊ": 2939,
      "\"github.com/containerd/containerd/v2/": 2940,
      "ipelin": 2941,
      "ench": 2942,
      "FalseĊ": 2943,
      "sizeĊ": 2944,
      "Destination": 2945,
      "X-": 2946,
      "Repo": 2947,
      "terraformĊ": 2948,
      "lorĊ": 2949,
      "Balancer": 2950,
      "sourceĊ": 2951,
      "ition": 2952,
      "Partition": 2953,
      "\"net/http": 2954,
      "ChangeĊ": 2955,
      "DE": 2956,
      "Rest": 2957,
      "Runtime": 2958,
      "ProtocolĊ": 2959,
      "Int64Ċ": 2960,
      "prometheusĊ": 2961,
      "38": 2962,
      "\"}": 2963,
      "37": 2964,
      "Part": 2965,
      "UsageĊ": 2966,
      "encĊ": 2967,
      "coun": 2968,
      "egr": 2969,
      "24Ċ": 2970,
      "DeepEqualĊ": 2971,
      "aws": 2972,
      "Vect": 2973,
      "amil": 2974,
      "iron": 2975,
      "IDsĊ": 2976,
      "gressĊ": 2977,
      "jet": 2978,
      "\":Ġ[": 2979,
      "9999": 2980,
      "enable": 2981,
      "Ġb": 2982,
      "apis": 2983,
      "serviceĠ": 2984,
      "_id": 2985,
      "Commit": 2986,
      "cacheĊ": 2987,
      "'tĠ": 2988,
      "\"Ġ{Ċ": 2989,
      "'Ġ": 2990,
      "Marshal": 2991,
      "gor": 2992,
      "part": 2993,
      "te": 2994,
      "hostĊ": 2995,
      "\"bar": 2996,
      "Msg": 2997,
      "specĊ": 2998,
      "Import": 2999,
      "Order": 3000,
      "shouldĠbeĠ": 3001,
      "UIDĊ": 3002,
      "sed": 3003,
      "Export": 3004,
      "ifyĊ": 3005,
      "Session": 3006,
      "ceed": 3007,
      "-1\"Ċ": 3008,
      "iddleware": 3009,
      "nodesĊ": 3010,
      "emptyĠ": 3011,
      "bytes\"Ċ": 3012,
      "\"node": 3013,
      "Ġ=": 3014,
      "asic": 3015,
      "Strateg": 3016,
      "control": 3017,
      "comput": 3018,
      "verityĊ": 3019,
      "Dependenc": 3020,
      "\"}`Ċ": 3021,
      "agent/": 3022,
      "codecĊ": 3023,
      "thisĠ": 3024,
      "\"syn": 3025,
      "errdefsĊ": 3026,
      "ort\"Ċ": 3027,
      "\"In": 3028,
      "AnyĊ": 3029,
      "Planned": 3030,
      "imary": 3031,
      "stateĠ": 3032,
      "LogfĊ": 3033,
      "Buffer": 3034,
      "logg": 3035,
      "::": 3036,
      "rwĊ": 3037,
      "internalĊ": 3038,
      "ChecksĊ": 3039,
      "8\"Ċ": 3040,
      "36": 3041,
      "Cmd": 3042,
      "leĠ": 3043,
      "\"Test": 3044,
      "ATE": 3045,
      "CertĊ": 3046,
      "vari": 3047,
      "parserĊ": 3048,
      "Ġ%d": 3049,
      "providerĠ": 3050,
      "Mo": 3051,
      "routerĊ": 3052,
      "Argum": 3053,
      "Project": 3054,
      "Exit": 3055,
      "remot": 3056,
      "snapĊ": 3057,
      "\"my": 3058,
      "StdoutĊ": 3059,
      "f\"Ċ": 3060,
      "ured": 3061,
      "Send": 3062,
      "AssertĊ": 3063,
      "Array": 3064,
      "useĠ": 3065,
      "Volum": 3066,
      "annerĊ": 3067,
      "\"noĠ": 3068,
      "HookĊ": 3069,
      "view": 3070,
      "chunksĊ": 3071,
      "UN": 3072,
      "Annot": 3073,
      "listen": 3074,
      "DB": 3075,
      "ReadyĊ": 3076,
      "pod": 3077,
      "Inser": 3078,
      "foreĊ": 3079,
      "ocis": 3080,
      "callĊ": 3081,
      "rop": 3082,
      "RulesĊ": 3083,
      "listĊ": 3084,
      "SleepĊ": 3085,
      "PE": 3086,
      "Raf": 3087,
      "AndDo": 3088,
      "Ack": 3089,
      "RespĊ": 3090,
      "erenc": 3091,
      "ell": 3092,
      "\"x": 3093,
      "namespaceĊ": 3094,
      "Terra": 3095,
      "ridg": 3096,
      "NewRequestAndDo": 3097,
      "ocispecĊ": 3098,
      "rest": 3099,
      "usy": 3100,
      "Security": 3101,
      "ak": 3102,
      "apply": 3103,
      "Base": 3104,
      "TrimSpaceĊ": 3105,
      "lev": 3106,
      "Peering": 3107,
      "ParamĊ": 3108,
      "_C": 3109,
      "mainĊ": 3110,
      "response": 3111,
      "bind": 3112,
      "Sty": 3113,
      "IteratorĊ": 3114,
      "when": 3115,
      "ctr": 3116,
      "Assert": 3117,
      "row": 3118,
      "Merg": 3119,
      "\"som": 3120,
      "warn": 3121,
      "ConnectĊ": 3122,
      "sdk": 3123,
      "TS": 3124,
      "\"baz\"Ċ": 3125,
      "e/": 3126,
      "ran": 3127,
      "foundĊ": 3128,
      "Remote": 3129,
      "ResetĊ": 3130,
      "AttrsĊ": 3131,
      "migr": 3132,
      "StructĊ": 3133,
      "Pull": 3134,
      "IdentityĊ": 3135,
      "encoding/": 3136,
      "9\"Ċ": 3137,
      "Bool": 3138,
      "rule": 3139,
      "ollow": 3140,
      "strĊ": 3141,
      "plit": 3142,
      "ChangesĊ": 3143,
      "service\"Ċ": 3144,
      "runtime": 3145,
      "ChanĊ": 3146,
      "ismatch": 3147,
      "BufĊ": 3148,
      "annot": 3149,
      "HE": 3150,
      "ification": 3151,
      "oci": 3152,
      "ft": 3153,
      "MiddlewaresĊ": 3154,
      "CR": 3155,
      "Listener": 3156,
      "==": 3157,
      "nil": 3158,
      "link": 3159,
      "__\"Ċ": 3160,
      "runn": 3161,
      "iveĠ": 3162,
      "configsĊ": 3163,
      "CP": 3164,
      "Func": 3165,
      "releaseĊ": 3166,
      "66": 3167,
      "000": 3168,
      "reference": 3169,
      "pres": 3170,
      "defaultTest": 3171,
      "typeĊ": 3172,
      "multi": 3173,
      "Exempl": 3174,
      "pay": 3175,
      "Secre": 3176,
      "Checksum": 3177,
      "\"UnexpectedĠerror:Ġ%v\"Ċ": 3178,
      "TextĊ": 3179,
      "Repository": 3180,
      "sqlĊ": 3181,
      "jetstreamĊ": 3182,
      "1000Ċ": 3183,
      "grĊ": 3184,
      "yaml:\"": 3185,
      "Terraform": 3186,
      "30": 3187,
      "Metadata": 3188,
      "toĊ": 3189,
      "qlĊ": 3190,
      "Doc": 3191,
      "spĊ": 3192,
      "fieldĊ": 3193,
      "config\"Ċ": 3194,
      "doesĠnotĠ": 3195,
      "nowĊ": 3196,
      "DebugĊ": 3197,
      "Identity": 3198,
      "]`Ċ": 3199,
      "keysĊ": 3200,
      "sbĊ": 3201,
      "WaitFor": 3202,
      "ĠofĠ": 3203,
      "Timeout": 3204,
      "\"expect": 3205,
      "Comput": 3206,
      "Total": 3207,
      "Sandbox": 3208,
      "full": 3209,
      "namesĊ": 3210,
      "Hash": 3211,
      "existsĊ": 3212,
      "MutexĊ": 3213,
      "%v/": 3214,
      "edia": 3215,
      "PayloadĊ": 3216,
      "ResultsĊ": 3217,
      "ploy": 3218,
      "UnmarshalĊ": 3219,
      "\"N": 3220,
      "foun": 3221,
      "ath\"Ċ": 3222,
      "ability": 3223,
      "Initial": 3224,
      "Propert": 3225,
      "seĠ": 3226,
      "Reset": 3227,
      "RemoveĊ": 3228,
      "userĊ": 3229,
      "Service_": 3230,
      "CounterĊ": 3231,
      "\"name": 3232,
      "ruleĊ": 3233,
      "AttributeValue": 3234,
      "PrintlnĊ": 3235,
      "Mark": 3236,
      "worl": 3237,
      "next": 3238,
      "ReferenceĊ": 3239,
      "Scrape": 3240,
      "DNS": 3241,
      "Process": 3242,
      "/\"Ċ": 3243,
      "_P": 3244,
      "TagsĊ": 3245,
      "Suf": 3246,
      "eb\"Ċ": 3247,
      "AttributeValueMember": 3248,
      "\"cloud": 3249,
      "1b": 3250,
      "24": 3251,
      "rand": 3252,
      "valsĊ": 3253,
      "SeverityĊ": 3254,
      "\"encoding/": 3255,
      "merg": 3256,
      "FilesĊ": 3257,
      "testpbĊ": 3258,
      "Auto": 3259,
      ":Ġ%q": 3260,
      "ingress-with-": 3261,
      "erred": 3262,
      "isterĊ": 3263,
      "V2Ċ": 3264,
      "iterĊ": 3265,
      "byĠ": 3266,
      "\"aw": 3267,
      "Dead": 3268,
      "timeout": 3269,
      "FI": 3270,
      "verify": 3271,
      "ing_": 3272,
      "PathsĊ": 3273,
      "9}\"Ċ": 3274,
      "anifest": 3275,
      "ay\"Ċ": 3276,
      "EntriesĊ": 3277,
      "\"github.com/moby/moby/v2/daemon": 3278,
      "apiClientĊ": 3279,
      "Rate": 3280,
      "\"io\"Ċ": 3281,
      "#Ġ": 3282,
      "RetryĊ": 3283,
      "+v": 3284,
      "module.": 3285,
      "Ġ-": 3286,
      "opeĊ": 3287,
      "duration": 3288,
      "Low": 3289,
      "RegionĊ": 3290,
      "header": 3291,
      "Gaug": 3292,
      "Ġnil\"Ċ": 3293,
      "s2Ċ": 3294,
      "protocol": 3295,
      "timeoutĊ": 3296,
      "secure": 3297,
      "Observ": 3298,
      ":0": 3299,
      "ApplyĊ": 3300,
      "\"err:Ġ%v\"Ċ": 3301,
      "afterĠ": 3302,
      "Body": 3303,
      "atingĠ": 3304,
      "DescriptorĊ": 3305,
      "access": 3306,
      "DiagnosticĊ": 3307,
      "HandlerFuncĊ": 3308,
      "Pend": 3309,
      "CodecĊ": 3310,
      "addres": 3311,
      "egative": 3312,
      "\"wrongĠ": 3313,
      "daemonĊ": 3314,
      "Use": 3315,
      "fnĊ": 3316,
      "ConfĊ": 3317,
      "partit": 3318,
      "enceĊ": 3319,
      "PlatformĊ": 3320,
      "\"o\"Ċ": 3321,
      "search": 3322,
      "NotNilĊ": 3323,
      "QueryOptionsĊ": 3324,
      "atedĊ": 3325,
      "conf": 3326,
      "\",\"": 3327,
      "can": 3328,
      "ope": 3329,
      "fs": 3330,
      "onlyĠ": 3331,
      "message": 3332,
      "\"X-": 3333,
      "cfg": 3334,
      "-b": 3335,
      "ByteĊ": 3336,
      "Ġw": 3337,
      "bucketĊ": 3338,
      "RowĊ": 3339,
      "who": 3340,
      "Attempt": 3341,
      "Stop": 3342,
      "find": 3343,
      "Grap": 3344,
      "Fpr": 3345,
      ")`Ċ": 3346,
      "Prior": 3347,
      "6\"Ċ": 3348,
      "type\"Ċ": 3349,
      "otalĊ": 3350,
      "Zero": 3351,
      "utilĊ": 3352,
      "30Ċ": 3353,
      "AT": 3354,
      "cv": 3355,
      "lat": 3356,
      "down": 3357,
      "nownĊ": 3358,
      "hook": 3359,
      "otstrap": 3360,
      "path\"Ċ": 3361,
      "itemĊ": 3362,
      "Ac": 3363,
      "eed": 3364,
      ".google.com/": 3365,
      "swarm": 3366,
      "Logg": 3367,
      "Chart": 3368,
      "NetworkĊ": 3369,
      "clude": 3370,
      "Trac": 3371,
      "sessionĊ": 3372,
      "vision": 3373,
      "eroĊ": 3374,
      "ages": 3375,
      "\"root": 3376,
      "Fa": 3377,
      "ExpressionĊ": 3378,
      "Round": 3379,
      "FiltersĊ": 3380,
      "gn": 3381,
      "Ins": 3382,
      "NewReaderĊ": 3383,
      "12Ċ": 3384,
      "prox": 3385,
      "Ġ%dĠ": 3386,
      "more": 3387,
      "DefaultsĊ": 3388,
      "berĠ": 3389,
      "gateway": 3390,
      "ating": 3391,
      "SumĊ": 3392,
      "\"de": 3393,
      "si": 3394,
      "CancelĊ": 3395,
      "ls": 3396,
      "char": 3397,
      "\"github.com/hashicorp/consul/agent/": 3398,
      "TempDirĊ": 3399,
      "ExistsĊ": 3400,
      "Child": 3401,
      "Thresh": 3402,
      "attrsĊ": 3403,
      "Kub": 3404,
      "OutĊ": 3405,
      "Consul": 3406,
      "85": 3407,
      "FT": 3408,
      "doc": 3409,
      "giv": 3410,
      "remote": 3411,
      "Expected": 3412,
      "\"cloud.google.com/": 3413,
      "set\"Ċ": 3414,
      "groupĊ": 3415,
      "\\\\": 3416,
      "FactoryĊ": 3417,
      "StatementĊ": 3418,
      "commonĊ": 3419,
      "commit": 3420,
      "Credentials": 3421,
      "entic": 3422,
      "du": 3423,
      "zero": 3424,
      "\"main": 3425,
      "Upload": 3426,
      "clean": 3427,
      "datab": 3428,
      "exit": 3429,
      "Connection": 3430,
      "pbresourceĊ": 3431,
      "_v3Ċ": 3432,
      "abc": 3433,
      "Sn": 3434,
      "volum": 3435,
      "filesĊ": 3436,
      "HandleĊ": 3437,
      "Bytes": 3438,
      "Organization": 3439,
      "HelpĊ": 3440,
      "instance.": 3441,
      "Nan": 3442,
      "\"web\"Ċ": 3443,
      "HandleFuncĊ": 3444,
      "\"net/http\"Ċ": 3445,
      "EO": 3446,
      "parentĊ": 3447,
      "ItemsĊ": 3448,
      "atedAtĊ": 3449,
      "flow": 3450,
      "offĊ": 3451,
      "metricĊ": 3452,
      "EndpointsĊ": 3453,
      ":\"Ċ": 3454,
      "mountĊ": 3455,
      "middlewareĊ": 3456,
      "Que": 3457,
      "allĠ": 3458,
      "atomicĊ": 3459,
      ">\"Ċ": 3460,
      "SS": 3461,
      "eventĊ": 3462,
      "cs": 3463,
      "\":Ġ1": 3464,
      "DockerCmdĊ": 3465,
      "TOD": 3466,
      "ID\"Ċ": 3467,
      "Helm": 3468,
      "Cap": 3469,
      "arra": 3470,
      "DescĊ": 3471,
      "sampleĊ": 3472,
      "\"TheĠ": 3473,
      "AddrsĊ": 3474,
      "Namespace": 3475,
      "PointsĊ": 3476,
      "DetailĊ": 3477,
      "Window": 3478,
      "ftĊ": 3479,
      "health": 3480,
      "ColorĊ": 3481,
      "CommitĊ": 3482,
      "Ġ\"": 3483,
      "Dev": 3484,
      "invalidĠ": 3485,
      "Cancel": 3486,
      "NewDefault": 3487,
      "MinuteĊ": 3488,
      "ModuleInstanceĊ": 3489,
      "cessĊ": 3490,
      "responseĊ": 3491,
      "\"traefik": 3492,
      "\"{2": 3493,
      ":Ġ%s": 3494,
      "ReleaseĊ": 3495,
      "mustĠbeĠ": 3496,
      "dom": 3497,
      "0.0": 3498,
      "DriverĊ": 3499,
      "}}\"Ċ": 3500,
      "ident": 3501,
      ":Ġgot": 3502,
      "ShortĊ": 3503,
      "version\"Ċ": 3504,
      "pedĊ": 3505,
      "CertificateĊ": 3506,
      "TemplateĊ": 3507,
      "elemet": 3508,
      "Ra": 3509,
      "StderrĊ": 3510,
      "StyleĊ": 3511,
      "ProvidersĊ": 3512,
      "testing.": 3513,
      "MustParse": 3514,
      "tdĊ": 3515,
      "ushĊ": 3516,
      "\\nwant": 3517,
      "headĊ": 3518,
      "blockĊ": 3519,
      "import": 3520,
      "NewClientĊ": 3521,
      "notĠ": 3522,
      "fieldsĊ": 3523,
      "NullĊ": 3524,
      "mount": 3525,
      "j0": 3526,
      "rowsĊ": 3527,
      "77": 3528,
      "Sin": 3529,
      "enabl": 3530,
      "Av": 3531,
      "Certificate": 3532,
      "NewTest": 3533,
      "\"value\"Ċ": 3534,
      "ared": 3535,
      "TODOĊ": 3536,
      "oĠs": 3537,
      "EventsĊ": 3538,
      "Sync": 3539,
      "NewRecorderĊ": 3540,
      "2Ġ": 3541,
      "TestC": 3542,
      "unkĊ": 3543,
      "Internal": 3544,
      "TargetsĊ": 3545,
      "mentsĊ": 3546,
      "Install": 3547,
      "-s": 3548,
      "Termin": 3549,
      "apt": 3550,
      "Admin": 3551,
      "task": 3552,
      "FloatHistogramĊ": 3553,
      "8}\"Ċ": 3554,
      "repositor": 3555,
      "Return": 3556,
      "sys": 3557,
      "role": 3558,
      "netipĊ": 3559,
      "orsĊ": 3560,
      "failed:Ġ%v\"Ċ": 3561,
      "bsĊ": 3562,
      "tool": 3563,
      "equ": 3564,
      "batch": 3565,
      "dial": 3566,
      "litĊ": 3567,
      "enanc": 3568,
      "order": 3569,
      "Expir": 3570,
      "lead": 3571,
      "structure": 3572,
      "traceĊ": 3573,
      "instanc": 3574,
      "admin": 3575,
      "publish": 3576,
      "Prepared": 3577,
      "ArgumentĊ": 3578,
      "ali": 3579,
      "emer": 3580,
      "Decod": 3581,
      "cribe": 3582,
      "TxnĊ": 3583,
      "typĊ": 3584,
      "Only": 3585,
      "RowsĊ": 3586,
      "Operation": 3587,
      "Raft": 3588,
      "uidĊ": 3589,
      "FromĊ": 3590,
      "123456": 3591,
      "consum": 3592,
      "egration": 3593,
      "Transaction": 3594,
      "BeforeĊ": 3595,
      "authzĊ": 3596,
      "CLI": 3597,
      "MethodGetĊ": 3598,
      "OpenĊ": 3599,
      "data/": 3600,
      "HA": 3601,
      "NullValĊ": 3602,
      "ires": 3603,
      "enchmark": 3604,
      "andboxĊ": 3605,
      "Numer": 3606,
      "ProviderConfigĊ": 3607,
      "50Ċ": 3608,
      "bol": 3609,
      "reset": 3610,
      "filenameĊ": 3611,
      "ResourceInstanceĊ": 3612,
      "LeaderĊ": 3613,
      "Sensit": 3614,
      "repoĊ": 3615,
      "itiesĊ": 3616,
      "mt": 3617,
      "thatĠ": 3618,
      "configĠ": 3619,
      "ableĠtoĠ": 3620,
      "tableĊ": 3621,
      "Daemon": 3622,
      "Should": 3623,
      "newTest": 3624,
      "collect": 3625,
      "ountsĊ": 3626,
      "ength": 3627,
      "al\"Ċ": 3628,
      "cp\"Ċ": 3629,
      "trac": 3630,
      "interv": 3631,
      "Task": 3632,
      "StepĊ": 3633,
      "expectErrĊ": 3634,
      "ItemĊ": 3635,
      "WrapperĊ": 3636,
      "entr": 3637,
      "execĊ": 3638,
      "Serve": 3639,
      "E\"Ċ": 3640,
      "ate\"Ċ": 3641,
      "/v2\"Ċ": 3642,
      "partsĊ": 3643,
      "StatĊ": 3644,
      "pare": 3645,
      "fy": 3646,
      "SessionĊ": 3647,
      "platform": 3648,
      "\"true\"Ċ": 3649,
      "forc": 3650,
      "\"service": 3651,
      "Req": 3652,
      "Sel": 3653,
      "Managed": 3654,
      "register": 3655,
      "pol": 3656,
      "hasĠ": 3657,
      "Storage": 3658,
      "JW": 3659,
      "\"github.com/prometheus/prometheus/": 3660,
      "upstream": 3661,
      "sandbox": 3662,
      "oop": 3663,
      "itsĊ": 3664,
      ":Ġ%#v\"Ċ": 3665,
      "\"user": 3666,
      "\"i": 3667,
      "Text": 3668,
      "filterĊ": 3669,
      "crypt": 3670,
      "{{/": 3671,
      "lowĊ": 3672,
      "Extens": 3673,
      "ould": 3674,
      "attributeĊ": 3675,
      "Flush": 3676,
      "caseĊ": 3677,
      "ĠtoĠbeĠ": 3678,
      "Non": 3679,
      "endpointĊ": 3680,
      "spanner": 3681,
      "argĊ": 3682,
      "\"sync\"Ċ": 3683,
      "iver": 3684,
      "\\n%s\"Ċ": 3685,
      "\":Ġ1,Ċ": 3686,
      "recĊ": 3687,
      "external": 3688,
      "\"key": 3689,
      "Ent": 3690,
      "ING": 3691,
      "shouldĠnotĠ": 3692,
      "atalog": 3693,
      "decode": 3694,
      "Uint": 3695,
      "Feat": 3696,
      "WithErrorĊ": 3697,
      "TLSConfigĊ": 3698,
      "dock": 3699,
      "EĊ": 3700,
      "ts": 3701,
      "entriesĊ": 3702,
      "ame": 3703,
      "EX": 3704,
      "component": 3705,
      "WriteHeaderĊ": 3706,
      "[1": 3707,
      "big": 3708,
      "anifestĊ": 3709,
      "PĊ": 3710,
      "SQLĊ": 3711,
      "SelectorĊ": 3712,
      "ash": 3713,
      "PortsĊ": 3714,
      "AttrĊ": 3715,
      "attempt": 3716,
      "\"api": 3717,
      "otel": 3718,
      "ctrĊ": 3719,
      "antĊ": 3720,
      "protobuf": 3721,
      "u\"Ċ": 3722,
      "AnnotationsĊ": 3723,
      "23": 3724,
      "OnlyĊ": 3725,
      "sample": 3726,
      "Ġ'": 3727,
      "dsĊ": 3728,
      "ic\"Ċ": 3729,
      "/helm": 3730,
      "Unmarshal": 3731,
      "clud": 3732,
      "reeĊ": 3733,
      "ardĊ": 3734,
      "Next": 3735,
      "[0": 3736,
      "SuffixĊ": 3737,
      "87": 3738,
      "unc": 3739,
      "RawĊ": 3740,
      "testCaseĊ": 3741,
      "\"application": 3742,
      "15Ċ": 3743,
      "View": 3744,
      "pbpeer": 3745,
      "testEnvĊ": 3746,
      "ClientConfigĊ": 3747,
      "OperationĊ": 3748,
      "Pa": 3749,
      "stmtĊ": 3750,
      "000Ċ": 3751,
      "ures": 3752,
      "irĊ": 3753,
      "Retri": 3754,
      "\"bytes\"Ċ": 3755,
      "irt": 3756,
      "ableĠ": 3757,
      "Second": 3758,
      "\"default-ingress-with-": 3759,
      "\"c\"Ċ": 3760,
      "testĠ": 3761,
      "Column": 3762,
      "NodeServiceĊ": 3763,
      "whoami": 3764,
      "ChartĊ": 3765,
      "DomainĊ": 3766,
      "Constraint": 3767,
      "ivityĊ": 3768,
      "ConfigsĊ": 3769,
      "Hello": 3770,
      "EachĊ": 3771,
      "v2Ċ": 3772,
      "routin": 3773,
      "driver": 3774,
      "LO": 3775,
      "Negative": 3776,
      "aws/": 3777,
      "Value_": 3778,
      "Verify": 3779,
      "aaaa": 3780,
      "her": 3781,
      "|fy": 3782,
      "ĉĉ\"": 3783,
      "tsd": 3784,
      "release": 3785,
      "\"2\"Ċ": 3786,
      "UTC": 3787,
      "\"grpc": 3788,
      "close": 3789,
      "\"/v": 3790,
      "00000000": 3791,
      "\"z": 3792,
      "Famil": 3793,
      "ice": 3794,
      "Global": 3795,
      "CloserĊ": 3796,
      "%sĠ": 3797,
      "BuildĊ": 3798,
      "ReasonĊ": 3799,
      "active": 3800,
      "\"A\"Ċ": 3801,
      "serverĠ": 3802,
      "org": 3803,
      "NewDefaultProviderĊ": 3804,
      "ServersTransportĊ": 3805,
      "StorageĊ": 3806,
      "state\"Ċ": 3807,
      "PluginĊ": 3808,
      "Channel": 3809,
      "wordĊ": 3810,
      "\"google.golang.org/grpc/internal/": 3811,
      "Lat": 3812,
      "name:Ġ": 3813,
      "level": 3814,
      "require\"Ċ": 3815,
      "Full": 3816,
      "testutilsĊ": 3817,
      "mapp": 3818,
      "TCPĊ": 3819,
      "Timestamp": 3820,
      "any": 3821,
      "noĠ": 3822,
      ";Ġwant": 3823,
      "cesĊ": 3824,
      "shĊ": 3825,
      "kubernetes_": 3826,
      "sFor": 3827,
      "localhost:": 3828,
      "cle": 3829,
      "Modify": 3830,
      "64\"Ċ": 3831,
      "usybox": 3832,
      "ention": 3833,
      "before": 3834,
      "Int32Ċ": 3835,
      "Count": 3836,
      "\"$": 3837,
      "ROM": 3838,
      "render": 3839,
      "other": 3840,
      "Look": 3841,
      "âĶ": 3842,
      "Redire": 3843,
      "false\"Ċ": 3844,
      "1}\"Ċ": 3845,
      "SD": 3846,
      "cap": 3847,
      "ThresholdĊ": 3848,
      "StrategyĊ": 3849,
      "0.1": 3850,
      "containers": 3851,
      "\"cloud.google.com/go/": 3852,
      "mut": 3853,
      "IM": 3854,
      "codeĠ": 3855,
      "\"l": 3856,
      "75": 3857,
      "System": 3858,
      "model": 3859,
      "eventsĊ": 3860,
      "matcherĊ": 3861,
      "TimerĊ": 3862,
      "Trace": 3863,
      ".*": 3864,
      "Trust": 3865,
      "200Ċ": 3866,
      "bufferĊ": 3867,
      "Ori": 3868,
      "smith": 3869,
      "coreĊ": 3870,
      "resource\"Ċ": 3871,
      "'\"Ċ": 3872,
      "acy": 3873,
      "Ġ%v,ĠwantĠ%v\"Ċ": 3874,
      "Close": 3875,
      "policyĊ": 3876,
      ".default": 3877,
      "gw": 3878,
      "\\ngot": 3879,
      "/g": 3880,
      "feat": 3881,
      "imageĊ": 3882,
      "FilenameĊ": 3883,
      "resolver": 3884,
      "certĊ": 3885,
      "HĊ": 3886,
      "\"InvalidĠ": 3887,
      "/v1\"Ċ": 3888,
      "Nested": 3889,
      "seriesĊ": 3890,
      "`{Ċ": 3891,
      "Sample": 3892,
      "\"(": 3893,
      ":\\n%s\"Ċ": 3894,
      "tw": 3895,
      "v2": 3896,
      "ListOptionsĊ": 3897,
      "dnsĊ": 3898,
      "atas": 3899,
      "\"http\"Ċ": 3900,
      "erim": 3901,
      "\"hello\"Ċ": 3902,
      "Pipelin": 3903,
      "acĊ": 3904,
      "non": 3905,
      "HostnameĊ": 3906,
      "ScanĊ": 3907,
      "cache": 3908,
      "MountĊ": 3909,
      "entMetaĊ": 3910,
      "data\"Ċ": 3911,
      "tools/": 3912,
      "88": 3913,
      "Private": 3914,
      "tcp": 3915,
      "testMethodĊ": 3916,
      "Configuration": 3917,
      "handl": 3918,
      "releas": 3919,
      "Render": 3920,
      "colum": 3921,
      "supportedĠ": 3922,
      "RequiredĊ": 3923,
      "\"github.com/stretchr/testify/require\"Ċ": 3924,
      ")Ċ": 3925,
      "context": 3926,
      "secon": 3927,
      "addressĊ": 3928,
      "gen": 3929,
      "Validation": 3930,
      "areĠ": 3931,
      "\"got": 3932,
      "Refresh": 3933,
      "1024Ċ": 3934,
      "CalledĊ": 3935,
      "ServiceIDĊ": 3936,
      "drĊ": 3937,
      "Type\"Ċ": 3938,
      "ps": 3939,
      "TransactionĊ": 3940,
      "reflect": 3941,
      "Usage": 3942,
      "tmp": 3943,
      "-2\"Ċ": 3944,
      "Basic": 3945,
      "Debug": 3946,
      "ickerĊ": 3947,
      ".Ċ": 3948,
      "resp": 3949,
      "space": 3950,
      "ktĊ": 3951,
      "Sl": 3952,
      "dst": 3953,
      "n'tĠ": 3954,
      "\"project": 3955,
      "11Ċ": 3956,
      "_name\"Ċ": 3957,
      "g\"Ċ": 3958,
      "VarsĊ": 3959,
      "ponentĊ": 3960,
      "AA": 3961,
      "s3": 3962,
      "External": 3963,
      "NodeIDĊ": 3964,
      "irtual": 3965,
      "Bo": 3966,
      "x50": 3967,
      "timestamp": 3968,
      "agentĊ": 3969,
      "SplitĊ": 3970,
      "clauseĊ": 3971,
      "GetenvĊ": 3972,
      "0.0\"Ċ": 3973,
      "Gin": 3974,
      "Download": 3975,
      "SecretĊ": 3976,
      "Eval": 3977,
      "types/": 3978,
      "install": 3979,
      "Ġ%+v\"Ċ": 3980,
      "ustersĊ": 3981,
      "encyĊ": 3982,
      "Deprec": 3983,
      "bad": 3984,
      "info": 3985,
      "exempl": 3986,
      "toĠbeĠ": 3987,
      "Ġ%qĠ": 3988,
      "FprintfĊ": 3989,
      "Name\"Ċ": 3990,
      "versionĠ": 3991,
      "handle": 3992,
      "BaseĊ": 3993,
      "ner": 3994,
      "assert\"Ċ": 3995,
      "Content-": 3996,
      "26": 3997,
      "Mk": 3998,
      "Datab": 3999,
      "Ġerror": 4000,
      "Rece": 4001,
      "\"key\"Ċ": 4002,
      "ql": 4003,
      "stub": 4004,
      "\"path/": 4005,
      "ized": 4006,
      "ElemĊ": 4007,
      "imagesĊ": 4008,
      "nalĊ": 4009,
      "omeg": 4010,
      "stackaddrsĊ": 4011,
      "\"__meta_kubernetes_": 4012,
      "\"th": 4013,
      "ProfileĊ": 4014,
      "setĠ": 4015,
      "\"foobar\"Ċ": 4016,
      "policy": 4017,
      "Support": 4018,
      "plex": 4019,
      "look": 4020,
      "ResourceInstanceObject": 4021,
      "96": 4022,
      "_g": 4023,
      "ReportĊ": 4024,
      "LinuxĊ": 4025,
      "messageĊ": 4026,
      "Float64Ċ": 4027,
      "ipv": 4028,
      "Compil": 4029,
      "4.": 4030,
      "\"child": 4031,
      "Ign": 4032,
      "\"us": 4033,
      "delete": 4034,
      "/b": 4035,
      "kind": 4036,
      "RequestsĊ": 4037,
      "TopicĊ": 4038,
      "Mount": 4039,
      "Ġ\"Ċ": 4040,
      "entry": 4041,
      "regĊ": 4042,
      "ValueTypeĊ": 4043,
      "1-": 4044,
      "KV": 4045,
      "certific": 4046,
      "ELE": 4047,
      "lied": 4048,
      "Sing": 4049,
      "Replic": 4050,
      "Receiv": 4051,
      "ingĠforĠ": 4052,
      "filepath\"Ċ": 4053,
      "token\"Ċ": 4054,
      "expectedErrĊ": 4055,
      "deleteĊ": 4056,
      "returnedĠerror:Ġ%v\"Ċ": 4057,
      "s3Ċ": 4058,
      "mockĊ": 4059,
      "(`": 4060,
      "ByĊ": 4061,
      "TR": 4062,
      "send": 4063,
      "HistogramsĊ": 4064,
      "parseĠ": 4065,
      "writerĊ": 4066,
      "ouldĠnotĠ": 4067,
      "Subject": 4068,
      "Vector": 4069,
      "util": 4070,
      "berĠofĠ": 4071,
      "_id\"Ċ": 4072,
      "13": 4073,
      "Flo": 4074,
      "ModelĊ": 4075,
      "pgtypeĊ": 4076,
      "UnknownValĊ": 4077,
      "sure": 4078,
      "ExecĊ": 4079,
      "127.0.0.": 4080,
      "\"tooĠs": 4081,
      "src": 4082,
      "serviceNameĊ": 4083,
      "btpbĊ": 4084,
      "ImplĊ": 4085,
      "accept": 4086,
      "\"tooĠslow": 4087,
      "`json:\",omitempty\"`Ċ": 4088,
      "Put": 4089,
      "transport": 4090,
      "nodeIDĊ": 4091,
      "Size": 4092,
      "LowerĊ": 4093,
      "chain": 4094,
      "StackĊ": 4095
    },
    "merges": [
      [
        "e",
        "r"
      ],
      [
        "t",
        "Ċ"
      ],
      [
        "e",
        "Ċ"
      ],
      [
        "e",
        "s"
      ],
      [
        "i",
        "n"
      ],
      [
        "\"",
        "Ċ"
      ],
      [
        "o",
        "n"
      ],
      [
        "s",
        "Ċ"
      ],
      [
        "r",
        "Ċ"
      ],
      [
        "a",
        "t"
      ],
      [
        "s",
        "t"
      ],
      [
        "e",
        "n"
      ],
      [
        "a",
        "l"
      ],
      [
        "r",
        "o"
      ],
      [
        "in",
        "g"
      ],
      [
        "r",
        "e"
      ],
      [
        "i",
        "l"
      ],
      [
        "c",
        "t"
      ],
      [
        "a",
        "n"
      ],
      [
        "a",
        "m"
      ],
      [
        "er",
        "rĊ"
      ],
      [
        "e",
        "t"
      ],
      [
        "o",
        "r"
      ],
      [
        "i",
        "t"
      ],
      [
        "d",
        "Ċ"
      ],
      [
        "ing",
        "Ċ"
      ],
      [
        "i",
        "on"
      ],
      [
        "es",
        "t"
      ],
      [
        "er",
        "Ċ"
      ],
      [
        "a",
        "r"
      ],
      [
        "e",
        "x"
      ],
      [
        "st",
        "r"
      ],
      [
        "i",
        "c"
      ],
      [
        "o",
        "u"
      ],
      [
        "il",
        "Ċ"
      ],
      [
        "n",
        "ilĊ"
      ],
      [
        "e",
        "d"
      ],
      [
        "y",
        "Ċ"
      ],
      [
        "C",
        "on"
      ],
      [
        "t",
        "r"
      ],
      [
        "c",
        "on"
      ],
      [
        "c",
        "Ċ"
      ],
      [
        "e",
        "l"
      ],
      [
        "c",
        "k"
      ],
      [
        "f",
        "i"
      ],
      [
        "o",
        "d"
      ],
      [
        "l",
        "o"
      ],
      [
        "es",
        "Ċ"
      ],
      [
        "f",
        "Ċ"
      ],
      [
        "c",
        "h"
      ],
      [
        "str",
        "ingĊ"
      ],
      [
        "p",
        "Ċ"
      ],
      [
        "p",
        "e"
      ],
      [
        "t",
        "est"
      ],
      [
        "a",
        "d"
      ],
      [
        "q",
        "u"
      ],
      [
        "E",
        "r"
      ],
      [
        "R",
        "e"
      ],
      [
        "i",
        "m"
      ],
      [
        "a",
        "g"
      ],
      [
        "Ġ",
        "Ġ"
      ],
      [
        "u",
        "l"
      ],
      [
        "a",
        "s"
      ],
      [
        "am",
        "eĊ"
      ],
      [
        "o",
        "m"
      ],
      [
        "p",
        "t"
      ],
      [
        "en",
        "t"
      ],
      [
        "l",
        "e"
      ],
      [
        "er",
        "v"
      ],
      [
        "g",
        "Ċ"
      ],
      [
        "i",
        "d"
      ],
      [
        "o",
        "l"
      ],
      [
        "S",
        "t"
      ],
      [
        "l",
        "i"
      ],
      [
        "I",
        "n"
      ],
      [
        "u",
        "t"
      ],
      [
        "x",
        "Ċ"
      ],
      [
        "u",
        "n"
      ],
      [
        "o",
        "t"
      ],
      [
        "r",
        "es"
      ],
      [
        "ĉ",
        "ĉ"
      ],
      [
        "Er",
        "ro"
      ],
      [
        "e",
        "m"
      ],
      [
        "e",
        "w"
      ],
      [
        "al",
        "Ċ"
      ],
      [
        "e",
        "Ġ"
      ],
      [
        "a",
        "b"
      ],
      [
        "0",
        "Ċ"
      ],
      [
        "in",
        "t"
      ],
      [
        "it",
        "h"
      ],
      [
        "a",
        "p"
      ],
      [
        ":",
        "Ġ"
      ],
      [
        "u",
        "eĊ"
      ],
      [
        "ion",
        "Ċ"
      ],
      [
        "N",
        "ameĊ"
      ],
      [
        "u",
        "b"
      ],
      [
        "a",
        "Ċ"
      ],
      [
        "er",
        "ro"
      ],
      [
        "i",
        "s"
      ],
      [
        "en",
        "tĊ"
      ],
      [
        "c",
        "e"
      ],
      [
        "R",
        "es"
      ],
      [
        "p",
        "l"
      ],
      [
        "t",
        "ex"
      ],
      [
        "S",
        "erv"
      ],
      [
        "t",
        "o"
      ],
      [
        "1",
        "Ċ"
      ],
      [
        "Con",
        "fi"
      ],
      [
        "at",
        "e"
      ],
      [
        "h",
        "Ċ"
      ],
      [
        "ct",
        "xĊ"
      ],
      [
        "V",
        "al"
      ],
      [
        "u",
        "r"
      ],
      [
        "s",
        "e"
      ],
      [
        "pe",
        "ct"
      ],
      [
        "f",
        "a"
      ],
      [
        "y",
        "p"
      ],
      [
        "ou",
        "r"
      ],
      [
        "c",
        "om"
      ],
      [
        "b",
        "Ċ"
      ],
      [
        "tex",
        "tĊ"
      ],
      [
        "p",
        "ro"
      ],
      [
        "a",
        "in"
      ],
      [
        "s",
        "\"Ċ"
      ],
      [
        "_",
        "Ċ"
      ],
      [
        "s",
        "eĊ"
      ],
      [
        "N",
        "ew"
      ],
      [
        "ed",
        "Ġ"
      ],
      [
        "n",
        "Ċ"
      ],
      [
        "E",
        "n"
      ],
      [
        "t",
        "er"
      ],
      [
        "ex",
        "pect"
      ],
      [
        "t",
        "im"
      ],
      [
        "o",
        "o"
      ],
      [
        "i",
        "r"
      ],
      [
        "P",
        "ro"
      ],
      [
        "es",
        "tĊ"
      ],
      [
        "E",
        "x"
      ],
      [
        "I",
        "D"
      ],
      [
        "ul",
        "t"
      ],
      [
        "i",
        "Ċ"
      ],
      [
        "t",
        "t"
      ],
      [
        "T",
        "Ċ"
      ],
      [
        "s",
        "er"
      ],
      [
        "Erro",
        "rĊ"
      ],
      [
        "S",
        "tr"
      ],
      [
        "Erro",
        "r"
      ],
      [
        "\"",
        "g"
      ],
      [
        "i",
        "st"
      ],
      [
        "2",
        "Ċ"
      ],
      [
        "e",
        "ct"
      ],
      [
        "u",
        "m"
      ],
      [
        "o",
        "Ċ"
      ],
      [
        "c",
        "eĊ"
      ],
      [
        "en",
        "Ċ"
      ],
      [
        "ĠĠ",
        "ĠĠ"
      ],
      [
        "a",
        "ck"
      ],
      [
        "d",
        "i"
      ],
      [
        "v",
        "al"
      ],
      [
        "re",
        "qu"
      ],
      [
        "T",
        "est"
      ],
      [
        "L",
        "o"
      ],
      [
        "k",
        "Ċ"
      ],
      [
        "ou",
        "n"
      ],
      [
        "li",
        "entĊ"
      ],
      [
        "n",
        "am"
      ],
      [
        "Serv",
        "ic"
      ],
      [
        "w",
        "an"
      ],
      [
        "A",
        "d"
      ],
      [
        "e",
        "\"Ċ"
      ],
      [
        "St",
        "at"
      ],
      [
        "s",
        "h"
      ],
      [
        "p",
        "o"
      ],
      [
        "v",
        "er"
      ],
      [
        "C",
        "h"
      ],
      [
        "erro",
        "rĊ"
      ],
      [
        "l",
        "Ċ"
      ],
      [
        "at",
        "ion"
      ],
      [
        "h",
        "tt"
      ],
      [
        "T",
        "yp"
      ],
      [
        "test",
        "ingĊ"
      ],
      [
        "d",
        "e"
      ],
      [
        "Confi",
        "gĊ"
      ],
      [
        "an",
        "d"
      ],
      [
        "f",
        "or"
      ],
      [
        "m",
        "Ċ"
      ],
      [
        "F",
        "at"
      ],
      [
        ":Ġ",
        "%"
      ],
      [
        "v",
        "Ċ"
      ],
      [
        "ID",
        "Ċ"
      ],
      [
        "D",
        "i"
      ],
      [
        "`",
        "Ċ"
      ],
      [
        ",",
        "Ġ"
      ],
      [
        "D",
        "e"
      ],
      [
        "t",
        "ain"
      ],
      [
        "e",
        "dĊ"
      ],
      [
        "M",
        "et"
      ],
      [
        "4",
        "Ċ"
      ],
      [
        "Typ",
        "eĊ"
      ],
      [
        "v",
        "id"
      ],
      [
        "f",
        "m"
      ],
      [
        ".",
        "com"
      ],
      [
        "r",
        "i"
      ],
      [
        "e",
        "tĊ"
      ],
      [
        "O",
        "pt"
      ],
      [
        "Ġ",
        "%"
      ],
      [
        "m",
        "et"
      ],
      [
        "tr",
        "ueĊ"
      ],
      [
        "p",
        "en"
      ],
      [
        "Re",
        "qu"
      ],
      [
        "at",
        "ch"
      ],
      [
        "n",
        "ameĊ"
      ],
      [
        "T",
        "im"
      ],
      [
        "con",
        "fi"
      ],
      [
        "u",
        "st"
      ],
      [
        "Val",
        "ueĊ"
      ],
      [
        "g",
        "r"
      ],
      [
        "Error",
        "fĊ"
      ],
      [
        "b",
        "y"
      ],
      [
        "tim",
        "eĊ"
      ],
      [
        "ion",
        "sĊ"
      ],
      [
        "u",
        "s"
      ],
      [
        "Ad",
        "d"
      ],
      [
        ".com",
        "/"
      ],
      [
        "c",
        "tĊ"
      ],
      [
        "od",
        "eĊ"
      ],
      [
        "u",
        "p"
      ],
      [
        "ir",
        "eĊ"
      ],
      [
        "o",
        "w"
      ],
      [
        "p",
        "or"
      ],
      [
        "s",
        "erv"
      ],
      [
        "fa",
        "ult"
      ],
      [
        "r",
        "it"
      ],
      [
        "W",
        "ith"
      ],
      [
        "es",
        "s"
      ],
      [
        "requ",
        "ireĊ"
      ],
      [
        "f",
        "il"
      ],
      [
        "v",
        "\"Ċ"
      ],
      [
        "ith",
        "ub"
      ],
      [
        "fm",
        "tĊ"
      ],
      [
        "ag",
        "sĊ"
      ],
      [
        "P",
        "ar"
      ],
      [
        "ar",
        "g"
      ],
      [
        "g",
        "o"
      ],
      [
        "at",
        "hĊ"
      ],
      [
        "k",
        "e"
      ],
      [
        "ab",
        "el"
      ],
      [
        "o",
        "ol"
      ],
      [
        "ad",
        "d"
      ],
      [
        "an",
        "g"
      ],
      [
        "er",
        "s"
      ],
      [
        "ou",
        "t"
      ],
      [
        "ithub",
        ".com/"
      ],
      [
        "erro",
        "r"
      ],
      [
        "0",
        "0"
      ],
      [
        "F",
        "il"
      ],
      [
        "our",
        "ce"
      ],
      [
        "m",
        "a"
      ],
      [
        "od",
        "e"
      ],
      [
        "t",
        "h"
      ],
      [
        "\"g",
        "ithub.com/"
      ],
      [
        "\"",
        "\"Ċ"
      ],
      [
        "u",
        "ct"
      ],
      [
        "ck",
        "Ċ"
      ],
      [
        "r",
        "a"
      ],
      [
        "p",
        "on"
      ],
      [
        "T",
        "o"
      ],
      [
        "Con",
        "textĊ"
      ],
      [
        "ct",
        "yĊ"
      ],
      [
        "q",
        "Ċ"
      ],
      [
        "al",
        "fĊ"
      ],
      [
        "U",
        "n"
      ],
      [
        "Fat",
        "alfĊ"
      ],
      [
        "al",
        "l"
      ],
      [
        "con",
        "textĊ"
      ],
      [
        "E",
        "qu"
      ],
      [
        "at",
        "ionĊ"
      ],
      [
        "b",
        "u"
      ],
      [
        "in",
        "tĊ"
      ],
      [
        "i",
        "z"
      ],
      [
        "K",
        "e"
      ],
      [
        "i",
        "v"
      ],
      [
        "Str",
        "ingĊ"
      ],
      [
        "ic",
        "Ċ"
      ],
      [
        "at",
        "eĊ"
      ],
      [
        "str",
        "uct"
      ],
      [
        "ool",
        "Ċ"
      ],
      [
        "p",
        "a"
      ],
      [
        "Confi",
        "g"
      ],
      [
        "6",
        "4Ċ"
      ],
      [
        "C",
        "om"
      ],
      [
        "p",
        "r"
      ],
      [
        "er",
        "sĊ"
      ],
      [
        "b",
        "j"
      ],
      [
        "c",
        "lientĊ"
      ],
      [
        "1",
        "\"Ċ"
      ],
      [
        "o",
        "st"
      ],
      [
        "s",
        "Ġ"
      ],
      [
        "by",
        "t"
      ],
      [
        "R",
        "un"
      ],
      [
        "y",
        "pe"
      ],
      [
        "e",
        "ad"
      ],
      [
        "Equ",
        "alĊ"
      ],
      [
        "c",
        "l"
      ],
      [
        "f",
        "al"
      ],
      [
        "ch",
        "em"
      ],
      [
        "ab",
        "le"
      ],
      [
        "re",
        "d"
      ],
      [
        "W",
        "rit"
      ],
      [
        "re",
        "am"
      ],
      [
        "as",
        "ser"
      ],
      [
        "w",
        "Ċ"
      ],
      [
        "l",
        "enĊ"
      ],
      [
        "ou",
        "tĊ"
      ],
      [
        "el",
        "Ċ"
      ],
      [
        "wan",
        "t"
      ],
      [
        "i",
        "f"
      ],
      [
        "N",
        "o"
      ],
      [
        "a",
        "ct"
      ],
      [
        "f",
        "oo"
      ],
      [
        "m",
        "o"
      ],
      [
        "ĉĉ",
        "ĉĉ"
      ],
      [
        "o",
        "pt"
      ],
      [
        "p",
        "ar"
      ],
      [
        "por",
        "t"
      ],
      [
        "to",
        "Ġ"
      ],
      [
        "G",
        "et"
      ],
      [
        "\"",
        "b"
      ],
      [
        "Servic",
        "e"
      ],
      [
        "en",
        "d"
      ],
      [
        "B",
        "u"
      ],
      [
        "\"",
        ":Ġ"
      ],
      [
        "S",
        "e"
      ],
      [
        "f",
        "f"
      ],
      [
        "Ġ",
        "n"
      ],
      [
        "\"",
        "test"
      ],
      [
        "fal",
        "seĊ"
      ],
      [
        "at",
        "aĊ"
      ],
      [
        "htt",
        "pĊ"
      ],
      [
        "struct",
        "sĊ"
      ],
      [
        "Er",
        "rĊ"
      ],
      [
        "an",
        "c"
      ],
      [
        "li",
        "ent"
      ],
      [
        "ing",
        "Ġ"
      ],
      [
        "Requ",
        "estĊ"
      ],
      [
        "Pro",
        "vid"
      ],
      [
        "o",
        "p"
      ],
      [
        "T",
        "r"
      ],
      [
        "i",
        "g"
      ],
      [
        "0",
        "."
      ],
      [
        "in",
        "d"
      ],
      [
        "con",
        "tain"
      ],
      [
        "ing",
        "sĊ"
      ],
      [
        "Opt",
        "ionsĊ"
      ],
      [
        "j",
        "s"
      ],
      [
        "p",
        "bĊ"
      ],
      [
        "b",
        "oolĊ"
      ],
      [
        "o",
        "kĊ"
      ],
      [
        "F",
        "or"
      ],
      [
        "g",
        "ot"
      ],
      [
        "3",
        "Ċ"
      ],
      [
        ":",
        "\""
      ],
      [
        "e",
        "ck"
      ],
      [
        "js",
        "on"
      ],
      [
        "at",
        "a"
      ],
      [
        "confi",
        "g"
      ],
      [
        "ul",
        "tĊ"
      ],
      [
        "u",
        "tĊ"
      ],
      [
        "di",
        "agsĊ"
      ],
      [
        "t",
        "\"Ċ"
      ],
      [
        "\\",
        "n"
      ],
      [
        "pen",
        "dĊ"
      ],
      [
        "m",
        "dĊ"
      ],
      [
        "asser",
        "tĊ"
      ],
      [
        "st",
        "at"
      ],
      [
        "re",
        "qĊ"
      ],
      [
        "i",
        "p"
      ],
      [
        "U",
        "p"
      ],
      [
        "y",
        "Ġ"
      ],
      [
        "g",
        "g"
      ],
      [
        "Res",
        "pon"
      ],
      [
        "w",
        "or"
      ],
      [
        "n",
        "ew"
      ],
      [
        "ag",
        "eĊ"
      ],
      [
        "Re",
        "ad"
      ],
      [
        "l",
        "eĊ"
      ],
      [
        "c",
        "re"
      ],
      [
        "st",
        "an"
      ],
      [
        "V",
        "alĊ"
      ],
      [
        "wan",
        "tĊ"
      ],
      [
        "M",
        "a"
      ],
      [
        "L",
        "abel"
      ],
      [
        "N",
        "am"
      ],
      [
        "ag",
        "e"
      ],
      [
        "c",
        "ri"
      ],
      [
        "u",
        "e"
      ],
      [
        "our",
        "ceĊ"
      ],
      [
        "c",
        "c"
      ],
      [
        "de",
        "fault"
      ],
      [
        ",",
        "Ċ"
      ],
      [
        "o",
        "rĊ"
      ],
      [
        "C",
        "lientĊ"
      ],
      [
        "L",
        "Ċ"
      ],
      [
        ":Ġ%",
        "v\"Ċ"
      ],
      [
        "byt",
        "eĊ"
      ],
      [
        "il",
        "d"
      ],
      [
        "go",
        "tĊ"
      ],
      [
        "h",
        "as"
      ],
      [
        "y",
        "\"Ċ"
      ],
      [
        "\"",
        "s"
      ],
      [
        "an",
        "s"
      ],
      [
        "P",
        "athĊ"
      ],
      [
        "Con",
        "tain"
      ],
      [
        "b",
        "ut"
      ],
      [
        "p",
        "utĊ"
      ],
      [
        "for",
        "m"
      ],
      [
        "serv",
        "ic"
      ],
      [
        "A",
        "p"
      ],
      [
        "htt",
        "p"
      ],
      [
        "tr",
        "i"
      ],
      [
        "\"",
        "n"
      ],
      [
        "Res",
        "ource"
      ],
      [
        "s",
        "/"
      ],
      [
        "ot",
        "Ġ"
      ],
      [
        "y",
        "nam"
      ],
      [
        "r",
        "sĊ"
      ],
      [
        "a",
        "il"
      ],
      [
        "at",
        "h"
      ],
      [
        "A",
        "l"
      ],
      [
        "r",
        "un"
      ],
      [
        "w",
        "ith"
      ],
      [
        "res",
        "pĊ"
      ],
      [
        "a",
        "ch"
      ],
      [
        "H",
        "ead"
      ],
      [
        "in",
        "Ċ"
      ],
      [
        "ro",
        "m"
      ],
      [
        "O",
        "bj"
      ],
      [
        "In",
        "t"
      ],
      [
        "u",
        "sĊ"
      ],
      [
        "res",
        "s"
      ],
      [
        "ut",
        "h"
      ],
      [
        "S",
        "et"
      ],
      [
        "em",
        "pt"
      ],
      [
        "int",
        "64Ċ"
      ],
      [
        "val",
        "id"
      ],
      [
        "r",
        "ic"
      ],
      [
        "p",
        "ut"
      ],
      [
        "s",
        "tĊ"
      ],
      [
        "Q",
        "u"
      ],
      [
        "ou",
        "l"
      ],
      [
        "No",
        "ErrorĊ"
      ],
      [
        "L",
        "ist"
      ],
      [
        "expect",
        "ed"
      ],
      [
        "\"",
        "/"
      ],
      [
        "fa",
        "il"
      ],
      [
        "pro",
        "vid"
      ],
      [
        "\"",
        "foo"
      ],
      [
        "a",
        "y"
      ],
      [
        "i",
        "tĊ"
      ],
      [
        "i",
        "dĊ"
      ],
      [
        "U",
        "R"
      ],
      [
        "o",
        "ck"
      ],
      [
        "ar",
        "t"
      ],
      [
        "er",
        "t"
      ],
      [
        "f",
        "oĊ"
      ],
      [
        "P",
        "l"
      ],
      [
        "S",
        "h"
      ],
      [
        "V",
        "ers"
      ],
      [
        "t",
        "rĊ"
      ],
      [
        "A",
        "r"
      ],
      [
        "Ke",
        "yĊ"
      ],
      [
        "T",
        "ype"
      ],
      [
        "ap",
        "pendĊ"
      ],
      [
        "N",
        "ot"
      ],
      [
        "a",
        "v"
      ],
      [
        "\"",
        "d"
      ],
      [
        "confi",
        "gĊ"
      ],
      [
        "B",
        "ack"
      ],
      [
        "an",
        "n"
      ],
      [
        "F",
        "i"
      ],
      [
        "}",
        "\"Ċ"
      ],
      [
        "chem",
        "aĊ"
      ],
      [
        "m",
        "od"
      ],
      [
        "o",
        "re"
      ],
      [
        "De",
        "fault"
      ],
      [
        "el",
        "d"
      ],
      [
        "int",
        "fĊ"
      ],
      [
        "Stat",
        "eĊ"
      ],
      [
        "\"",
        "`Ċ"
      ],
      [
        "ex",
        "Ċ"
      ],
      [
        "Add",
        "rĊ"
      ],
      [
        "w",
        "ar"
      ],
      [
        "t",
        "cĊ"
      ],
      [
        "er",
        "r"
      ],
      [
        "C",
        "re"
      ],
      [
        "d",
        "ynam"
      ],
      [
        "expect",
        "edĠ"
      ],
      [
        "oun",
        "tĊ"
      ],
      [
        "F",
        "un"
      ],
      [
        "e",
        "p"
      ],
      [
        "2",
        "\"Ċ"
      ],
      [
        "t",
        "erĊ"
      ],
      [
        "re",
        "f"
      ],
      [
        "er",
        "Ġ"
      ],
      [
        "c",
        "al"
      ],
      [
        "s",
        "et"
      ],
      [
        "-",
        "-"
      ],
      [
        "Tim",
        "e"
      ],
      [
        "er",
        "n"
      ],
      [
        "Run",
        "Ċ"
      ],
      [
        "g",
        "ro"
      ],
      [
        "opt",
        "sĊ"
      ],
      [
        "st",
        "ream"
      ],
      [
        "o",
        "sĊ"
      ],
      [
        "Qu",
        "er"
      ],
      [
        "i",
        "al"
      ],
      [
        "A",
        "t"
      ],
      [
        "\"",
        "{"
      ],
      [
        "ol",
        "ic"
      ],
      [
        "Servic",
        "eĊ"
      ],
      [
        "met",
        "h"
      ],
      [
        "P",
        "re"
      ],
      [
        "C",
        "lo"
      ],
      [
        "arg",
        "sĊ"
      ],
      [
        "S",
        "ub"
      ],
      [
        "H",
        "and"
      ],
      [
        "c",
        "od"
      ],
      [
        "dynam",
        "icĊ"
      ],
      [
        "ur",
        "ationĊ"
      ],
      [
        "1",
        "2"
      ],
      [
        "P",
        "trĊ"
      ],
      [
        "In",
        "d"
      ],
      [
        "tr",
        "yĊ"
      ],
      [
        "A",
        "ct"
      ],
      [
        "In",
        "stan"
      ],
      [
        "B",
        "y"
      ],
      [
        "lo",
        "w"
      ],
      [
        "u",
        "re"
      ],
      [
        "s",
        "it"
      ],
      [
        "e",
        "v"
      ],
      [
        "A",
        "n"
      ],
      [
        "an",
        "Ċ"
      ],
      [
        "lo",
        "at"
      ],
      [
        "ĠĠĠĠ",
        "ĠĠĠĠ"
      ],
      [
        "\"",
        "c"
      ],
      [
        "l",
        "abel"
      ],
      [
        "gr",
        "am"
      ],
      [
        "t",
        "sĊ"
      ],
      [
        "pr",
        "intfĊ"
      ],
      [
        "C",
        "l"
      ],
      [
        "t",
        "estĊ"
      ],
      [
        "g",
        "in"
      ],
      [
        "d",
        "Ġ"
      ],
      [
        "To",
        "k"
      ],
      [
        "Up",
        "d"
      ],
      [
        "\"",
        "m"
      ],
      [
        "e",
        "c"
      ],
      [
        "u",
        "Ċ"
      ],
      [
        "Tim",
        "eĊ"
      ],
      [
        "contain",
        "er"
      ],
      [
        "cri",
        "pt"
      ],
      [
        "el",
        "et"
      ],
      [
        "\"",
        "Ġ"
      ],
      [
        "po",
        "int"
      ],
      [
        "Con",
        "n"
      ],
      [
        "expect",
        "edĊ"
      ],
      [
        "t",
        "yp"
      ],
      [
        "k",
        "eĊ"
      ],
      [
        "gg",
        "erĊ"
      ],
      [
        "ist",
        "o"
      ],
      [
        "str",
        "ingsĊ"
      ],
      [
        "M",
        "atch"
      ],
      [
        "isto",
        "gram"
      ],
      [
        "/",
        "v"
      ],
      [
        "lo",
        "ckĊ"
      ],
      [
        "g",
        "et"
      ],
      [
        "has",
        "h"
      ],
      [
        "C",
        "lient"
      ],
      [
        "ul",
        "l"
      ],
      [
        "tri",
        "but"
      ],
      [
        "pen",
        "d"
      ],
      [
        "gr",
        "p"
      ],
      [
        "Fil",
        "eĊ"
      ],
      [
        "5",
        "Ċ"
      ],
      [
        "th",
        "eĠ"
      ],
      [
        "es",
        "pa"
      ],
      [
        "M",
        "od"
      ],
      [
        "I",
        "s"
      ],
      [
        "con",
        "dĊ"
      ],
      [
        "p",
        "/"
      ],
      [
        "wor",
        "k"
      ],
      [
        "add",
        "rsĊ"
      ],
      [
        "Com",
        "m"
      ],
      [
        "T",
        "T"
      ],
      [
        "ow",
        "n"
      ],
      [
        "d",
        "es"
      ],
      [
        "e",
        "ctĊ"
      ],
      [
        "p",
        "re"
      ],
      [
        "pro",
        "to"
      ],
      [
        "O",
        "N"
      ],
      [
        "S",
        "printfĊ"
      ],
      [
        "UR",
        "LĊ"
      ],
      [
        "d",
        "\"Ċ"
      ],
      [
        "New",
        "Ċ"
      ],
      [
        "val",
        "u"
      ],
      [
        "Fat",
        "alĊ"
      ],
      [
        "iz",
        "eĊ"
      ],
      [
        "Ġ",
        "s"
      ],
      [
        "Str",
        "ing"
      ],
      [
        "p",
        "le"
      ],
      [
        "a",
        "w"
      ],
      [
        "o",
        "ver"
      ],
      [
        "A",
        "C"
      ],
      [
        "I",
        "P"
      ],
      [
        "Re",
        "g"
      ],
      [
        "P",
        "or"
      ],
      [
        "Ke",
        "y"
      ],
      [
        "ab",
        "leĊ"
      ],
      [
        "Tr",
        "ans"
      ],
      [
        "b",
        "ack"
      ],
      [
        "int",
        "ern"
      ],
      [
        "F",
        "rom"
      ],
      [
        "Provid",
        "erĊ"
      ],
      [
        "f",
        "fĊ"
      ],
      [
        "ed",
        "\"Ċ"
      ],
      [
        "In",
        "foĊ"
      ],
      [
        "=",
        "Ġ"
      ],
      [
        "pe",
        "ctĊ"
      ],
      [
        "as",
        "eĊ"
      ],
      [
        "ma",
        "keĊ"
      ],
      [
        "Di",
        "rĊ"
      ],
      [
        "S",
        "etĊ"
      ],
      [
        "iv",
        "e"
      ],
      [
        "as",
        "e"
      ],
      [
        "u",
        "pĊ"
      ],
      [
        "a",
        "dĊ"
      ],
      [
        "re",
        "g"
      ],
      [
        "Respon",
        "seĊ"
      ],
      [
        "F",
        "ail"
      ],
      [
        "f",
        "gĊ"
      ],
      [
        "ing",
        "\"Ċ"
      ],
      [
        "Stat",
        "us"
      ],
      [
        "R",
        "out"
      ],
      [
        "m",
        "ar"
      ],
      [
        "Obj",
        "ect"
      ],
      [
        "ĉĉ",
        "ĉ"
      ],
      [
        "g",
        "/"
      ],
      [
        "y",
        "n"
      ],
      [
        "a",
        "c"
      ],
      [
        "Writ",
        "e"
      ],
      [
        "res",
        "sĊ"
      ],
      [
        "empt",
        "y"
      ],
      [
        "Ġn",
        "otĠ"
      ],
      [
        "our",
        "c"
      ],
      [
        "oo",
        "g"
      ],
      [
        "i",
        "esĊ"
      ],
      [
        "Ch",
        "eck"
      ],
      [
        "s",
        "ub"
      ],
      [
        "en",
        "er"
      ],
      [
        "c",
        "or"
      ],
      [
        "g",
        "sĊ"
      ],
      [
        "am",
        "pl"
      ],
      [
        "E",
        "v"
      ],
      [
        "Requ",
        "est"
      ],
      [
        "ic",
        "or"
      ],
      [
        "hash",
        "icor"
      ],
      [
        "Met",
        "aĊ"
      ],
      [
        "I",
        "m"
      ],
      [
        "c",
        "ur"
      ],
      [
        "lo",
        "ck"
      ],
      [
        "Serv",
        "erĊ"
      ],
      [
        "oog",
        "le"
      ],
      [
        "s",
        "r"
      ],
      [
        "St",
        "ream"
      ],
      [
        "n",
        "et"
      ],
      [
        "es",
        "\"Ċ"
      ],
      [
        "fi",
        "xĊ"
      ],
      [
        "\"foo",
        "\"Ċ"
      ],
      [
        "H",
        "TT"
      ],
      [
        "HTT",
        "P"
      ],
      [
        "h",
        "el"
      ],
      [
        "lo",
        "gĊ"
      ],
      [
        "hashicor",
        "p/"
      ],
      [
        "O",
        "ut"
      ],
      [
        "ro",
        "ut"
      ],
      [
        "ul",
        "e"
      ],
      [
        "ap",
        "p"
      ],
      [
        "Vers",
        "ionĊ"
      ],
      [
        "m",
        "s"
      ],
      [
        "Fun",
        "cĊ"
      ],
      [
        "0",
        "\"Ċ"
      ],
      [
        "Con",
        "t"
      ],
      [
        "edĠ",
        "toĠ"
      ],
      [
        "lo",
        "ad"
      ],
      [
        "nam",
        "e"
      ],
      [
        "un",
        "k"
      ],
      [
        "\"",
        "t"
      ],
      [
        "ust",
        "er"
      ],
      [
        "\"",
        ",Ċ"
      ],
      [
        "c",
        "ol"
      ],
      [
        "En",
        "d"
      ],
      [
        "l",
        "in"
      ],
      [
        "it",
        "yĊ"
      ],
      [
        "P",
        "o"
      ],
      [
        "l",
        "ic"
      ],
      [
        "L",
        "S"
      ],
      [
        "t",
        "f"
      ],
      [
        "json",
        ":\""
      ],
      [
        "re",
        "ad"
      ],
      [
        "Clo",
        "seĊ"
      ],
      [
        "ap",
        "i"
      ],
      [
        "Head",
        "erĊ"
      ],
      [
        "ig",
        "n"
      ],
      [
        "P",
        "olic"
      ],
      [
        "F",
        "l"
      ],
      [
        "intern",
        "al"
      ],
      [
        "N",
        "ode"
      ],
      [
        "D",
        "es"
      ],
      [
        "o",
        "c"
      ],
      [
        "pe",
        "c"
      ],
      [
        "c",
        "mdĊ"
      ],
      [
        "M",
        "ess"
      ],
      [
        "ch",
        "eck"
      ],
      [
        "\"",
        "a"
      ],
      [
        "Fi",
        "eld"
      ],
      [
        "or",
        "eĊ"
      ],
      [
        "m",
        "atch"
      ],
      [
        "Stat",
        "usĊ"
      ],
      [
        ".",
        "g"
      ],
      [
        "li",
        "st"
      ],
      [
        "{",
        "Ċ"
      ],
      [
        "Time",
        "outĊ"
      ],
      [
        "Pro",
        "to"
      ],
      [
        "Ex",
        "p"
      ],
      [
        "om",
        "it"
      ],
      [
        "f",
        "l"
      ],
      [
        "it",
        "y"
      ],
      [
        "d",
        "le"
      ],
      [
        "gro",
        "un"
      ],
      [
        "on",
        "eĊ"
      ],
      [
        "o",
        "bj"
      ],
      [
        "is",
        "Ġ"
      ],
      [
        "ver",
        "s"
      ],
      [
        "T",
        "LS"
      ],
      [
        "i",
        "o"
      ],
      [
        "c",
        "m"
      ],
      [
        "er",
        "\"Ċ"
      ],
      [
        "a",
        "st"
      ],
      [
        ",",
        "omit"
      ],
      [
        "`",
        "json:\""
      ],
      [
        "ck",
        "et"
      ],
      [
        "1",
        "0"
      ],
      [
        "6",
        "Ċ"
      ],
      [
        "ang",
        "eĊ"
      ],
      [
        "O",
        "r"
      ],
      [
        "/",
        "/"
      ],
      [
        "l",
        "erĊ"
      ],
      [
        "\"github.com/",
        "hashicorp/"
      ],
      [
        ",omit",
        "empty"
      ],
      [
        "C",
        "ountĊ"
      ],
      [
        "Ind",
        "exĊ"
      ],
      [
        "at",
        "ew"
      ],
      [
        "Serv",
        "er"
      ],
      [
        "con",
        "s"
      ],
      [
        "D",
        "is"
      ],
      [
        "b",
        "eĠ"
      ],
      [
        "1",
        "."
      ],
      [
        "con",
        "n"
      ],
      [
        "Cre",
        "ate"
      ],
      [
        "an",
        "ag"
      ],
      [
        "groun",
        "dĊ"
      ],
      [
        "for",
        "Ġ"
      ],
      [
        "ke",
        "y"
      ],
      [
        "T",
        "oĊ"
      ],
      [
        "tr",
        "a"
      ],
      [
        "es",
        "Ġ"
      ],
      [
        "ul",
        "eĊ"
      ],
      [
        "H",
        "as"
      ],
      [
        "ex",
        "p"
      ],
      [
        "Val",
        "u"
      ],
      [
        "b",
        "o"
      ],
      [
        "J",
        "S"
      ],
      [
        "A",
        "uth"
      ],
      [
        "B",
        "Ċ"
      ],
      [
        "Back",
        "groundĊ"
      ],
      [
        "is",
        "tĊ"
      ],
      [
        "Di",
        "ag"
      ],
      [
        "R",
        "et"
      ],
      [
        "if",
        "ic"
      ],
      [
        "sh",
        "oul"
      ],
      [
        "J",
        "o"
      ],
      [
        "an",
        "yĊ"
      ],
      [
        "servic",
        "e"
      ],
      [
        "c",
        "fgĊ"
      ],
      [
        "Res",
        "ultĊ"
      ],
      [
        "od",
        "yĊ"
      ],
      [
        "At",
        "tribut"
      ],
      [
        "res",
        "ultĊ"
      ],
      [
        "Val",
        "ue"
      ],
      [
        "c",
        "lient"
      ],
      [
        "oun",
        "t"
      ],
      [
        "S",
        "u"
      ],
      [
        "ke",
        "yĊ"
      ],
      [
        "ar",
        "\"Ċ"
      ],
      [
        "mo",
        "v"
      ],
      [
        "D",
        "ataĊ"
      ],
      [
        "com",
        "m"
      ],
      [
        "%",
        "s"
      ],
      [
        "a",
        "Ġ"
      ],
      [
        "tim",
        "e"
      ],
      [
        "R",
        "P"
      ],
      [
        "en",
        "c"
      ],
      [
        "Met",
        "h"
      ],
      [
        "Provid",
        "er"
      ],
      [
        "Er",
        "r"
      ],
      [
        "S",
        "chemaĊ"
      ],
      [
        "St",
        "ate"
      ],
      [
        "to",
        "k"
      ],
      [
        "with",
        "Ġ"
      ],
      [
        "arg",
        "et"
      ],
      [
        "S",
        "izeĊ"
      ],
      [
        "By",
        "t"
      ],
      [
        "in",
        "dĊ"
      ],
      [
        "Met",
        "ric"
      ],
      [
        "re",
        "t"
      ],
      [
        "p",
        "ath"
      ],
      [
        "C",
        "mdĊ"
      ],
      [
        "I",
        "d"
      ],
      [
        "w",
        "h"
      ],
      [
        "des",
        "cĊ"
      ],
      [
        "o",
        "Ġ"
      ],
      [
        "Ma",
        "x"
      ],
      [
        "qu",
        "er"
      ],
      [
        "ter",
        "ra"
      ],
      [
        "in",
        "Ġ"
      ],
      [
        ":",
        "//"
      ],
      [
        "O",
        "n"
      ],
      [
        "G",
        "ro"
      ],
      [
        "RP",
        "C"
      ],
      [
        "a",
        "f"
      ],
      [
        "Re",
        "f"
      ],
      [
        "O",
        "p"
      ],
      [
        "e",
        "g"
      ],
      [
        "t",
        "ype"
      ],
      [
        "\"",
        "http"
      ],
      [
        "typ",
        "esĊ"
      ],
      [
        "A",
        "s"
      ],
      [
        "N",
        "odeĊ"
      ],
      [
        "Quer",
        "y"
      ],
      [
        "3",
        "2Ċ"
      ],
      [
        "error",
        "sĊ"
      ],
      [
        "s",
        "p"
      ],
      [
        "S",
        "p"
      ],
      [
        "n",
        "ost"
      ],
      [
        "ar",
        "tĊ"
      ],
      [
        "ad",
        "ataĊ"
      ],
      [
        "em",
        "pl"
      ],
      [
        "n",
        "ap"
      ],
      [
        "/",
        "internal"
      ],
      [
        ",Ġ",
        "got"
      ],
      [
        "s",
        "."
      ],
      [
        "JS",
        "ON"
      ],
      [
        "E",
        "m"
      ],
      [
        "D",
        "elet"
      ],
      [
        "t",
        "tĊ"
      ],
      [
        "bu",
        "fĊ"
      ],
      [
        "pe",
        "cĊ"
      ],
      [
        "por",
        "tĊ"
      ],
      [
        "D",
        "ata"
      ],
      [
        "ent",
        "sĊ"
      ],
      [
        "Writ",
        "erĊ"
      ],
      [
        "T",
        "C"
      ],
      [
        "C",
        "ol"
      ],
      [
        "B",
        "e"
      ],
      [
        "Ex",
        "pect"
      ],
      [
        "m",
        "in"
      ],
      [
        "Opt",
        "sĊ"
      ],
      [
        "as",
        "s"
      ],
      [
        "Por",
        "tĊ"
      ],
      [
        "f",
        "loat"
      ],
      [
        "al",
        "anc"
      ],
      [
        "i",
        "ew"
      ],
      [
        "est",
        "am"
      ],
      [
        "v",
        "erĊ"
      ],
      [
        "lo",
        "g"
      ],
      [
        "C",
        "odeĊ"
      ],
      [
        "R",
        "o"
      ],
      [
        "Ex",
        "pectĊ"
      ],
      [
        "e",
        "ckĊ"
      ],
      [
        "am",
        "ple"
      ],
      [
        "met",
        "ric"
      ],
      [
        "j",
        "ect"
      ],
      [
        "is",
        "s"
      ],
      [
        "/internal",
        "/"
      ],
      [
        "G",
        "etĊ"
      ],
      [
        "t",
        "xĊ"
      ],
      [
        "Ġ",
        "toĠ"
      ],
      [
        "ag",
        "Ċ"
      ],
      [
        "nap",
        "sh"
      ],
      [
        "a",
        "it"
      ],
      [
        "Instan",
        "ce"
      ],
      [
        "Respon",
        "se"
      ],
      [
        "h",
        "ost"
      ],
      [
        "d",
        "ata"
      ],
      [
        "i",
        "re"
      ],
      [
        "anc",
        "elĊ"
      ],
      [
        "u",
        "ser"
      ],
      [
        "w",
        "rit"
      ],
      [
        "id",
        "dle"
      ],
      [
        "M",
        "odeĊ"
      ],
      [
        "v",
        "3"
      ],
      [
        "H",
        "ost"
      ],
      [
        "\":Ġ",
        "\""
      ],
      [
        "at",
        "ed"
      ],
      [
        "Add",
        "ressĊ"
      ],
      [
        "con",
        "t"
      ],
      [
        "Lo",
        "g"
      ],
      [
        "En",
        "tryĊ"
      ],
      [
        "D",
        "urationĊ"
      ],
      [
        "H",
        "istogram"
      ],
      [
        "en",
        "v"
      ],
      [
        ")",
        "Ġ"
      ],
      [
        "lo",
        "ggerĊ"
      ],
      [
        "\"",
        "-"
      ],
      [
        "Diag",
        "nost"
      ],
      [
        "p",
        "athĊ"
      ],
      [
        "label",
        "sĊ"
      ],
      [
        "s",
        "_"
      ],
      [
        "v",
        "alĊ"
      ],
      [
        "s",
        "c"
      ],
      [
        "ent",
        "ial"
      ],
      [
        "}",
        "Ċ"
      ],
      [
        "a",
        "uth"
      ],
      [
        "In",
        "ter"
      ],
      [
        "_",
        "_"
      ],
      [
        "r",
        "y"
      ],
      [
        "ang",
        "e"
      ],
      [
        "x",
        "y"
      ],
      [
        "\\n",
        "\"Ċ"
      ],
      [
        "an",
        "dĊ"
      ],
      [
        ".",
        "\"Ċ"
      ],
      [
        "AC",
        "L"
      ],
      [
        ":Ġ%",
        "s\"Ċ"
      ],
      [
        "ref",
        "le"
      ],
      [
        "1",
        "0Ċ"
      ],
      [
        "Se",
        "condĊ"
      ],
      [
        "ow",
        "Ċ"
      ],
      [
        "S",
        "c"
      ],
      [
        "A",
        "P"
      ],
      [
        "M",
        "s"
      ],
      [
        "Em",
        "pt"
      ],
      [
        "ap",
        "iĊ"
      ],
      [
        "Par",
        "se"
      ],
      [
        "cons",
        "ul"
      ],
      [
        "cc",
        "ess"
      ],
      [
        "d",
        "bĊ"
      ],
      [
        "9",
        "9"
      ],
      [
        ",Ġ",
        "want"
      ],
      [
        "Res",
        "ourceĊ"
      ],
      [
        "Bu",
        "ild"
      ],
      [
        "Label",
        "sĊ"
      ],
      [
        "H",
        "el"
      ],
      [
        "Contain",
        "sĊ"
      ],
      [
        "st",
        "ateĊ"
      ],
      [
        "Ma",
        "pĊ"
      ],
      [
        "pl",
        "an"
      ],
      [
        "up",
        "d"
      ],
      [
        "ust",
        "om"
      ],
      [
        "act",
        "u"
      ],
      [
        "An",
        "d"
      ],
      [
        "i",
        "es"
      ],
      [
        "r",
        "id"
      ],
      [
        "r",
        "esĊ"
      ],
      [
        "se",
        "tĊ"
      ],
      [
        "po",
        "sit"
      ],
      [
        "Val",
        "id"
      ],
      [
        "grp",
        "c"
      ],
      [
        "c",
        "over"
      ],
      [
        "ur",
        "n"
      ],
      [
        "Upd",
        "ate"
      ],
      [
        "Ġ%",
        "q"
      ],
      [
        "\"",
        "in"
      ],
      [
        "s",
        "u"
      ],
      [
        "S",
        "ampl"
      ],
      [
        "6",
        "4"
      ],
      [
        "T",
        "h"
      ],
      [
        "red",
        "ential"
      ],
      [
        "Tok",
        "enĊ"
      ],
      [
        "N",
        "um"
      ],
      [
        "fil",
        "e"
      ],
      [
        "s",
        "chemaĊ"
      ],
      [
        ",omitempty",
        "\"`Ċ"
      ],
      [
        "o",
        "f"
      ],
      [
        "u",
        "gin"
      ],
      [
        "t",
        "l"
      ],
      [
        "L",
        "istĊ"
      ],
      [
        "P",
        "r"
      ],
      [
        "C",
        "ert"
      ],
      [
        "serv",
        "er"
      ],
      [
        "Valu",
        "esĊ"
      ],
      [
        "Nam",
        "espa"
      ],
      [
        "oo",
        "k"
      ],
      [
        "container",
        "d"
      ],
      [
        "C",
        "all"
      ],
      [
        "S",
        "Ċ"
      ],
      [
        "T",
        "\"Ċ"
      ],
      [
        "b",
        "e"
      ],
      [
        "t",
        "it"
      ],
      [
        "ol",
        "ang"
      ],
      [
        "meth",
        "e"
      ],
      [
        "as",
        "esĊ"
      ],
      [
        "ma",
        "x"
      ],
      [
        "ock",
        "er"
      ],
      [
        "U",
        "s"
      ],
      [
        "Lo",
        "ckĊ"
      ],
      [
        ".",
        "or"
      ],
      [
        "re",
        "ct"
      ],
      [
        "if",
        "y"
      ],
      [
        "\"",
        "fail"
      ],
      [
        "mo",
        "by"
      ],
      [
        "s",
        "um"
      ],
      [
        "K",
        "indĊ"
      ],
      [
        "terra",
        "form"
      ],
      [
        "Par",
        "am"
      ],
      [
        "at",
        "eĠ"
      ],
      [
        "at",
        "orĊ"
      ],
      [
        "i",
        "str"
      ],
      [
        "Ar",
        "gsĊ"
      ],
      [
        "3",
        "\"Ċ"
      ],
      [
        "tex",
        "t"
      ],
      [
        "o",
        "dĊ"
      ],
      [
        "tr",
        "y"
      ],
      [
        "0.",
        "0."
      ],
      [
        "ex",
        "tĊ"
      ],
      [
        "lo",
        "cal"
      ],
      [
        "i",
        "fi"
      ],
      [
        "L",
        "in"
      ],
      [
        "val",
        "ueĊ"
      ],
      [
        "p",
        "g"
      ],
      [
        "N",
        "et"
      ],
      [
        "Con",
        "nĊ"
      ],
      [
        "ion",
        "Ġ"
      ],
      [
        ".or",
        "g/"
      ],
      [
        "Pre",
        "fixĊ"
      ],
      [
        "r",
        "p"
      ],
      [
        "ab",
        "l"
      ],
      [
        "P",
        "er"
      ],
      [
        "\"",
        "w"
      ],
      [
        "str",
        "ing"
      ],
      [
        "S",
        "chem"
      ],
      [
        "A",
        "g"
      ],
      [
        "S",
        "er"
      ],
      [
        "c",
        "ode"
      ],
      [
        "C",
        "hĊ"
      ],
      [
        "\"",
        "un"
      ],
      [
        "pr",
        "is"
      ],
      [
        "i",
        "pĊ"
      ],
      [
        "on",
        "Ċ"
      ],
      [
        "G",
        "atew"
      ],
      [
        "P",
        "ath"
      ],
      [
        "fil",
        "ep"
      ],
      [
        "L",
        "enĊ"
      ],
      [
        "d",
        "s"
      ],
      [
        "M",
        "anag"
      ],
      [
        "ur",
        "ation"
      ],
      [
        "h",
        "c"
      ],
      [
        "in",
        "putĊ"
      ],
      [
        "M",
        "ar"
      ],
      [
        "pro",
        "methe"
      ],
      [
        "i",
        "oĊ"
      ],
      [
        "AP",
        "I"
      ],
      [
        "Conn",
        "ect"
      ],
      [
        "olang",
        ".org/"
      ],
      [
        "c",
        "ancelĊ"
      ],
      [
        "m",
        "ust"
      ],
      [
        "en",
        "dĊ"
      ],
      [
        "TC",
        "P"
      ],
      [
        "c",
        "li"
      ],
      [
        "Des",
        "cript"
      ],
      [
        "H",
        "e"
      ],
      [
        "valid",
        "Ġ"
      ],
      [
        "B",
        "odyĊ"
      ],
      [
        "P",
        "e"
      ],
      [
        "Lo",
        "ad"
      ],
      [
        "st",
        "ack"
      ],
      [
        "Tok",
        "en"
      ],
      [
        "ain",
        "Ċ"
      ],
      [
        "Sh",
        "oul"
      ],
      [
        "shoul",
        "dĠ"
      ],
      [
        "c",
        "ent"
      ],
      [
        "%",
        "v"
      ],
      [
        "a",
        "em"
      ],
      [
        "fi",
        "x"
      ],
      [
        "2",
        "0"
      ],
      [
        "Par",
        "all"
      ],
      [
        "\"",
        ":"
      ],
      [
        "Ġ%",
        "v\"Ċ"
      ],
      [
        "p",
        "b"
      ],
      [
        "Res",
        "ol"
      ],
      [
        "T",
        "E"
      ],
      [
        "R",
        "el"
      ],
      [
        "c",
        "odeĊ"
      ],
      [
        "Jo",
        "inĊ"
      ],
      [
        "add",
        "rĊ"
      ],
      [
        "h",
        "ead"
      ],
      [
        "\"g",
        "oogle"
      ],
      [
        "2",
        "/"
      ],
      [
        "h",
        "and"
      ],
      [
        "el",
        "ect"
      ],
      [
        "Ch",
        "eckĊ"
      ],
      [
        "Mess",
        "ageĊ"
      ],
      [
        "id",
        "\"Ċ"
      ],
      [
        "pl",
        "ic"
      ],
      [
        "d",
        "ataĊ"
      ],
      [
        "stream",
        "Ċ"
      ],
      [
        "R",
        "angeĊ"
      ],
      [
        "Fil",
        "e"
      ],
      [
        "refle",
        "ctĊ"
      ],
      [
        "ic",
        "sĊ"
      ],
      [
        "ex",
        "t"
      ],
      [
        "m",
        "ent"
      ],
      [
        "le",
        "an"
      ],
      [
        "Ad",
        "dĊ"
      ],
      [
        "posit",
        "or"
      ],
      [
        "8",
        "Ċ"
      ],
      [
        "im",
        "it"
      ],
      [
        "error",
        "Ġ"
      ],
      [
        "iddle",
        "war"
      ],
      [
        "Tim",
        "estam"
      ],
      [
        "m",
        "ot"
      ],
      [
        "Instan",
        "ceĊ"
      ],
      [
        "nam",
        "e\"Ċ"
      ],
      [
        "M",
        "em"
      ],
      [
        ")",
        "\"Ċ"
      ],
      [
        "and",
        "Ġ"
      ],
      [
        ".g",
        "olang.org/"
      ],
      [
        "2",
        "."
      ],
      [
        "conn",
        "ect"
      ],
      [
        "Hand",
        "lerĊ"
      ],
      [
        "Re",
        "mov"
      ],
      [
        "po",
        "intĊ"
      ],
      [
        "Met",
        "adataĊ"
      ],
      [
        "\"google",
        ".golang.org/"
      ],
      [
        "I",
        "N"
      ],
      [
        "Contain",
        "er"
      ],
      [
        "requ",
        "est"
      ],
      [
        "\"",
        "p"
      ],
      [
        "u",
        "g"
      ],
      [
        "\"",
        "expectedĠ"
      ],
      [
        "meth",
        "od"
      ],
      [
        "fi",
        "eld"
      ],
      [
        "d",
        "is"
      ],
      [
        "St",
        "oreĊ"
      ],
      [
        "Parall",
        "elĊ"
      ],
      [
        "String",
        "ValĊ"
      ],
      [
        "Act",
        "ion"
      ],
      [
        "En",
        "ter"
      ],
      [
        "k",
        "ip"
      ],
      [
        "con",
        "d"
      ],
      [
        "\"",
        "o"
      ],
      [
        "st",
        "ate"
      ],
      [
        "arg",
        "etĊ"
      ],
      [
        "Ġ%",
        "v"
      ],
      [
        "R",
        "E"
      ],
      [
        "mod",
        "elĊ"
      ],
      [
        "cre",
        "ate"
      ],
      [
        "ret",
        "urn"
      ],
      [
        "l",
        "\"Ċ"
      ],
      [
        "av",
        "e"
      ],
      [
        "S",
        "ource"
      ],
      [
        "w",
        "\"Ċ"
      ],
      [
        "a",
        "rĊ"
      ],
      [
        "Enter",
        "pris"
      ],
      [
        "ourc",
        "esĊ"
      ],
      [
        "en",
        "Ġ"
      ],
      [
        "Un",
        "lockĊ"
      ],
      [
        "ar",
        "y"
      ],
      [
        "mo",
        "ck"
      ],
      [
        "f",
        "rom"
      ],
      [
        "A",
        "b"
      ],
      [
        "es",
        "sĊ"
      ],
      [
        "\"",
        "default"
      ],
      [
        "st",
        "or"
      ],
      [
        "res",
        "ol"
      ],
      [
        "res",
        "ource"
      ],
      [
        "e",
        "pĊ"
      ],
      [
        "n",
        "own"
      ],
      [
        "ro",
        "ot"
      ],
      [
        "F",
        "loat"
      ],
      [
        "A",
        "f"
      ],
      [
        "res",
        "ult"
      ],
      [
        "Ro",
        "ot"
      ],
      [
        "Bu",
        "cket"
      ],
      [
        "c",
        "\"Ċ"
      ],
      [
        "con",
        "nĊ"
      ],
      [
        "\"fail",
        "edĠtoĠ"
      ],
      [
        "o",
        "pĊ"
      ],
      [
        "C",
        "ach"
      ],
      [
        "}",
        "`Ċ"
      ],
      [
        "it",
        "eĊ"
      ],
      [
        "p",
        "\"Ċ"
      ],
      [
        "end",
        "point"
      ],
      [
        "Nam",
        "e"
      ],
      [
        "napsh",
        "ot"
      ],
      [
        "as",
        "tĊ"
      ],
      [
        "n",
        "sĊ"
      ],
      [
        "\"",
        "fm"
      ],
      [
        "Config",
        "urationĊ"
      ],
      [
        "tf",
        "diagsĊ"
      ],
      [
        "0",
        "x"
      ],
      [
        "cor",
        "d"
      ],
      [
        "a",
        "yĊ"
      ],
      [
        "fil",
        "eĊ"
      ],
      [
        "cur",
        "r"
      ],
      [
        "of",
        "Ġ"
      ],
      [
        "ex",
        "ist"
      ],
      [
        "\"fm",
        "t\"Ċ"
      ],
      [
        "Diagnost",
        "icsĊ"
      ],
      [
        "ms",
        "gĊ"
      ],
      [
        "Cl",
        "uster"
      ],
      [
        "al",
        "th"
      ],
      [
        "act",
        "ion"
      ],
      [
        "oun",
        "d"
      ],
      [
        "ation",
        "sĊ"
      ],
      [
        "de",
        "f"
      ],
      [
        "%",
        "s\"Ċ"
      ],
      [
        "ar",
        "i"
      ],
      [
        "T",
        "ra"
      ],
      [
        "filep",
        "athĊ"
      ],
      [
        "ar",
        "ch"
      ],
      [
        "m",
        "uĊ"
      ],
      [
        "U",
        "ser"
      ],
      [
        "h",
        "istogram"
      ],
      [
        "float",
        "64Ċ"
      ],
      [
        "opt",
        "ionsĊ"
      ],
      [
        "ig",
        "h"
      ],
      [
        "b",
        "\"Ċ"
      ],
      [
        "Comm",
        "andĊ"
      ],
      [
        "ur",
        "eĊ"
      ],
      [
        "o",
        "stĊ"
      ],
      [
        "t",
        "hĊ"
      ],
      [
        "od",
        "esĊ"
      ],
      [
        "oun",
        "dĊ"
      ],
      [
        "M",
        "il"
      ],
      [
        "tex",
        "t\"Ċ"
      ],
      [
        "t",
        "em"
      ],
      [
        "d",
        "o"
      ],
      [
        "el",
        "dĊ"
      ],
      [
        "pl",
        "y"
      ],
      [
        "End",
        "point"
      ],
      [
        "\"test",
        "ing\"Ċ"
      ],
      [
        "c",
        "lo"
      ],
      [
        "a",
        "tĊ"
      ],
      [
        "\"",
        "--"
      ],
      [
        "p",
        "k"
      ],
      [
        "re",
        "dĊ"
      ],
      [
        "V",
        "er"
      ],
      [
        "di",
        "ffĊ"
      ],
      [
        "-",
        "0"
      ],
      [
        "Byt",
        "esĊ"
      ],
      [
        "C",
        "A"
      ],
      [
        "er",
        "en"
      ],
      [
        "ow",
        "nĊ"
      ],
      [
        "W",
        "atch"
      ],
      [
        "provid",
        "ersĊ"
      ],
      [
        "cl",
        "uster"
      ],
      [
        "ol",
        "d"
      ],
      [
        "B",
        "alanc"
      ],
      [
        "3",
        "4"
      ],
      [
        "S",
        "ourceĊ"
      ],
      [
        "Mil",
        "li"
      ],
      [
        "n",
        "um"
      ],
      [
        "se",
        "condĊ"
      ],
      [
        "\"",
        "1"
      ],
      [
        "c",
        "ach"
      ],
      [
        "ion",
        "\"Ċ"
      ],
      [
        "io",
        "/"
      ],
      [
        "Lo",
        "ggerĊ"
      ],
      [
        "i",
        "sĊ"
      ],
      [
        "met",
        "a"
      ],
      [
        "es",
        "/"
      ],
      [
        "00",
        "00"
      ],
      [
        "test",
        "ut"
      ],
      [
        "en",
        "g"
      ],
      [
        "\"b",
        "ar\"Ċ"
      ],
      [
        "S",
        "lic"
      ],
      [
        "Bu",
        "ff"
      ],
      [
        "nam",
        "espa"
      ],
      [
        "Ap",
        "pend"
      ],
      [
        "iv",
        "eĊ"
      ],
      [
        "Namespa",
        "ceĊ"
      ],
      [
        "\"",
        "__"
      ],
      [
        "iew",
        "Ċ"
      ],
      [
        "Read",
        "erĊ"
      ],
      [
        "in",
        "it"
      ],
      [
        "Quer",
        "yĊ"
      ],
      [
        "int",
        "32Ċ"
      ],
      [
        "an",
        "Ġ"
      ],
      [
        "in",
        "stan"
      ],
      [
        "Gro",
        "up"
      ],
      [
        "Polic",
        "yĊ"
      ],
      [
        "go",
        "-"
      ],
      [
        "grp",
        "cĊ"
      ],
      [
        "n",
        "etĊ"
      ],
      [
        "bo",
        "x"
      ],
      [
        "S",
        "T"
      ],
      [
        "2",
        "5"
      ],
      [
        "o",
        "tĊ"
      ],
      [
        "Par",
        "tit"
      ],
      [
        "M",
        "in"
      ],
      [
        "u",
        "int64Ċ"
      ],
      [
        "m",
        "ess"
      ],
      [
        ":Ġ%",
        "w\"Ċ"
      ],
      [
        "re",
        "le"
      ],
      [
        "tok",
        "en"
      ],
      [
        "\"",
        "C"
      ],
      [
        "Servic",
        "esĊ"
      ],
      [
        "for",
        "mĊ"
      ],
      [
        "cli",
        "Ċ"
      ],
      [
        "Ms",
        "gĊ"
      ],
      [
        "actu",
        "alĊ"
      ],
      [
        "j",
        "Ċ"
      ],
      [
        "n",
        "ot"
      ],
      [
        "Fil",
        "ter"
      ],
      [
        "hc",
        "lĊ"
      ],
      [
        "res",
        "ourceĊ"
      ],
      [
        "1",
        "1"
      ],
      [
        "Act",
        "ionĊ"
      ],
      [
        "provid",
        "er"
      ],
      [
        "C",
        "redential"
      ],
      [
        "Id",
        "ent"
      ],
      [
        "ĉĉĉĉ",
        "ĉ"
      ],
      [
        "Upd",
        "ateĊ"
      ],
      [
        "m",
        "iss"
      ],
      [
        "\"",
        "con"
      ],
      [
        "Al",
        "lĊ"
      ],
      [
        "Re",
        "fĊ"
      ],
      [
        "Pe",
        "er"
      ],
      [
        "\"",
        "A"
      ],
      [
        "Ev",
        "entĊ"
      ],
      [
        "Enterpris",
        "e"
      ],
      [
        "pl",
        "yĊ"
      ],
      [
        "/v",
        "2/"
      ],
      [
        "H",
        "ave"
      ],
      [
        "stat",
        "usĊ"
      ],
      [
        "\"",
        "G"
      ],
      [
        "N",
        "il"
      ],
      [
        "S",
        "pec"
      ],
      [
        "out",
        "putĊ"
      ],
      [
        "a",
        "z"
      ],
      [
        "Ap",
        "pendĊ"
      ],
      [
        "mar",
        "sh"
      ],
      [
        "e",
        "-"
      ],
      [
        "bu",
        "ild"
      ],
      [
        "{",
        "{"
      ],
      [
        "id",
        "xĊ"
      ],
      [
        "ot",
        "al"
      ],
      [
        "En",
        "able"
      ],
      [
        "Obj",
        "ectĊ"
      ],
      [
        "\"",
        "%"
      ],
      [
        "Meth",
        "od"
      ],
      [
        "D",
        "el"
      ],
      [
        "Shoul",
        "dĊ"
      ],
      [
        "Writ",
        "eĊ"
      ],
      [
        "up",
        "port"
      ],
      [
        "byt",
        "esĊ"
      ],
      [
        "P",
        "ub"
      ],
      [
        "di",
        "rĊ"
      ],
      [
        "Pl",
        "an"
      ],
      [
        "ch",
        "unk"
      ],
      [
        "Ev",
        "ent"
      ],
      [
        "proto",
        "Ċ"
      ],
      [
        "run",
        "timeĊ"
      ],
      [
        "ist",
        "er"
      ],
      [
        "N",
        "Ċ"
      ],
      [
        "a",
        "\"Ċ"
      ],
      [
        "Lo",
        "cal"
      ],
      [
        "y",
        "_"
      ],
      [
        "par",
        "s"
      ],
      [
        "ex",
        "ample"
      ],
      [
        "tim",
        "e\"Ċ"
      ],
      [
        "a",
        "re"
      ],
      [
        "Milli",
        "secondĊ"
      ],
      [
        "e",
        "_"
      ],
      [
        "S",
        "um"
      ],
      [
        "ĉĉĉĉ",
        "\""
      ],
      [
        "ec",
        "ut"
      ],
      [
        "moby",
        "/"
      ],
      [
        "pl",
        "ugin"
      ],
      [
        "St",
        "art"
      ],
      [
        "Ġ",
        "=Ġ"
      ],
      [
        "par",
        "am"
      ],
      [
        "\"",
        "Expect"
      ],
      [
        "St",
        "d"
      ],
      [
        "ust",
        "erĊ"
      ],
      [
        "Ġ",
        "c"
      ],
      [
        "u",
        "xĊ"
      ],
      [
        "l",
        "ast"
      ],
      [
        "St",
        "rĊ"
      ],
      [
        "Out",
        "putĊ"
      ],
      [
        "t",
        "arget"
      ],
      [
        "5",
        "0"
      ],
      [
        "Al",
        "low"
      ],
      [
        "env",
        "o"
      ],
      [
        "d",
        "ir"
      ],
      [
        "/",
        "test"
      ],
      [
        "ot",
        "h"
      ],
      [
        "9",
        "Ċ"
      ],
      [
        "b",
        "er"
      ],
      [
        "Data",
        "cent"
      ],
      [
        "in",
        "foĊ"
      ],
      [
        "S",
        "pecĊ"
      ],
      [
        "a",
        "pĊ"
      ],
      [
        "test",
        "sĊ"
      ],
      [
        "\"test",
        "_"
      ],
      [
        "cre",
        "t"
      ],
      [
        "ri",
        "v"
      ],
      [
        "Ġ",
        "("
      ],
      [
        "At",
        "tr"
      ],
      [
        "Re",
        "positor"
      ],
      [
        "ro",
        "l"
      ],
      [
        "c",
        "sĊ"
      ],
      [
        "s",
        "-"
      ],
      [
        "\"google.golang.org/",
        "grpc"
      ],
      [
        "Timestam",
        "pĊ"
      ],
      [
        "st",
        "art"
      ],
      [
        "hel",
        "m"
      ],
      [
        "C",
        "oun"
      ],
      [
        "Net",
        "work"
      ],
      [
        "W",
        "ait"
      ],
      [
        "Vers",
        "ion"
      ],
      [
        "Di",
        "agsĊ"
      ],
      [
        "pe",
        "er"
      ],
      [
        "s",
        "yn"
      ],
      [
        "tr",
        "ans"
      ],
      [
        "\"n",
        "et"
      ],
      [
        "ou",
        "ter"
      ],
      [
        "Rel",
        "e"
      ],
      [
        "d",
        "elet"
      ],
      [
        "Mar",
        "sh"
      ],
      [
        "e",
        "fi"
      ],
      [
        "M",
        "ock"
      ],
      [
        "C",
        "ode"
      ],
      [
        "Meth",
        "odĊ"
      ],
      [
        "res",
        "pon"
      ],
      [
        "Opt",
        "ion"
      ],
      [
        "Di",
        "ffĊ"
      ],
      [
        "\"d",
        "c"
      ],
      [
        "\"",
        "P"
      ],
      [
        "out",
        "put"
      ],
      [
        "T",
        "estĊ"
      ],
      [
        "efi",
        "k"
      ],
      [
        "in",
        "st"
      ],
      [
        "pl",
        "et"
      ],
      [
        "f",
        "o"
      ],
      [
        "For",
        "m"
      ],
      [
        "sr",
        "vĊ"
      ],
      [
        "p",
        "olic"
      ],
      [
        "Histogram",
        "Ċ"
      ],
      [
        "Error",
        "sĊ"
      ],
      [
        "ent",
        "Ġ"
      ],
      [
        "N",
        "ull"
      ],
      [
        "ur",
        "l"
      ],
      [
        "W",
        "ar"
      ],
      [
        "\"",
        "Un"
      ],
      [
        "R",
        "ow"
      ],
      [
        "IP",
        "Ċ"
      ],
      [
        "s",
        "://"
      ],
      [
        "n",
        "ode"
      ],
      [
        "s",
        "v"
      ],
      [
        "\\",
        "\""
      ],
      [
        "e",
        "cĊ"
      ],
      [
        "s",
        "q"
      ],
      [
        "json",
        "Ċ"
      ],
      [
        "test",
        "C"
      ],
      [
        ".",
        "Ġ"
      ],
      [
        "le",
        "ct"
      ],
      [
        "i",
        "gr"
      ],
      [
        "ce",
        "pt"
      ],
      [
        "L",
        "ev"
      ],
      [
        "W",
        "or"
      ],
      [
        "Resource",
        "Instance"
      ],
      [
        "promethe",
        "us"
      ],
      [
        "on",
        "g"
      ],
      [
        "ch",
        "ild"
      ],
      [
        "D",
        "BĊ"
      ],
      [
        "\"a",
        "\"Ċ"
      ],
      [
        "\"",
        ":\""
      ],
      [
        "JSON",
        "Ċ"
      ],
      [
        "L",
        "E"
      ],
      [
        "\"github.com/hashicorp/",
        "consul"
      ],
      [
        "s",
        "pec"
      ],
      [
        "ma",
        "tĊ"
      ],
      [
        "fi",
        "r"
      ],
      [
        "List",
        "en"
      ],
      [
        "tra",
        "efik"
      ],
      [
        "Empt",
        "yĊ"
      ],
      [
        "Col",
        "um"
      ],
      [
        "f",
        "ore"
      ],
      [
        "\"test",
        "\"Ċ"
      ],
      [
        "B",
        "ind"
      ],
      [
        "t",
        "m"
      ],
      [
        "\"github.com/hashicorp/",
        "terraform"
      ],
      [
        "8",
        "0"
      ],
      [
        "End",
        "pointĊ"
      ],
      [
        "10",
        "0Ċ"
      ],
      [
        "ult",
        "i"
      ],
      [
        "Com",
        "p"
      ],
      [
        "\"con",
        "text\"Ċ"
      ],
      [
        "Res",
        "ult"
      ],
      [
        "Lo",
        "c"
      ],
      [
        "serv",
        "erĊ"
      ],
      [
        "Cont",
        "ent"
      ],
      [
        "asser",
        "t"
      ],
      [
        "obj",
        "ect"
      ],
      [
        "re",
        "di"
      ],
      [
        "Ind",
        "ex"
      ],
      [
        "Int",
        "erv"
      ],
      [
        "Proto",
        "Ċ"
      ],
      [
        "val",
        "ue"
      ],
      [
        "7",
        "."
      ],
      [
        "com",
        "p"
      ],
      [
        "Ġ",
        "forĠ"
      ],
      [
        "ĉĉĉ",
        "\""
      ],
      [
        "Con",
        "text"
      ],
      [
        "containerd",
        "/"
      ],
      [
        "fil",
        "ter"
      ],
      [
        "y",
        "am"
      ],
      [
        "n",
        "at"
      ],
      [
        "Fil",
        "terĊ"
      ],
      [
        "bu",
        "cket"
      ],
      [
        "Int",
        "ent"
      ],
      [
        "ch",
        "art"
      ],
      [
        "D",
        "ocker"
      ],
      [
        "O",
        "K"
      ],
      [
        "He",
        "alth"
      ],
      [
        "Opt",
        "ionĊ"
      ],
      [
        "or",
        "yĊ"
      ],
      [
        "E",
        "R"
      ],
      [
        "t",
        "Ġ"
      ],
      [
        "p",
        "erĊ"
      ],
      [
        "res",
        "h"
      ],
      [
        "d",
        "er"
      ],
      [
        "d",
        "aem"
      ],
      [
        "A",
        "tt"
      ],
      [
        "Op",
        "er"
      ],
      [
        "m",
        "em"
      ],
      [
        "Ch",
        "ange"
      ],
      [
        "n",
        "al"
      ],
      [
        "C",
        "ustom"
      ],
      [
        "n",
        "cĊ"
      ],
      [
        "G",
        "ener"
      ],
      [
        "pk",
        "g/"
      ],
      [
        "\"github.com/hashicorp/terraform",
        "/internal/"
      ],
      [
        "S",
        "ign"
      ],
      [
        "h",
        "e"
      ],
      [
        "l",
        "er"
      ],
      [
        "error",
        ":Ġ%v\"Ċ"
      ],
      [
        "\"Expect",
        "edĠ"
      ],
      [
        "Ab",
        "s"
      ],
      [
        "y",
        "-"
      ],
      [
        "instan",
        "ce"
      ],
      [
        "se",
        "dĊ"
      ],
      [
        "ck",
        "etĊ"
      ],
      [
        "T",
        "arget"
      ],
      [
        "ad",
        "ata"
      ],
      [
        "ev",
        "ent"
      ],
      [
        "R",
        "outer"
      ],
      [
        "Stream",
        "Ċ"
      ],
      [
        "lo",
        "b"
      ],
      [
        "Datacent",
        "erĊ"
      ],
      [
        "or",
        "iz"
      ],
      [
        "ag",
        "esĊ"
      ],
      [
        "i",
        "red"
      ],
      [
        "ff",
        "setĊ"
      ],
      [
        "\\",
        "x"
      ],
      [
        "v",
        "1Ċ"
      ],
      [
        "lo",
        "c"
      ],
      [
        "gro",
        "up"
      ],
      [
        "at",
        "Ġ"
      ],
      [
        "A",
        "tĊ"
      ],
      [
        "Attribut",
        "esĊ"
      ],
      [
        "b",
        "lock"
      ],
      [
        "ch",
        "Ċ"
      ],
      [
        "\"",
        ","
      ],
      [
        "Dis",
        "cover"
      ],
      [
        "en",
        "s"
      ],
      [
        "c",
        "ert"
      ],
      [
        "D",
        "est"
      ],
      [
        "b",
        "ar"
      ],
      [
        "y",
        "m"
      ],
      [
        "Polic",
        "y"
      ],
      [
        "N",
        "ilĊ"
      ],
      [
        "error",
        "\"Ċ"
      ],
      [
        "F",
        "nĊ"
      ],
      [
        "Rout",
        "e"
      ],
      [
        "u",
        "sh"
      ],
      [
        "ar",
        "d"
      ],
      [
        "method",
        "NameĊ"
      ],
      [
        "I",
        "tĊ"
      ],
      [
        "Schem",
        "a"
      ],
      [
        "m",
        "tĊ"
      ],
      [
        "T",
        "able"
      ],
      [
        "con",
        "fĊ"
      ],
      [
        "C",
        "Ċ"
      ],
      [
        "Mod",
        "ule"
      ],
      [
        "7",
        "Ċ"
      ],
      [
        "li",
        "sh"
      ],
      [
        "}",
        "}"
      ],
      [
        "M",
        "ust"
      ],
      [
        "cc",
        "ur"
      ],
      [
        "ol",
        "um"
      ],
      [
        "p",
        "er"
      ],
      [
        "'",
        "Ċ"
      ],
      [
        "N",
        "owĊ"
      ],
      [
        "k",
        "ub"
      ],
      [
        "Mod",
        "uleĊ"
      ],
      [
        "n",
        "odeĊ"
      ],
      [
        "c",
        "cĊ"
      ],
      [
        "p",
        "ub"
      ],
      [
        "\"github.com/",
        "containerd/"
      ],
      [
        "Sub",
        "s"
      ],
      [
        "Gatew",
        "ay"
      ],
      [
        "s",
        "d"
      ],
      [
        "A",
        "ccess"
      ],
      [
        "1",
        ":"
      ],
      [
        "\"",
        "re"
      ],
      [
        "O",
        "ver"
      ],
      [
        "pon",
        "ent"
      ],
      [
        "war",
        "d"
      ],
      [
        "Build",
        "erĊ"
      ],
      [
        "obj",
        "Ċ"
      ],
      [
        "Po",
        "sit"
      ],
      [
        "ind",
        "ex"
      ],
      [
        "Gro",
        "upĊ"
      ],
      [
        "contain",
        "erĊ"
      ],
      [
        "quer",
        "yĊ"
      ],
      [
        "r",
        "icĊ"
      ],
      [
        "P",
        "oolĊ"
      ],
      [
        "T",
        "er"
      ],
      [
        "b",
        "ase"
      ],
      [
        "-",
        "Ġ"
      ],
      [
        "M",
        "iddlewar"
      ],
      [
        "stat",
        "us"
      ],
      [
        "ur",
        "lĊ"
      ],
      [
        "c",
        "ess"
      ],
      [
        "St",
        "artĊ"
      ],
      [
        "Wor",
        "k"
      ],
      [
        "en",
        "tryĊ"
      ],
      [
        "iz",
        "e"
      ],
      [
        "wor",
        "kĊ"
      ],
      [
        "S",
        "yn"
      ],
      [
        "C",
        "op"
      ],
      [
        "Nil",
        "ErrorĊ"
      ],
      [
        "T",
        "ableĊ"
      ],
      [
        "B",
        "lockĊ"
      ],
      [
        "en",
        "cod"
      ],
      [
        "Tr",
        "ueĊ"
      ],
      [
        "r",
        "ap"
      ],
      [
        "rp",
        "c"
      ],
      [
        "m",
        "ap"
      ],
      [
        "str",
        "con"
      ],
      [
        "D",
        "oneĊ"
      ],
      [
        "R",
        "O"
      ],
      [
        "ut",
        "d"
      ],
      [
        "em",
        "ent"
      ],
      [
        "j",
        "ectĊ"
      ],
      [
        "1",
        "00"
      ],
      [
        "b",
        "in"
      ],
      [
        "it",
        "em"
      ],
      [
        "sr",
        "cĊ"
      ],
      [
        "Config",
        "EntryĊ"
      ],
      [
        "\"",
        "v"
      ],
      [
        "c",
        "all"
      ],
      [
        "back",
        "end"
      ],
      [
        "Out",
        "put"
      ],
      [
        "im",
        "itĊ"
      ],
      [
        "©",
        "Ċ"
      ],
      [
        "Î",
        "©Ċ"
      ],
      [
        "ic",
        "k"
      ],
      [
        "at",
        "tribut"
      ],
      [
        "3",
        "."
      ],
      [
        "\"github.com/",
        "moby/"
      ],
      [
        "Delet",
        "e"
      ],
      [
        "\"",
        "S"
      ],
      [
        "from",
        "Ġ"
      ],
      [
        "Descript",
        "ionĊ"
      ],
      [
        "lo",
        "adĊ"
      ],
      [
        "1",
        "6"
      ],
      [
        "Exp",
        "rĊ"
      ],
      [
        ";",
        "Ġ"
      ],
      [
        "plan",
        "sĊ"
      ],
      [
        "or",
        "Ġ"
      ],
      [
        "En",
        "v"
      ],
      [
        "\"github.com/hashicorp/consul",
        "/"
      ],
      [
        "Service",
        "NameĊ"
      ],
      [
        "er",
        "tĊ"
      ],
      [
        "I",
        "Ċ"
      ],
      [
        "po",
        "ol"
      ],
      [
        "Cre",
        "ateĊ"
      ],
      [
        "I",
        "dĊ"
      ],
      [
        "ĠĠĠĠ",
        "ĠĠ"
      ],
      [
        "on",
        "Ġ"
      ],
      [
        "Response",
        "WriterĊ"
      ],
      [
        "a",
        "a"
      ],
      [
        "Cert",
        "ific"
      ],
      [
        "Field",
        "sĊ"
      ],
      [
        "Form",
        "at"
      ],
      [
        "d",
        "it"
      ],
      [
        "Add",
        "ress"
      ],
      [
        "Label",
        "Ċ"
      ],
      [
        "reg",
        "istr"
      ],
      [
        "Re",
        "cord"
      ],
      [
        "p",
        "an"
      ],
      [
        "re",
        "tĊ"
      ],
      [
        "a",
        "u"
      ],
      [
        "net",
        "work"
      ],
      [
        "ce",
        "iv"
      ],
      [
        "ou",
        "d"
      ],
      [
        "and",
        "box"
      ],
      [
        "C",
        "al"
      ],
      [
        "I",
        "tem"
      ],
      [
        "\"",
        "r"
      ],
      [
        "A",
        "R"
      ],
      [
        "O",
        "ccur"
      ],
      [
        "4",
        "\"Ċ"
      ],
      [
        "\"g",
        "o"
      ],
      [
        "Fi",
        "eldĊ"
      ],
      [
        "er",
        "g"
      ],
      [
        "\"dc",
        "1\"Ċ"
      ],
      [
        "or",
        "t"
      ],
      [
        "i",
        "x"
      ],
      [
        "Object",
        "ValĊ"
      ],
      [
        "R",
        "uleĊ"
      ],
      [
        "Fl",
        "agsĊ"
      ],
      [
        "As",
        "ser"
      ],
      [
        "3",
        "3"
      ],
      [
        "Have",
        "Occur"
      ],
      [
        "RPC",
        "Ċ"
      ],
      [
        "prometheus",
        "/"
      ],
      [
        "\"",
        "string"
      ],
      [
        "B",
        "lock"
      ],
      [
        "HaveOccur",
        "redĊ"
      ],
      [
        "\"un",
        "expectedĠ"
      ],
      [
        "g",
        "an"
      ],
      [
        "lean",
        "upĊ"
      ],
      [
        "Match",
        "erĊ"
      ],
      [
        "M",
        "ut"
      ],
      [
        "Remov",
        "e"
      ],
      [
        "\"",
        "f"
      ],
      [
        "Po",
        "int"
      ],
      [
        "r",
        "cĊ"
      ],
      [
        "S",
        "ess"
      ],
      [
        "1",
        "/"
      ],
      [
        "\"",
        "k"
      ],
      [
        "gan",
        "iz"
      ],
      [
        "ma",
        "ke"
      ],
      [
        "Ch",
        "unk"
      ],
      [
        "Serv",
        "ers"
      ],
      [
        "\"",
        "Fail"
      ],
      [
        "but",
        "Ġ"
      ],
      [
        "A",
        "ut"
      ],
      [
        "w",
        "ait"
      ],
      [
        "ourc",
        "eĠ"
      ],
      [
        "config",
        "schemaĊ"
      ],
      [
        "upd",
        "ate"
      ],
      [
        "valu",
        "e\"Ċ"
      ],
      [
        "\"",
        "time\"Ċ"
      ],
      [
        "pro",
        "xy"
      ],
      [
        "e",
        "igh"
      ],
      [
        "Match",
        "Ċ"
      ],
      [
        "s",
        "sĊ"
      ],
      [
        "p",
        "sĊ"
      ],
      [
        "or",
        "tĊ"
      ],
      [
        "redi",
        "sĊ"
      ],
      [
        "w",
        "sĊ"
      ],
      [
        "G",
        "Ċ"
      ],
      [
        "mot",
        "e"
      ],
      [
        "ab",
        "il"
      ],
      [
        "O",
        "O"
      ],
      [
        "g",
        "ress"
      ],
      [
        "as",
        "k"
      ],
      [
        "fa",
        "ke"
      ],
      [
        "\"",
        "B"
      ],
      [
        "A",
        "M"
      ],
      [
        "Ret",
        "ry"
      ],
      [
        "Ġ%",
        "s\"Ċ"
      ],
      [
        "Rout",
        "erĊ"
      ],
      [
        "En",
        "vĊ"
      ],
      [
        "\"",
        "12"
      ],
      [
        "x",
        "yĊ"
      ],
      [
        "Im",
        "age"
      ],
      [
        "re",
        "fĊ"
      ],
      [
        "stat",
        "esĊ"
      ],
      [
        "fl",
        "ag"
      ],
      [
        "w",
        "atch"
      ],
      [
        "b",
        "erĊ"
      ],
      [
        "Interv",
        "alĊ"
      ],
      [
        "pa",
        "ceĊ"
      ],
      [
        "eng",
        "thĊ"
      ],
      [
        "\"",
        "D"
      ],
      [
        "il",
        "\"Ċ"
      ],
      [
        "l",
        "y"
      ],
      [
        "Re",
        "adĊ"
      ],
      [
        "V",
        "ari"
      ],
      [
        "Ġ",
        "withĠ"
      ],
      [
        "st",
        "d"
      ],
      [
        "pl",
        "a"
      ],
      [
        "x",
        "ds"
      ],
      [
        "Sampl",
        "esĊ"
      ],
      [
        "3",
        "2"
      ],
      [
        "Di",
        "al"
      ],
      [
        "ed",
        "_"
      ],
      [
        "\"http",
        "s://"
      ],
      [
        "hel",
        "lo"
      ],
      [
        "`",
        "{"
      ],
      [
        "il",
        "dĊ"
      ],
      [
        "at",
        "tr"
      ],
      [
        "Proto",
        "col"
      ],
      [
        "meta",
        "_"
      ],
      [
        "En",
        "try"
      ],
      [
        "al",
        "low"
      ],
      [
        "Pro",
        "xy"
      ],
      [
        "j",
        "o"
      ],
      [
        "Nam",
        "esĊ"
      ],
      [
        "H",
        "ostĊ"
      ],
      [
        "t",
        "able"
      ],
      [
        "7.",
        "0.0."
      ],
      [
        "Attribut",
        "e"
      ],
      [
        "War",
        "n"
      ],
      [
        "D",
        "et"
      ],
      [
        "\"__",
        "meta_"
      ],
      [
        "\"",
        "."
      ],
      [
        "ver",
        "t"
      ],
      [
        "%",
        "q"
      ],
      [
        "Metric",
        "sĊ"
      ],
      [
        "r",
        "tĊ"
      ],
      [
        "add",
        "r"
      ],
      [
        "5",
        "6"
      ],
      [
        "R",
        "Ċ"
      ],
      [
        "k",
        "nown"
      ],
      [
        "h",
        "av"
      ],
      [
        "t",
        "a"
      ],
      [
        "S",
        "elect"
      ],
      [
        "Delet",
        "eĊ"
      ],
      [
        "fir",
        "st"
      ],
      [
        "C",
        "txĊ"
      ],
      [
        "or",
        "m"
      ],
      [
        "Ar",
        "g"
      ],
      [
        "St",
        "or"
      ],
      [
        "Empt",
        "y"
      ],
      [
        "re",
        "po"
      ],
      [
        "tok",
        "enĊ"
      ],
      [
        "json",
        "\"Ċ"
      ],
      [
        "A",
        "Ċ"
      ],
      [
        "ce",
        "\"Ċ"
      ],
      [
        "L",
        "e"
      ],
      [
        "t",
        "ingsĊ"
      ],
      [
        "al",
        "Ġ"
      ],
      [
        "act",
        "ionĊ"
      ],
      [
        "Reg",
        "istr"
      ],
      [
        "Af",
        "terĊ"
      ],
      [
        "E",
        "le"
      ],
      [
        "b",
        "alanc"
      ],
      [
        "d",
        "oneĊ"
      ],
      [
        "Buff",
        "erĊ"
      ],
      [
        "Not",
        "ToĊ"
      ],
      [
        "c",
        "p"
      ],
      [
        "F",
        "Ċ"
      ],
      [
        "N",
        "odesĊ"
      ],
      [
        "im",
        "ple"
      ],
      [
        "\"string",
        "s\"Ċ"
      ],
      [
        "d",
        "stĊ"
      ],
      [
        "ann",
        "el"
      ],
      [
        "c",
        "ore"
      ],
      [
        "M",
        "ap"
      ],
      [
        "st",
        "oreĊ"
      ],
      [
        "\"Un",
        "expectedĠ"
      ],
      [
        "Head",
        "er"
      ],
      [
        "sh",
        "a"
      ],
      [
        "f",
        "sĊ"
      ],
      [
        "stor",
        "ageĊ"
      ],
      [
        "Lo",
        "ck"
      ],
      [
        "\"Fail",
        "edĠtoĠ"
      ],
      [
        ":",
        "Ċ"
      ],
      [
        "s",
        "chem"
      ],
      [
        "Sampl",
        "eĊ"
      ],
      [
        "St",
        "ack"
      ],
      [
        "Sp",
        "an"
      ],
      [
        "par",
        "se"
      ],
      [
        "u",
        "iĊ"
      ],
      [
        "tri",
        "esĊ"
      ],
      [
        "return",
        "edĠ"
      ],
      [
        "r",
        "app"
      ],
      [
        "m",
        "entĊ"
      ],
      [
        "er",
        "o"
      ],
      [
        "T",
        "empl"
      ],
      [
        "valu",
        "eĠ"
      ],
      [
        "cm",
        "pĊ"
      ],
      [
        "war",
        "m"
      ],
      [
        "lin",
        "eĊ"
      ],
      [
        "mar",
        "k"
      ],
      [
        "pl",
        "anĊ"
      ],
      [
        "s",
        "y"
      ],
      [
        "U",
        "D"
      ],
      [
        "c",
        "a"
      ],
      [
        "cod",
        "esĊ"
      ],
      [
        "nam",
        "eĠ"
      ],
      [
        "provid",
        "erĊ"
      ],
      [
        "N",
        "est"
      ],
      [
        "ag",
        "ent"
      ],
      [
        "ing",
        "ress"
      ],
      [
        "Str",
        "ingsĊ"
      ],
      [
        "es",
        "h"
      ],
      [
        "Su",
        "iteĊ"
      ],
      [
        "/",
        "go-"
      ],
      [
        "ap",
        "pĊ"
      ],
      [
        "t",
        "argetĊ"
      ],
      [
        "/",
        "pkg/"
      ],
      [
        "D",
        "o"
      ],
      [
        "e",
        "b"
      ],
      [
        "ar",
        "sĊ"
      ],
      [
        "/",
        "http"
      ],
      [
        "L",
        "imit"
      ],
      [
        "pro",
        "ject"
      ],
      [
        "Ap",
        "ply"
      ],
      [
        "\"G",
        "E"
      ],
      [
        "0",
        "0Ċ"
      ],
      [
        "test",
        "ing"
      ],
      [
        "S",
        "kip"
      ],
      [
        "ed",
        "i"
      ],
      [
        "O",
        "ffsetĊ"
      ],
      [
        "op",
        "tĊ"
      ],
      [
        "Reg",
        "ister"
      ],
      [
        "Ġ%q",
        "\"Ċ"
      ],
      [
        "s",
        "upport"
      ],
      [
        "In",
        "valid"
      ],
      [
        "7",
        "8"
      ],
      [
        "In",
        "it"
      ],
      [
        "en",
        "ameĊ"
      ],
      [
        "OK",
        "Ċ"
      ],
      [
        "En",
        "cod"
      ],
      [
        "Manag",
        "erĊ"
      ],
      [
        "--",
        "--"
      ],
      [
        "want",
        "ErrĊ"
      ],
      [
        "Un",
        "marsh"
      ],
      [
        "an",
        "t"
      ],
      [
        "g",
        "estĊ"
      ],
      [
        "cl",
        "u"
      ],
      [
        "In",
        "st"
      ],
      [
        "b",
        "ar\"Ċ"
      ],
      [
        "Trans",
        "port"
      ],
      [
        "en",
        "vĊ"
      ],
      [
        "nat",
        "sĊ"
      ],
      [
        "at",
        "ab"
      ],
      [
        "fl",
        "agsĊ"
      ],
      [
        "ex",
        "pectĊ"
      ],
      [
        "bu",
        "g"
      ],
      [
        "Over",
        "rid"
      ],
      [
        "ind",
        "ow"
      ],
      [
        "s",
        "n"
      ],
      [
        "Ar",
        "ra"
      ],
      [
        "out",
        "Ġ"
      ],
      [
        "cm",
        "d"
      ],
      [
        "d",
        "b"
      ],
      [
        "el",
        "em"
      ],
      [
        "im",
        "age"
      ],
      [
        "p",
        "ack"
      ],
      [
        "ate",
        "g"
      ],
      [
        "vers",
        "ionĊ"
      ],
      [
        "st",
        "em"
      ],
      [
        "s",
        "ign"
      ],
      [
        "an",
        "if"
      ],
      [
        "Enterprise",
        "MetaĊ"
      ],
      [
        "Ġ%",
        "s"
      ],
      [
        "shoul",
        "d"
      ],
      [
        "ation",
        "Ġ"
      ],
      [
        "pend",
        "enc"
      ],
      [
        "ex",
        "pĊ"
      ],
      [
        "\"",
        "err"
      ],
      [
        "T",
        "em"
      ],
      [
        "mod",
        "ule"
      ],
      [
        "ang",
        "esĊ"
      ],
      [
        "wh",
        "enĠ"
      ],
      [
        "m",
        "anag"
      ],
      [
        "cl",
        "oud"
      ],
      [
        "Partit",
        "ionĊ"
      ],
      [
        "k",
        "ipĊ"
      ],
      [
        "tl",
        "s"
      ],
      [
        "z",
        "Ċ"
      ],
      [
        "Pro",
        "xyĊ"
      ],
      [
        "R",
        "ul"
      ],
      [
        "For",
        "ward"
      ],
      [
        "\"b",
        "\"Ċ"
      ],
      [
        "De",
        "f"
      ],
      [
        "il",
        "l"
      ],
      [
        "Ġ%",
        "d\"Ċ"
      ],
      [
        "Ag",
        "ent"
      ],
      [
        "Listen",
        "erĊ"
      ],
      [
        "Balanc",
        "erĊ"
      ],
      [
        "s",
        "ampl"
      ],
      [
        "b",
        "odyĊ"
      ],
      [
        "(",
        ")Ġ"
      ],
      [
        "ag",
        "e\"Ċ"
      ],
      [
        "F",
        "oundĊ"
      ],
      [
        "ms",
        "g"
      ],
      [
        "e",
        "at"
      ],
      [
        "es",
        "_"
      ],
      [
        "4",
        "4"
      ],
      [
        "fa",
        "ceĊ"
      ],
      [
        "\"",
        "F"
      ],
      [
        "m",
        "uxĊ"
      ],
      [
        "Contain",
        "erĊ"
      ],
      [
        "at",
        "or"
      ],
      [
        "ke",
        "y\"Ċ"
      ],
      [
        "es",
        "."
      ],
      [
        "o",
        "k"
      ],
      [
        "T",
        "Ġ"
      ],
      [
        "Slic",
        "eĊ"
      ],
      [
        "In",
        "put"
      ],
      [
        "\"GE",
        "T\"Ċ"
      ],
      [
        "v",
        "is"
      ],
      [
        "Res",
        "ourcesĊ"
      ],
      [
        "Run",
        "n"
      ],
      [
        "pan",
        "icĊ"
      ],
      [
        "\"test",
        "-"
      ],
      [
        "ĠĠĠĠĠĠĠĠ",
        "ĠĠĠĠĠĠĠĠ"
      ],
      [
        "l",
        "yĠ"
      ],
      [
        "d",
        "el"
      ],
      [
        "curr",
        "ent"
      ],
      [
        "sub",
        "Ċ"
      ],
      [
        "anc",
        "el"
      ],
      [
        "Us",
        "erĊ"
      ],
      [
        "end",
        "er"
      ],
      [
        "testut",
        "ilĊ"
      ],
      [
        "C",
        "ur"
      ],
      [
        "\"http",
        "://"
      ],
      [
        "n",
        "o"
      ],
      [
        "TLS",
        "Ċ"
      ],
      [
        "l",
        ":\""
      ],
      [
        "S",
        "napshot"
      ],
      [
        "Sum",
        "mar"
      ],
      [
        "Re",
        "qĊ"
      ],
      [
        "\"default",
        "\"Ċ"
      ],
      [
        "Trans",
        "portĊ"
      ],
      [
        "Enable",
        "dĊ"
      ],
      [
        "writ",
        "e"
      ],
      [
        "requ",
        "ire"
      ],
      [
        "e",
        "am"
      ],
      [
        "p",
        "DirĊ"
      ],
      [
        "cri",
        "b"
      ],
      [
        "\"in",
        "validĠ"
      ],
      [
        "pt",
        "estĊ"
      ],
      [
        "T",
        "argetĊ"
      ],
      [
        "htt",
        "ptestĊ"
      ],
      [
        "Tr",
        "im"
      ],
      [
        "new",
        "Ċ"
      ],
      [
        "pre",
        "fixĊ"
      ],
      [
        "L",
        "engthĊ"
      ],
      [
        "or",
        "y"
      ],
      [
        "Gatew",
        "ayĊ"
      ],
      [
        "a",
        "ilĊ"
      ],
      [
        "UD",
        "P"
      ],
      [
        "ern",
        "et"
      ],
      [
        "l",
        "ay"
      ],
      [
        "Dest",
        "in"
      ],
      [
        "re",
        "q"
      ],
      [
        "fail",
        "ed"
      ],
      [
        "P",
        "ass"
      ],
      [
        "a",
        "sĊ"
      ],
      [
        "as",
        "Ġ"
      ],
      [
        "HTTP",
        "Ċ"
      ],
      [
        "des",
        "cript"
      ],
      [
        "test",
        "."
      ],
      [
        "di",
        "ff"
      ],
      [
        "With",
        "TimeoutĊ"
      ],
      [
        "servic",
        "eĊ"
      ],
      [
        "d",
        "ocker"
      ],
      [
        "s",
        "1Ċ"
      ],
      [
        "New",
        "RequestĊ"
      ],
      [
        "quer",
        "y"
      ],
      [
        "as",
        "kĊ"
      ],
      [
        "h",
        "cl"
      ],
      [
        ":",
        "\\n"
      ],
      [
        "T",
        "x"
      ],
      [
        "list",
        "ener"
      ],
      [
        "]",
        "Ċ"
      ],
      [
        "fa",
        "ultĊ"
      ],
      [
        "Typ",
        "esĊ"
      ],
      [
        "form",
        "at"
      ],
      [
        "ifi",
        "erĊ"
      ],
      [
        "l",
        "sĊ"
      ],
      [
        "]",
        "Ġ"
      ],
      [
        "Auth",
        "oriz"
      ],
      [
        "a",
        "itĊ"
      ],
      [
        "r",
        "ong"
      ],
      [
        "er",
        "_"
      ],
      [
        "H",
        "ook"
      ],
      [
        "V",
        "Ċ"
      ],
      [
        "resol",
        "verĊ"
      ],
      [
        "Lo",
        "gĊ"
      ],
      [
        "\"",
        "id\"Ċ"
      ],
      [
        "ĉĉĉĉ",
        "ĉĉ"
      ],
      [
        "V",
        "iewĊ"
      ],
      [
        "1",
        "8"
      ],
      [
        "c",
        "ountĊ"
      ],
      [
        "\"",
        "\\n\"Ċ"
      ],
      [
        "Di",
        "rect"
      ],
      [
        "at",
        "ive"
      ],
      [
        "aw",
        "sĊ"
      ],
      [
        "ing",
        "le"
      ],
      [
        "pre",
        "c"
      ],
      [
        "eren",
        "ce"
      ],
      [
        "To",
        "p"
      ],
      [
        "af",
        "ter"
      ],
      [
        "In",
        "tĊ"
      ],
      [
        "Pl",
        "ugin"
      ],
      [
        "strcon",
        "vĊ"
      ],
      [
        "5",
        "5"
      ],
      [
        "\"",
        "["
      ],
      [
        "ry",
        "pt"
      ],
      [
        "1",
        "9"
      ],
      [
        "local",
        "host"
      ],
      [
        "on",
        "e\"Ċ"
      ],
      [
        "Valid",
        "ate"
      ],
      [
        "ra",
        "pe"
      ],
      [
        "L",
        "imitĊ"
      ],
      [
        "Ġ",
        "isĠ"
      ],
      [
        "IP",
        "v"
      ],
      [
        "vers",
        "ion"
      ],
      [
        "x",
        "x"
      ],
      [
        "\"google.golang.org/grpc",
        "/"
      ],
      [
        "ag",
        "eĠ"
      ],
      [
        ":Ġ%",
        "v"
      ],
      [
        "Ġ%",
        "sĠ"
      ],
      [
        "St",
        "opĊ"
      ],
      [
        "tr",
        "u"
      ],
      [
        "Ser",
        "iesĊ"
      ],
      [
        "ann",
        "otĠ"
      ],
      [
        "\":Ġ",
        "{Ċ"
      ],
      [
        "Con",
        "s"
      ],
      [
        "Ex",
        "ecut"
      ],
      [
        "C",
        "o"
      ],
      [
        "t",
        "otal"
      ],
      [
        "ind",
        "exĊ"
      ],
      [
        "Cach",
        "e"
      ],
      [
        "\"",
        "id"
      ],
      [
        "ress",
        "ionĊ"
      ],
      [
        "Sh",
        "utd"
      ],
      [
        "ct",
        "ion"
      ],
      [
        "met",
        "adataĊ"
      ],
      [
        "Hand",
        "ler"
      ],
      [
        "syn",
        "cĊ"
      ],
      [
        "P",
        "ay"
      ],
      [
        "g",
        "atew"
      ],
      [
        "de",
        "v"
      ],
      [
        "t",
        "x"
      ],
      [
        "12",
        "34"
      ],
      [
        "Cont",
        "entĊ"
      ],
      [
        "\"",
        ",Ġ"
      ],
      [
        "1",
        "6Ċ"
      ],
      [
        "ri",
        "or"
      ],
      [
        "config",
        "uration"
      ],
      [
        "rout",
        "e"
      ],
      [
        "on",
        "e"
      ],
      [
        "A",
        "N"
      ],
      [
        "\"",
        "1\"Ċ"
      ],
      [
        "Credential",
        "sĊ"
      ],
      [
        "u",
        "al"
      ],
      [
        "al",
        "o"
      ],
      [
        "Marsh",
        "alĊ"
      ],
      [
        "j",
        "sĊ"
      ],
      [
        "in",
        "al"
      ],
      [
        "el",
        "in"
      ],
      [
        "di",
        "rect"
      ],
      [
        "error",
        "s\"Ċ"
      ],
      [
        "e",
        "2"
      ],
      [
        "Con",
        "sum"
      ],
      [
        "met",
        "av"
      ],
      [
        "L",
        "ast"
      ],
      [
        "to",
        "p"
      ],
      [
        "\"",
        "Error"
      ],
      [
        "Re",
        "port"
      ],
      [
        "v",
        "e"
      ],
      [
        "v",
        "3Ċ"
      ],
      [
        "se",
        "cond"
      ],
      [
        "metav",
        "1Ċ"
      ],
      [
        "cont",
        "ent"
      ],
      [
        "E",
        "N"
      ],
      [
        "1",
        "Ġ"
      ],
      [
        "f",
        "un"
      ],
      [
        "g",
        "ener"
      ],
      [
        "s",
        "ess"
      ],
      [
        "li",
        "b"
      ],
      [
        "ar",
        "yĊ"
      ],
      [
        "en",
        "sit"
      ],
      [
        "Ġ",
        "inĠ"
      ],
      [
        "ter",
        "nal"
      ],
      [
        "Con",
        "dit"
      ],
      [
        ",omitempty",
        "\"Ġ"
      ],
      [
        "u",
        "x"
      ],
      [
        "ul",
        "lĊ"
      ],
      [
        "int",
        "er"
      ],
      [
        "l",
        "nĊ"
      ],
      [
        "ap",
        "pend"
      ],
      [
        "plic",
        "ation"
      ],
      [
        "Sp",
        "anĊ"
      ],
      [
        "s",
        "m"
      ],
      [
        "\"b",
        "ad"
      ],
      [
        "Intent",
        "ion"
      ],
      [
        "Requ",
        "ire"
      ],
      [
        "R",
        "ed"
      ],
      [
        "Cl",
        "usterĊ"
      ],
      [
        "Ser",
        "ies"
      ],
      [
        "p",
        "h"
      ],
      [
        "c",
        "ustom"
      ],
      [
        "Ag",
        "entĊ"
      ],
      [
        "s",
        "erĊ"
      ],
      [
        "ganiz",
        "ation"
      ],
      [
        "c",
        "o"
      ],
      [
        "Hel",
        "perĊ"
      ],
      [
        "um",
        "ent"
      ],
      [
        "ri",
        "verĊ"
      ],
      [
        "op",
        "er"
      ],
      [
        "In",
        "putĊ"
      ],
      [
        "9",
        "0"
      ],
      [
        "R",
        "aw"
      ],
      [
        "Por",
        "t"
      ],
      [
        "En",
        "dĊ"
      ],
      [
        "Pl",
        "anĊ"
      ],
      [
        "ac",
        "lĊ"
      ],
      [
        "C",
        "fgĊ"
      ],
      [
        "Head",
        "ersĊ"
      ],
      [
        "8",
        "0\"Ċ"
      ],
      [
        "In",
        "fo"
      ],
      [
        "Ex",
        "ist"
      ],
      [
        "valid",
        "ate"
      ],
      [
        "hav",
        "eĠ"
      ],
      [
        "M",
        "Ċ"
      ],
      [
        "test",
        "\"Ċ"
      ],
      [
        "with",
        "-"
      ],
      [
        "cc",
        "essĊ"
      ],
      [
        "Type",
        "NameĊ"
      ],
      [
        "n",
        "extĊ"
      ],
      [
        "run",
        "Ċ"
      ],
      [
        "Summar",
        "yĊ"
      ],
      [
        "pro",
        "m"
      ],
      [
        "par",
        "ent"
      ],
      [
        "s",
        "napshot"
      ],
      [
        "Bu",
        "cketĊ"
      ],
      [
        "S",
        "paceĊ"
      ],
      [
        ".",
        "io/"
      ],
      [
        "fal",
        "se"
      ],
      [
        "comm",
        "and"
      ],
      [
        "riv",
        "ate"
      ],
      [
        "O",
        "fĊ"
      ],
      [
        "le",
        "dĊ"
      ],
      [
        "C",
        "leanupĊ"
      ],
      [
        "N",
        "extĊ"
      ],
      [
        "cre",
        "ateĠ"
      ],
      [
        "or",
        "ig"
      ],
      [
        "ch",
        "r"
      ],
      [
        "Discover",
        "y"
      ],
      [
        "at",
        "alo"
      ],
      [
        "Resol",
        "ver"
      ],
      [
        "D",
        "S"
      ],
      [
        "fil",
        "eĠ"
      ],
      [
        "I",
        "ter"
      ],
      [
        "Not",
        "FoundĊ"
      ],
      [
        "oo",
        "kĊ"
      ],
      [
        "fil",
        "e\"Ċ"
      ],
      [
        "Mess",
        "age"
      ],
      [
        "Pl",
        "at"
      ],
      [
        "c",
        "/"
      ],
      [
        "valu",
        "esĊ"
      ],
      [
        "Af",
        "ter"
      ],
      [
        "E",
        "C"
      ],
      [
        "m",
        "d"
      ],
      [
        "T",
        "O"
      ],
      [
        "\"",
        "%s"
      ],
      [
        "Label",
        "ValueĊ"
      ],
      [
        "C",
        "L"
      ],
      [
        "Bucket",
        "sĊ"
      ],
      [
        "go",
        "/"
      ],
      [
        "De",
        "faultĊ"
      ],
      [
        "a",
        "ut"
      ],
      [
        "S",
        "Q"
      ],
      [
        "Hand",
        "le"
      ],
      [
        "m",
        "y"
      ],
      [
        "cont",
        "entĊ"
      ],
      [
        "Pre",
        "fix"
      ],
      [
        "ra",
        "w"
      ],
      [
        "over",
        "rid"
      ],
      [
        "u",
        "int32Ċ"
      ],
      [
        "at",
        "edĠ"
      ],
      [
        "s",
        "pa"
      ],
      [
        "sub",
        "s"
      ],
      [
        "1",
        "5"
      ],
      [
        "test",
        "_"
      ],
      [
        "W",
        "h"
      ],
      [
        "O",
        "pĊ"
      ],
      [
        "B",
        "atch"
      ],
      [
        "M",
        "igr"
      ],
      [
        ".g",
        "oogle"
      ],
      [
        "metric",
        "sĊ"
      ],
      [
        "\"github.com/moby/",
        "moby"
      ],
      [
        "v",
        "iewĊ"
      ],
      [
        "res",
        "ourceĠ"
      ],
      [
        "Se",
        "arch"
      ],
      [
        "*",
        "\"Ċ"
      ],
      [
        "qu",
        "e"
      ],
      [
        "From",
        "StringsĊ"
      ],
      [
        "o",
        "ff"
      ],
      [
        "Un",
        "i"
      ],
      [
        "ug",
        "inĊ"
      ],
      [
        "I",
        "sĊ"
      ],
      [
        "c",
        "asesĊ"
      ],
      [
        "Ġ",
        "theĠ"
      ],
      [
        "lob",
        "al"
      ],
      [
        "O",
        "Ċ"
      ],
      [
        "W",
        "eigh"
      ],
      [
        "il",
        "sĊ"
      ],
      [
        "b",
        "aseĊ"
      ],
      [
        "tr",
        "ue"
      ],
      [
        "Th",
        "eĠ"
      ],
      [
        "Se",
        "cret"
      ],
      [
        "\"",
        "shouldĠ"
      ],
      [
        "Str",
        "uct"
      ],
      [
        "yp",
        "esĊ"
      ],
      [
        "ch",
        "ang"
      ],
      [
        "Stat",
        "sĊ"
      ],
      [
        "daem",
        "on"
      ],
      [
        "Up",
        "stream"
      ],
      [
        "testC",
        "asesĊ"
      ],
      [
        "t",
        "empl"
      ],
      [
        "od",
        "y"
      ],
      [
        "in",
        "put"
      ],
      [
        "Be",
        "fore"
      ],
      [
        "is",
        "ĠnotĠ"
      ],
      [
        "De",
        "ep"
      ],
      [
        ".com",
        "\"Ċ"
      ],
      [
        "o",
        "\"Ċ"
      ],
      [
        "o",
        "pen"
      ],
      [
        "mod",
        "ul"
      ],
      [
        "Sub",
        "jectĊ"
      ],
      [
        "l",
        "b"
      ],
      [
        "8",
        "s."
      ],
      [
        "met",
        "adata"
      ],
      [
        "D",
        "ynam"
      ],
      [
        "ing",
        "/"
      ],
      [
        "err",
        "def"
      ],
      [
        "Rout",
        "eĊ"
      ],
      [
        "L",
        "ead"
      ],
      [
        "4",
        "0"
      ],
      [
        "eren",
        "ceĊ"
      ],
      [
        "az",
        "\"Ċ"
      ],
      [
        "Key",
        "sĊ"
      ],
      [
        "T",
        "ri"
      ],
      [
        "D",
        "aem"
      ],
      [
        "un",
        "d"
      ],
      [
        "Dis",
        "able"
      ],
      [
        "8",
        "."
      ],
      [
        "Im",
        "ageĊ"
      ],
      [
        "Pl",
        "ann"
      ],
      [
        "T",
        "I"
      ],
      [
        "pl",
        "Ċ"
      ],
      [
        "Back",
        "end"
      ],
      [
        "Status",
        "OKĊ"
      ],
      [
        "b",
        "serv"
      ],
      [
        "Inter",
        "faceĊ"
      ],
      [
        "Shutd",
        "ownĊ"
      ],
      [
        "do",
        "es"
      ],
      [
        "\"",
        "hello"
      ],
      [
        "su",
        "iteĊ"
      ],
      [
        "\"",
        "errorĠ"
      ],
      [
        "napsh",
        "otĊ"
      ],
      [
        "s",
        "lic"
      ],
      [
        "re",
        "l"
      ],
      [
        "\"default",
        "-"
      ],
      [
        "d",
        "est"
      ],
      [
        "Has",
        "ErrorsĊ"
      ],
      [
        "Set",
        "tingsĊ"
      ],
      [
        "tru",
        "e\"Ċ"
      ],
      [
        "2",
        "2"
      ],
      [
        "R",
        "ule"
      ],
      [
        "#",
        "v\"Ċ"
      ],
      [
        "w",
        "gĊ"
      ],
      [
        "\"o",
        "s\"Ċ"
      ],
      [
        "c",
        "ount"
      ],
      [
        "S",
        "rcĊ"
      ],
      [
        "at",
        "t"
      ],
      [
        "Com",
        "ponent"
      ],
      [
        "Back",
        "endĊ"
      ],
      [
        "Lev",
        "elĊ"
      ],
      [
        "D",
        "ir"
      ],
      [
        "histogram",
        "Ċ"
      ],
      [
        "Has",
        "hĊ"
      ],
      [
        "tim",
        "estam"
      ],
      [
        "exp",
        "rĊ"
      ],
      [
        "actu",
        "al"
      ],
      [
        "%",
        "d"
      ],
      [
        "Pr",
        "intfĊ"
      ],
      [
        "re",
        "ceiv"
      ],
      [
        "at",
        "esĊ"
      ],
      [
        "Fl",
        "agĊ"
      ],
      [
        "Loc",
        "ationĊ"
      ],
      [
        "au",
        "seĊ"
      ],
      [
        "api",
        "/"
      ],
      [
        "cur",
        "ity"
      ],
      [
        "Fl",
        "ag"
      ],
      [
        "A",
        "L"
      ],
      [
        "T",
        "ag"
      ],
      [
        "crib",
        "eĊ"
      ],
      [
        "com",
        "plet"
      ],
      [
        "D",
        "N"
      ],
      [
        "w",
        "are"
      ],
      [
        "ri",
        "ver"
      ],
      [
        "ut",
        "eĊ"
      ],
      [
        "st",
        "artĊ"
      ],
      [
        "re",
        "mov"
      ],
      [
        "u",
        "int"
      ],
      [
        "envo",
        "y_"
      ],
      [
        "For",
        "matĊ"
      ],
      [
        "log",
        "\"Ċ"
      ],
      [
        "dis",
        "cover"
      ],
      [
        "tl",
        "sĊ"
      ],
      [
        "em",
        "entĊ"
      ],
      [
        "a",
        "int"
      ],
      [
        "Mem",
        "ber"
      ],
      [
        "m",
        "iddlewar"
      ],
      [
        "S",
        "E"
      ],
      [
        "st",
        "op"
      ],
      [
        "+",
        "v\"Ċ"
      ],
      [
        "bu",
        "f"
      ],
      [
        "set",
        "up"
      ],
      [
        "Fail",
        "ure"
      ],
      [
        "W",
        "aitĊ"
      ],
      [
        "Per",
        "miss"
      ],
      [
        "Colum",
        "nĊ"
      ],
      [
        "}",
        ",Ċ"
      ],
      [
        "\"github.com/containerd/",
        "containerd"
      ],
      [
        "K",
        "ind"
      ],
      [
        "a",
        "ug"
      ],
      [
        "n",
        "s"
      ],
      [
        "re",
        "port"
      ],
      [
        "P",
        "ost"
      ],
      [
        "param",
        "sĊ"
      ],
      [
        "stor",
        "age"
      ],
      [
        "S",
        "kipĊ"
      ],
      [
        "g",
        "h"
      ],
      [
        "int",
        "lnĊ"
      ],
      [
        ",Ġgot",
        "Ġ%v\"Ċ"
      ],
      [
        "it",
        "Ġ"
      ],
      [
        "opt",
        "ion"
      ],
      [
        "Dynam",
        "ic"
      ],
      [
        "Write",
        "StringĊ"
      ],
      [
        "fl",
        "agĊ"
      ],
      [
        "c",
        "op"
      ],
      [
        "ol",
        "dĊ"
      ],
      [
        "met",
        "aĊ"
      ],
      [
        "l",
        "imit"
      ],
      [
        "unk",
        "nown"
      ],
      [
        "\"",
        "run"
      ],
      [
        "-",
        "with-"
      ],
      [
        "ro",
        "mĊ"
      ],
      [
        "\"/",
        "\"Ċ"
      ],
      [
        "v",
        "ar"
      ],
      [
        "et",
        "ch"
      ],
      [
        "rp",
        "cĊ"
      ],
      [
        "Coun",
        "ter"
      ],
      [
        "#",
        "v"
      ],
      [
        "red",
        "sĊ"
      ],
      [
        "kub",
        "ernet"
      ],
      [
        "Record",
        "erĊ"
      ],
      [
        "Param",
        "et"
      ],
      [
        "A",
        "gg"
      ],
      [
        "P",
        "osĊ"
      ],
      [
        "\"Error",
        "Ġ"
      ],
      [
        "pool",
        "Ċ"
      ],
      [
        "Cach",
        "eĊ"
      ],
      [
        "\"12",
        "7.0.0."
      ],
      [
        "se",
        "c"
      ],
      [
        "requ",
        "estĊ"
      ],
      [
        "sp",
        "pbĊ"
      ],
      [
        "=",
        "\"Ċ"
      ],
      [
        "O",
        "f"
      ],
      [
        "am",
        "i"
      ],
      [
        "Un",
        "known"
      ],
      [
        "Cal",
        "lĊ"
      ],
      [
        "as",
        "eĠ"
      ],
      [
        "Gener",
        "ate"
      ],
      [
        "M",
        "ulti"
      ],
      [
        "at",
        "ter"
      ],
      [
        "pt",
        "rĊ"
      ],
      [
        "requ",
        "ired"
      ],
      [
        "Id",
        "xĊ"
      ],
      [
        "Ġ",
        "beĠ"
      ],
      [
        "Equ",
        "al"
      ],
      [
        "8s.",
        "io/"
      ],
      [
        "b",
        "t"
      ],
      [
        "Status",
        "CodeĊ"
      ],
      [
        "Fail",
        "ureĊ"
      ],
      [
        ".",
        "."
      ],
      [
        "Schem",
        "eĊ"
      ],
      [
        "\"",
        "1."
      ],
      [
        "c",
        "f"
      ],
      [
        "A",
        "li"
      ],
      [
        "D",
        "en"
      ],
      [
        "c",
        "r"
      ],
      [
        "st",
        "ore"
      ],
      [
        "con",
        "vert"
      ],
      [
        "i",
        "b"
      ],
      [
        "Ġ",
        "m"
      ],
      [
        "Al",
        "l"
      ],
      [
        "Cont",
        "rol"
      ],
      [
        "1",
        "7"
      ],
      [
        "Pro",
        "p"
      ],
      [
        "bu",
        "ff"
      ],
      [
        "d",
        "et"
      ],
      [
        "U",
        "L"
      ],
      [
        "Col",
        "lect"
      ],
      [
        "pro",
        "cess"
      ],
      [
        "2",
        "00"
      ],
      [
        "F",
        "act"
      ],
      [
        "net",
        "workĊ"
      ],
      [
        "it",
        "e"
      ],
      [
        "on",
        "eĠ"
      ],
      [
        "balanc",
        "erĊ"
      ],
      [
        "G",
        "o"
      ],
      [
        "Met",
        "ricĊ"
      ],
      [
        "abl",
        "esĊ"
      ],
      [
        "B",
        "oolĊ"
      ],
      [
        "Fi",
        "x"
      ],
      [
        "\"github.com/",
        "prometheus/"
      ],
      [
        "Di",
        "gestĊ"
      ],
      [
        "it",
        "er"
      ],
      [
        "B",
        "in"
      ],
      [
        "e2",
        "eĊ"
      ],
      [
        "t",
        "y"
      ],
      [
        "\"",
        "errors\"Ċ"
      ],
      [
        "UR",
        "L"
      ],
      [
        "re",
        "plyĊ"
      ],
      [
        "Posit",
        "ive"
      ],
      [
        "E",
        "ach"
      ],
      [
        "O",
        "R"
      ],
      [
        "Serv",
        "ersĊ"
      ],
      [
        "Ro",
        "le"
      ],
      [
        "R",
        "ol"
      ],
      [
        "av",
        "ail"
      ],
      [
        "1",
        "4"
      ],
      [
        "ot",
        "str"
      ],
      [
        "u",
        "se"
      ],
      [
        "ct",
        "ionĊ"
      ],
      [
        "L",
        "ay"
      ],
      [
        "Com",
        "plet"
      ],
      [
        "]",
        "\"Ċ"
      ],
      [
        "Met",
        "a"
      ],
      [
        "foo",
        "\"Ċ"
      ],
      [
        "t",
        "om"
      ],
      [
        "\"github.com/moby/moby",
        "/v2/"
      ],
      [
        "k",
        "go"
      ],
      [
        "5",
        "\"Ċ"
      ],
      [
        "D",
        "Ċ"
      ],
      [
        "a",
        "cl"
      ],
      [
        "p",
        "ass"
      ],
      [
        "S",
        "napshotĊ"
      ],
      [
        "io",
        "\"Ċ"
      ],
      [
        "Lev",
        "el"
      ],
      [
        "M",
        "app"
      ],
      [
        "ex",
        "ecut"
      ],
      [
        "D",
        "om"
      ],
      [
        "Slic",
        "e"
      ],
      [
        "Load",
        "BalancerĊ"
      ],
      [
        "Di",
        "ff"
      ],
      [
        "hand",
        "lerĊ"
      ],
      [
        "R",
[...]
