{
  "version": "1.0",
  "truncation": null,
  "padding": null,
  "added_tokens": [
    {
      "id": 0,
      "content": "<UNK>",
      "single_word": false,
      "lstrip": false,
      "rstrip": false,
      "normalized": false,
      "special": true
    },
    {
      "id": 1,
      "content": "<EMPTY>",
      "single_word": false,
      "lstrip": false,
      "rstrip": false,
      "normalized": false,
      "special": true
    }
  ],
  "normalizer": null,
  "pre_tokenizer": {
    "type": "ByteLevel",
    "add_prefix_space": false,
    "trim_offsets": true,
    "use_regex": false
  },
  "post_processor": null,
  "decoder": null,
  "model": {
    "type": "BPE",
    "dropout": null,
    "unk_token": "<UNK>",
    "continuing_subword_prefix": null,
    "end_of_word_suffix": null,
    "fuse_unk": false,
    "byte_fallback": false,
    "ignore_merges": false,
    "vocab": {
      "<UNK>": 0,
      "<EMPTY>": 1,
      "!": 2,
      "\"": 3,
      "#": 4,
      "$": 5,
      "%": 6,
      "&": 7,
      "'": 8,
      "(": 9,
      ")": 10,
      "*": 11,
      "+": 12,
      ",": 13,
      "-": 14,
      ".": 15,
      "/": 16,
      "0": 17,
      "1": 18,
      "2": 19,
      "3": 20,
      "4": 21,
      "5": 22,
      "6": 23,
      "7": 24,
      "8": 25,
      "9": 26,
      ":": 27,
      ";": 28,
      "<": 29,
      "=": 30,
      ">": 31,
      "?": 32,
      "@": 33,
      "A": 34,
      "B": 35,
      "C": 36,
      "D": 37,
      "E": 38,
      "F": 39,
      "G": 40,
      "H": 41,
      "I": 42,
      "J": 43,
      "K": 44,
      "L": 45,
      "M": 46,
      "N": 47,
      "O": 48,
      "P": 49,
      "Q": 50,
      "R": 51,
      "S": 52,
      "T": 53,
      "U": 54,
      "V": 55,
      "W": 56,
      "X": 57,
      "Y": 58,
      "Z": 59,
      "[": 60,
      "\\": 61,
      "]": 62,
      "^": 63,
      "_": 64,
      "`": 65,
      "a": 66,
      "b": 67,
      "c": 68,
      "d": 69,
      "e": 70,
      "f": 71,
      "g": 72,
      "h": 73,
      "i": 74,
      "j": 75,
      "k": 76,
      "l": 77,
      "m": 78,
      "n": 79,
      "o": 80,
      "p": 81,
      "q": 82,
      "r": 83,
      "s": 84,
      "t": 85,
      "u": 86,
      "v": 87,
      "w": 88,
      "x": 89,
      "y": 90,
      "z": 91,
      "{": 92,
      "|": 93,
      "}": 94,
      "~": 95,
      "¡": 96,
      "¢": 97,
      "£": 98,
      "¤": 99,
      "¥": 100,
      "¦": 101,
      "§": 102,
      "¨": 103,
      "©": 104,
      "ª": 105,
      "«": 106,
      "¬": 107,
      "®": 108,
      "¯": 109,
      "°": 110,
      "±": 111,
      "²": 112,
      "³": 113,
      "´": 114,
      "µ": 115,
      "¶": 116,
      "·": 117,
      "¸": 118,
      "¹": 119,
      "º": 120,
      "»": 121,
      "¼": 122,
      "½": 123,
      "¾": 124,
      "¿": 125,
      "Â": 126,
      "Ã": 127,
      "Ä": 128,
      "Å": 129,
      "Ç": 130,
      "Ê": 131,
      "Ë": 132,
      "Ì": 133,
      "Í": 134,
      "Î": 135,
      "Ï": 136,
      "Ð": 137,
      "Ñ": 138,
      "Ò": 139,
      "Ó": 140,
      "Ö": 141,
      "×": 142,
      "Ø": 143,
      "Ù": 144,
      "Ú": 145,
      "Û": 146,
      "Ü": 147,
      "Ý": 148,
      "Þ": 149,
      "ß": 150,
      "à": 151,
      "á": 152,
      "â": 153,
      "ã": 154,
      "ä": 155,
      "å": 156,
      "æ": 157,
      "ç": 158,
      "è": 159,
      "é": 160,
      "ê": 161,
      "ë": 162,
      "ì": 163,
      "í": 164,
      "î": 165,
      "ï": 166,
      "ð": 167,
      "ñ": 168,
      "ô": 169,
      "ĉ": 170,
      "Ċ": 171,
      "Ġ": 172,
      "Ģ": 173,
      "ģ": 174,
      "Ĥ": 175,
      "ĥ": 176,
      "Ħ": 177,
      "ħ": 178,
      "Ĩ": 179,
      "ĩ": 180,
      "Ī": 181,
      "ī": 182,
      "Ĭ": 183,
      "ĭ": 184,
      "Į": 185,
      "į": 186,
      "İ": 187,
      "ı": 188,
      "Ĳ": 189,
      "ĳ": 190,
      "Ĵ": 191,
      "ĵ": 192,
      "Ķ": 193,
      "ķ": 194,
      "ĸ": 195,
      "Ĺ": 196,
      "ĺ": 197,
      "Ļ": 198,
      "ļ": 199,
      "Ľ": 200,
      "ľ": 201,
      "Ŀ": 202,
      "ŀ": 203,
      "Ł": 204,
      "ł": 205,
      "Ń": 206,
      "âĺ": 207,
      "âĺº": 208,
      "âĺºâĺº": 209,
      "in": 210,
      "eĊ": 211,
      "âĺºâĺºâĺºâĺº": 212,
      "tĊ": 213,
      "er": 214,
      "sĊ": 215,
      "0Ċ": 216,
      "\"Ċ": 217,
      "rĊ": 218,
      "1Ċ": 219,
      "0x": 220,
      "âĺºâĺºâĺºâĺºâĺºâĺºâĺºâĺº": 221,
      "int": 222,
      "st": 223,
      "al": 224,
      "2Ċ": 225,
      "64": 226,
      "te": 227,
      "re": 228,
      "gĊ": 229,
      "nĊ": 230,
      "dĊ": 231,
      "lĊ": 232,
      "xĊ": 233,
      "at": 234,
      "fĊ": 235,
      "pĊ": 236,
      "le": 237,
      "In": 238,
      "an": 239,
      "on": 240,
      "ro": 241,
      "vĊ": 242,
      "cĊ": 243,
      "ar": 244,
      "00": 245,
      "âĺºâĺºâĺºâĺºâĺºâĺºâĺºâĺºâĺºâĺºâĺºâĺºâĺºâĺºâĺºâĺº": 246,
      "lo": 247,
      "tr": 248,
      "am": 249,
      "en": 250,
      "errĊ": 251,
      "64Ċ": 252,
      "as": 253,
      "un": 254,
      "bĊ": 255,
      "6Ċ": 256,
      "uint": 257,
      "8Ċ": 258,
      "Op": 259,
      "ingĊ": 260,
      "aĊ": 261,
      "mĊ": 262,
      "7Ċ": 263,
      "by": 264,
      "iĊ": 265,
      "ni": 266,
      "yĊ": 267,
      "teĊ": 268,
      "se": 269,
      "erĊ": 270,
      "yp": 271,
      "ck": 272,
      "ad": 273,
      "co": 274,
      "3Ċ": 275,
      "nilĊ": 276,
      "4Ċ": 277,
      "ueĊ": 278,
      "oĊ": 279,
      "byteĊ": 280,
      "ameĊ": 281,
      "32Ċ": 282,
      "v_": 283,
      "or": 284,
      "str": 285,
      "ut": 286,
      "hĊ": 287,
      "Ar": 288,
      "gsĊ": 289,
      "ff": 290,
      "5Ċ": 291,
      "ex": 292,
      "Re": 293,
      "im": 294,
      "Ġ%": 295,
      "intĊ": 296,
      "it": 297,
      "Er": 298,
      "test": 299,
      "ux": 300,
      "stĊ": 301,
      "oo": 302,
      "Int": 303,
      "ch": 304,
      "\\x": 305,
      "de": 306,
      "trueĊ": 307,
      "Val": 308,
      "12": 309,
      "fi": 310,
      "mp": 311,
      "ct": 312,
      "nameĊ": 313,
      "TĊ": 314,
      "_Ċ": 315,
      "go": 316,
      "Typ": 317,
      "kĊ": 318,
      "li": 319,
      "âĺºâĺºâĺºâĺºâĺºâĺºâĺºâĺºâĺºâĺºâĺºâĺºâĺºâĺºâĺºâĺºâĺºâĺºâĺºâĺºâĺºâĺºâĺºâĺºâĺºâĺºâĺºâĺºâĺºâĺºâĺºâĺº": 320,
      "wan": 321,
      "ew": 322,
      "sy": 323,
      "stringĊ": 324,
      "17Ċ": 325,
      "ma": 326,
      "si": 327,
      "ed": 328,
      "Ad": 329,
      "9Ċ": 330,
      "pt": 331,
      "To": 332,
      "AM": 333,
      "seĊ": 334,
      "ue": 335,
      "32": 336,
      "ri": 337,
      "con": 338,
      "et": 339,
      "Po": 340,
      "Erro": 341,
      "IntĊ": 342,
      "ul": 343,
      "Add": 344,
      "Con": 345,
      "od": 346,
      "la": 347,
      "ce": 348,
      "St": 349,
      "14": 350,
      "Aux": 351,
      "ptrĊ": 352,
      "cal": 353,
      "16Ċ": 354,
      "AuxIntĊ": 355,
      "ec": 356,
      "16": 357,
      "v_0Ċ": 358,
      "il": 359,
      "erro": 360,
      "ing": 361,
      "\\x00": 362,
      "bu": 363,
      "0x1": 364,
      "RE": 365,
      "ss": 366,
      "ĠĠ": 367,
      "ArgsĊ": 368,
      "AMD": 369,
      "TypeĊ": 370,
      "25": 371,
      "oolĊ": 372,
      "ab": 373,
      "lenĊ": 374,
      "esĊ": 375,
      "dĠ": 376,
      "setĊ": 377,
      "\\x00\\x00": 378,
      "inĊ": 379,
      "uint64Ċ": 380,
      "ap": 381,
      "alĊ": 382,
      "fal": 383,
      "ckĊ": 384,
      "Sy": 385,
      "AMD64": 386,
      "wĊ": 387,
      "put": 388,
      "arg": 389,
      "New": 390,
      "falseĊ": 391,
      "sh": 392,
      "typ": 393,
      "tĠ": 394,
      "boolĊ": 395,
      "Error": 396,
      "no": 397,
      "to": 398,
      "OV": 399,
      ",Ġ": 400,
      "el": 401,
      "tim": 402,
      "Value": 403,
      "Si": 404,
      "foĊ": 405,
      "di": 406,
      "Lo": 407,
      "10": 408,
      "ErrorfĊ": 409,
      "OpAMD64": 410,
      "AR": 411,
      "int64Ċ": 412,
      "enĊ": 413,
      "OpĊ": 414,
      "wantĊ": 415,
      "ag": 416,
      "ty": 417,
      "`Ċ": 418,
      "âĺºâĺºĊ": 419,
      "âĺºâĺºâĺºâĺºâĺºâĺºâĺºâĺºâĺºâĺºâĺºâĺºâĺºâĺºâĺºâĺºâĺºâĺºĊ": 420,
      "âĺºâĺºâĺºâĺºâĺºâĺºâĺºâĺºâĺºâĺºâĺºâĺºâĺºâĺºâĺºâĺºâĺºâĺºâĺºâĺºâĺºâĺºâĺºâĺºâĺºâĺºâĺºâĺºâĺºâĺºâĺºâĺºâĺºâĺºâĺºâĺºâĺºâĺºâĺºâĺºâĺºâĺºâĺºâĺºâĺºâĺºâĺºâĺºâĺºâĺºĊ": 421,
      "Te": 422,
      "Ex": 423,
      "eĠ": 424,
      "Str": 425,
      "DĊ": 426,
      "jĊ": 427,
      "comp": 428,
      "uintptrĊ": 429,
      "sĠ": 430,
      "op": 431,
      "0000": 432,
      "aux": 433,
      "v_1Ċ": 434,
      "ceĊ": 435,
      "VP": 436,
      "af": 437,
      "rite": 438,
      "InfoĊ": 439,
      "MOV": 440,
      "S_": 441,
      "zeĊ": 442,
      "uint32Ċ": 443,
      "athĊ": 444,
      "EĊ": 445,
      "s\"Ċ": 446,
      "testingĊ": 447,
      ":Ġ": 448,
      "ack": 449,
      "utĊ": 450,
      "mtĊ": 451,
      "IP": 452,
      "ur": 453,
      "add": 454,
      "out": 455,
      "errorĊ": 456,
      "typĊ": 457,
      "NameĊ": 458,
      "lin": 459,
      "Arg": 460,
      "0x2": 461,
      "CĊ": 462,
      "xtĊ": 463,
      "Co": 464,
      "Uint": 465,
      "\\n": 466,
      "ON": 467,
      "id": 468,
      "72": 469,
      "pr": 470,
      "ffĊ": 471,
      "run": 472,
      "SĊ": 473,
      "ver": 474,
      "val": 475,
      "anĊ": 476,
      "T_": 477,
      "ob": 478,
      "loat": 479,
      "fa": 480,
      "adĊ": 481,
      "Mas": 482,
      "SY": 483,
      "saf": 484,
      "0x8": 485,
      "Test": 486,
      "0x0": 487,
      "IN": 488,
      "argL": 489,
      "ati": 490,
      "ate": 491,
      "PosĊ": 492,
      "AD": 493,
      "leĊ": 494,
      "\"\"Ċ": 495,
      "comple": 496,
      "unsaf": 497,
      "Ġ%v": 498,
      "C_": 499,
      "Fat": 500,
      "exp": 501,
      "En": 502,
      "ValueĊ": 503,
      "che": 504,
      "Point": 505,
      "Se": 506,
      "onĊ": 507,
      "ateĊ": 508,
      "0x3": 509,
      "v0Ċ": 510,
      "LĊ": 511,
      "bufĊ": 512,
      "new": 513,
      "sp": 514,
      "15": 515,
      "fmtĊ": 516,
      "ev": 517,
      "0x4": 518,
      "su": 519,
      "irĊ": 520,
      "13": 521,
      "REG": 522,
      "regĊ": 523,
      "ER": 524,
      "'Ċ": 525,
      "me": 526,
      "po": 527,
      "scal": 528,
      "mm": 529,
      "icĊ": 530,
      "ke": 531,
      "complexĊ": 532,
      "ET": 533,
      "SYS_": 534,
      "ssaĊ": 535,
      "res": 536,
      "ARM": 537,
      "ic": 538,
      "unsafeĊ": 539,
      "e1Ċ": 540,
      "gt": 541,
      "write": 542,
      "Fun": 543,
      "ent": 544,
      "FĊ": 545,
      "PointerĊ": 546,
      "StringĊ": 547,
      "_int": 548,
      "ip": 549,
      "E_": 550,
      "Mask": 551,
      "By": 552,
      "testĊ": 553,
      "dat": 554,
      "fnĊ": 555,
      "is": 556,
      "12Ċ": 557,
      "timeĊ": 558,
      "want": 559,
      "De": 560,
      "d\"Ċ": 561,
      "input": 562,
      "odeĊ": 563,
      "pen": 564,
      "reg": 565,
      "file": 566,
      "\\x00\\x00\\x00\\x00": 567,
      "if": 568,
      "74": 569,
      "uxĊ": 570,
      "29": 571,
      "sc": 572,
      "Read": 573,
      "aseĊ": 574,
      "qu": 575,
      "itĊ": 576,
      "PĊ": 577,
      "resetĊ": 578,
      "keĊ": 579,
      "print": 580,
      "ht": 581,
      "ult": 582,
      "outĊ": 583,
      "okĊ": 584,
      "and": 585,
      "SI": 586,
      "BĊ": 587,
      "OC": 588,
      "he": 589,
      "auxInt": 590,
      "asmĊ": 591,
      "output": 592,
      "tesĊ": 593,
      "ToInt": 594,
      "Fi": 595,
      "ern": 596,
      "pathĊ": 597,
      "ot": 598,
      "gotĊ": 599,
      "10Ċ": 600,
      "22": 601,
      "Masked": 602,
      "objĊ": 603,
      "Blo": 604,
      "SizeĊ": 605,
      "Type": 606,
      "gn": 607,
      "ErrorĊ": 608,
      "OR": 609,
      "qĊ": 610,
      "0x5": 611,
      "idĊ": 612,
      "ra": 613,
      "error": 614,
      "76": 615,
      "AddArg": 616,
      "veĊ": 617,
      "ve": 618,
      "ta": 619,
      "gthĊ": 620,
      "zĊ": 621,
      "cm": 622,
      "x8": 623,
      "Ġ=": 624,
      "33": 625,
      "18": 626,
      "0x7": 627,
      "nanĊ": 628,
      "Un": 629,
      "28": 630,
      "makeĊ": 631,
      "Is": 632,
      "err": 633,
      "pro": 634,
      "chĊ": 635,
      "typesĊ": 636,
      "evex": 637,
      "ctĊ": 638,
      "Ma": 639,
      "ĠĠĠĠ": 640,
      "ST": 641,
      "0x6": 642,
      "itsĊ": 643,
      "\\n\"Ċ": 644,
      "entĊ": 645,
      "for": 646,
      "XĊ": 647,
      "auxIntToInt": 648,
      "up": 649,
      "00Ċ": 650,
      "03": 651,
      "sym": 652,
      "OpAMD64VP": 653,
      "cod": 654,
      "Ke": 655,
      "zer": 656,
      "edĊ": 657,
      "pan": 658,
      "PC": 659,
      "ffff": 660,
      "fla": 661,
      "par": 662,
      "ith": 663,
      "appen": 664,
      "AV": 665,
      "IF": 666,
      "ion": 667,
      "int32Ċ": 668,
      "19": 669,
      "ADD": 670,
      "th": 671,
      "e\"Ċ": 672,
      "Bu": 673,
      "SH": 674,
      "Pro": 675,
      "39": 676,
      "rewrite": 677,
      "75": 678,
      "38": 679,
      "ang": 680,
      "scallĊ": 681,
      "\"%": 682,
      "ErrĊ": 683,
      "Sym": 684,
      "Fatal": 685,
      "OpARM": 686,
      "Fla": 687,
      "Par": 688,
      "uĊ": 689,
      "fdĊ": 690,
      "Sli": 691,
      "Set": 692,
      "rewriteValue": 693,
      "NĊ": 694,
      "0xc": 695,
      "Fro": 696,
      "0xa": 697,
      "FatalfĊ": 698,
      "sr": 699,
      "engthĊ": 700,
      "AĊ": 701,
      "ToAuxIntĊ": 702,
      "1\"Ċ": 703,
      "80": 704,
      "Exp": 705,
      "NewValue": 706,
      "0x9": 707,
      "loc": 708,
      "um": 709,
      "Tim": 710,
      "ffsetĊ": 711,
      "Err": 712,
      ";Ġ": 713,
      "float": 714,
      "RĊ": 715,
      "constĊ": 716,
      "NewValue0Ċ": 717,
      "\"m": 718,
      "ol": 719,
      "AuxĊ": 720,
      "MA": 721,
      "htt": 722,
      "expec": 723,
      "ne": 724,
      "ctxtĊ": 725,
      "45": 726,
      "He": 727,
      "SymĊ": 728,
      "RO": 729,
      "appendĊ": 730,
      "ernal": 731,
      "fn": 732,
      "textĊ": 733,
      "all": 734,
      "0xf": 735,
      "F_": 736,
      "Ġ%v\"Ċ": 737,
      "dataĊ": 738,
      "able": 739,
      "49": 740,
      "sizeĊ": 741,
      "\"V": 742,
      "R_": 743,
      "Go": 744,
      "ort": 745,
      "SC": 746,
      "LO": 747,
      "do": 748,
      "128Ċ": 749,
      "0xb": 750,
      "atĊ": 751,
      "Al": 752,
      "0xd": 753,
      "ser": 754,
      "ingsĊ": 755,
      "load": 756,
      "comm": 757,
      "osĊ": 758,
      "64_": 759,
      "FuncĊ": 760,
      "AC": 761,
      "symĊ": 762,
      "tra": 763,
      "11": 764,
      "Su": 765,
      "20": 766,
      "ageĊ": 767,
      "RegĊ": 768,
      "expecte": 769,
      "128": 770,
      "TY": 771,
      "512": 772,
      "mar": 773,
      "Float": 774,
      "An": 775,
      "ig": 776,
      "AT": 777,
      "internal": 778,
      "VĊ": 779,
      "_i": 780,
      "argLenĊ": 781,
      "set": 782,
      "ArgĊ": 783,
      "85": 784,
      "AL": 785,
      "argLengthĊ": 786,
      "47": 787,
      "notĠ": 788,
      "can": 789,
      "oun": 790,
      "Ġ%d": 791,
      "got": 792,
      "ttĊ": 793,
      "v1Ċ": 794,
      "baseĊ": 795,
      "stringsĊ": 796,
      "No": 797,
      "O_": 798,
      "32x": 799,
      "fnnameĊ": 800,
      "of": 801,
      "256Ċ": 802,
      "panicĊ": 803,
      "memĊ": 804,
      "zeroĊ": 805,
      "ingĠ": 806,
      "bitsĊ": 807,
      "\"f": 808,
      "argsĊ": 809,
      "read": 810,
      "addrĊ": 811,
      "printfĊ": 812,
      "\"-": 813,
      "lineĊ": 814,
      "AddArg2Ċ": 815,
      "offĊ": 816,
      "0xe": 817,
      "time": 818,
      "AN": 819,
      "Clo": 820,
      "mod": 821,
      "REG_": 822,
      "pre": 823,
      "askĊ": 824,
      "http": 825,
      "QĊ": 826,
      "KĊ": 827,
      "256": 828,
      "64x": 829,
      "Ġ%q": 830,
      "internal/": 831,
      "_p": 832,
      "40": 833,
      "ild": 834,
      "0x0Ċ": 835,
      "Li": 836,
      "are": 837,
      "has": 838,
      "js": 839,
      "ame": 840,
      "AB": 841,
      "sim": 842,
      "ter": 843,
      "Fil": 844,
      "Ch": 845,
      "ref": 846,
      "Ne": 847,
      "ath": 848,
      "TI": 849,
      "0_": 850,
      "mo": 851,
      "type": 852,
      "RI": 853,
      "EN": 854,
      "uint8Ċ": 855,
      "Write": 856,
      "valĊ": 857,
      "255Ċ": 858,
      "TYP": 859,
      "MP": 860,
      "SU": 861,
      "AddArgĊ": 862,
      "99": 863,
      "BytesĊ": 864,
      "code": 865,
      "loadĊ": 866,
      "WĊ": 867,
      "IDĊ": 868,
      "fun": 869,
      "\"VP": 870,
      "_i0Ċ": 871,
      "ten": 872,
      "regInfoĊ": 873,
      "mat": 874,
      "Lin": 875,
      ")Ġ": 876,
      "uct": 877,
      "checkĊ": 878,
      "OP": 879,
      "MĊ": 880,
      "figĊ": 881,
      "syscallĊ": 882,
      "17": 883,
      "Ver": 884,
      "av": 885,
      "pk": 886,
      "2814": 887,
      "55": 888,
      "Head": 889,
      "clo": 890,
      "0.": 891,
      "syn": 892,
      "RT": 893,
      "inputsĊ": 894,
      "0\"Ċ": 895,
      "yĠ": 896,
      "v2Ċ": 897,
      "ToĊ": 898,
      "FileĊ": 899,
      "1.": 900,
      "Di": 901,
      "gc": 902,
      "ze": 903,
      "trĊ": 904,
      "mainĊ": 905,
      "FatalĊ": 906,
      "opĊ": 907,
      "SE": 908,
      "ExprĊ": 909,
      "CH": 910,
      "noĊ": 911,
      "24Ċ": 912,
      "Const": 913,
      "Le": 914,
      "GO": 915,
      "dexĊ": 916,
      "TYPE_": 917,
      ")\"Ċ": 918,
      "lem": 919,
      "(%": 920,
      "drĊ": 921,
      "srcĊ": 922,
      "UĊ": 923,
      "Has": 924,
      "ativeĊ": 925,
      "AddrĊ": 926,
      "unĊ": 927,
      "66": 928,
      "newĊ": 929,
      "64\"Ċ": 930,
      "extĊ": 931,
      "json": 932,
      "ore": 933,
      "refle": 934,
      "94": 935,
      "maskĊ": 936,
      "wantĠ": 937,
      "t\"Ċ": 938,
      "}}": 939,
      "Id": 940,
      "UL": 941,
      "r0Ċ": 942,
      "anyĊ": 943,
      "512Ċ": 944,
      "BlockĊ": 945,
      "File": 946,
      "Comp": 947,
      "PathĊ": 948,
      "1_": 949,
      "uint16Ċ": 950,
      "SliceĊ": 951,
      "posĊ": 952,
      "utativeĊ": 953,
      "\"b": 954,
      "commutativeĊ": 955,
      "cop": 956,
      "etĊ": 957,
      "sionĊ": 958,
      "om": 959,
      "15Ċ": 960,
      "cr": 961,
      "arch": 962,
      "eth": 963,
      "dirĊ": 964,
      "Arg0Ċ": 965,
      "GĊ": 966,
      "pp": 967,
      "inputInfoĊ": 968,
      "Pr": 969,
      "result": 970,
      "lock": 971,
      "dstĊ": 972,
      "outputsĊ": 973,
      "ti": 974,
      "\\x00\\x00\\x00\\x00\\x00\\x00\\x00\\x00": 975,
      "tsĊ": 976,
      "Me": 977,
      "OffsetĊ": 978,
      "{{": 979,
      "auxIntToInt32Ċ": 980,
      "off": 981,
      "Equ": 982,
      "11Ċ": 983,
      "ioĊ": 984,
      "wor": 985,
      "922": 986,
      "OpARM64": 987,
      "SR": 988,
      "lnĊ": 989,
      "\"/": 990,
      "Zer": 991,
      "ile": 992,
      "REGĊ": 993,
      "FromĊ": 994,
      "3372": 995,
      "72Ċ": 996,
      "_p0Ċ": 997,
      "9223372": 998,
      "erg": 999,
      "putĊ": 1000,
      "And": 1001,
      "aĠ": 1002,
      "Pre": 1003,
      "ener": 1004,
      "oneĊ": 1005,
      "runtimeĊ": 1006,
      "ĉĉ": 1007,
      "func": 1008,
      "infĊ": 1009,
      "rit": 1010,
      "check": 1011,
      "ust": 1012,
      "fileĊ": 1013,
      "PPC": 1014,
      "us": 1015,
      "float64Ċ": 1016,
      "lockĊ": 1017,
      "KeyĊ": 1018,
      "stateĊ": 1019,
      "mpĊ": 1020,
      "ca": 1021,
      "abiĊ": 1022,
      "arĊ": 1023,
      "ation": 1024,
      "LenĊ": 1025,
      "outputInfoĊ": 1026,
      "Dat": 1027,
      "sion": 1028,
      "int32": 1029,
      "fixĊ": 1030,
      "SIG": 1031,
      "DI": 1032,
      "ran": 1033,
      "ErrnoĊ": 1034,
      "OpAMD64V": 1035,
      "lsĊ": 1036,
      "For": 1037,
      "x5": 1038,
      "ReaderĊ": 1039,
      "string": 1040,
      "MIP": 1041,
      "922337203": 1042,
      "orĊ": 1043,
      "ect": 1044,
      "FlagsĊ": 1045,
      "70": 1046,
      "amp": 1047,
      "shal": 1048,
      "ind": 1049,
      ":Ġ%v\"Ċ": 1050,
      "astĊ": 1051,
      "UN": 1052,
      "Sp": 1053,
      "Block": 1054,
      "flagsĊ": 1055,
      "78": 1056,
      "lic": 1057,
      "Neg": 1058,
      "Che": 1059,
      "000Ċ": 1060,
      "Hel": 1061,
      "indĊ": 1062,
      "Sh": 1063,
      "alloc": 1064,
      "ableĊ": 1065,
      "ectĊ": 1066,
      "ase": 1067,
      "toĠ": 1068,
      "obj": 1069,
      "cur": 1070,
      "16x": 1071,
      "00000000": 1072,
      "stack": 1073,
      "idxĊ": 1074,
      "lib": 1075,
      "edĠ": 1076,
      "sign": 1077,
      "bb": 1078,
      "Fiel": 1079,
      "ul_": 1080,
      "so": 1081,
      "ift": 1082,
      "SUB": 1083,
      "23": 1084,
      "8x": 1085,
      "star": 1086,
      "byte": 1087,
      "685": 1088,
      "EX": 1089,
      "age": 1090,
      "44": 1091,
      "AS": 1092,
      "Func": 1093,
      "Ġ%sĠ": 1094,
      "Sign": 1095,
      "kenĊ": 1096,
      "tro": 1097,
      "sysĊ": 1098,
      "test_": 1099,
      "\".": 1100,
      "que": 1101,
      "On": 1102,
      "123": 1103,
      "Pack": 1104,
      "cmdĊ": 1105,
      "call": 1106,
      "_P": 1107,
      "NON": 1108,
      "upĊ": 1109,
      "sig": 1110,
      "S39": 1111,
      "83": 1112,
      "Load": 1113,
      "ac": 1114,
      "reflectĊ": 1115,
      "--": 1116,
      "\"Ġ": 1117,
      "CV": 1118,
      "Print": 1119,
      "x86Ċ": 1120,
      "7580": 1121,
      "DirĊ": 1122,
      "scap": 1123,
      "TL": 1124,
      "922337203685": 1125,
      "runtime": 1126,
      "InArg0Ċ": 1127,
      "NewĊ": 1128,
      "92233720368547": 1129,
      "Log": 1130,
      "Merg": 1131,
      "resultInArg0Ċ": 1132,
      "73": 1133,
      "CP": 1134,
      "With": 1135,
      "\"`Ċ": 1136,
      "var": 1137,
      "bytesĊ": 1138,
      "922337203685477580": 1139,
      "ctxĊ": 1140,
      "inĠ": 1141,
      "429": 1142,
      "v_2Ċ": 1143,
      "struct": 1144,
      "const": 1145,
      "\"test": 1146,
      "ction": 1147,
      "UInt": 1148,
      "IFT_": 1149,
      "errno": 1150,
      "ortĊ": 1151,
      "ub": 1152,
      "len": 1153,
      "with": 1154,
      "v\"Ċ": 1155,
      "2\"Ċ": 1156,
      "0x1Ċ": 1157,
      "Ġ%s": 1158,
      "int32ToAuxIntĊ": 1159,
      "cryp": 1160,
      "ConfigĊ": 1161,
      "CloseĊ": 1162,
      "errnoErrĊ": 1163,
      "ted": 1164,
      "DE": 1165,
      "S390": 1166,
      "isĠ": 1167,
      "_C": 1168,
      "verĊ": 1169,
      "13Ċ": 1170,
      "ackĊ": 1171,
      "end": 1172,
      ",ĠwantĠ": 1173,
      "use": 1174,
      "42949": 1175,
      "asĊ": 1176,
      "PS": 1177,
      "v_0_": 1178,
      "Ptr": 1179,
      "\"go": 1180,
      "Or": 1181,
      "her": 1182,
      "ionĊ": 1183,
      "\"a": 1184,
      "ext": 1185,
      "As": 1186,
      "=Ġ": 1187,
      "05": 1188,
      "FF": 1189,
      "//": 1190,
      "Ġ%s\"Ċ": 1191,
      "NONEĊ": 1192,
      "dsĊ": 1193,
      "Contro": 1194,
      "69": 1195,
      "sub": 1196,
      "be": 1197,
      "mark": 1198,
      "ool": 1199,
      "729": 1200,
      "oreĊ": 1201,
      "MOVD": 1202,
      "S390X": 1203,
      "get": 1204,
      "=%": 1205,
      "ook": 1206,
      "20Ċ": 1207,
      "Hand": 1208,
      "From": 1209,
      "auxIntToInt64Ċ": 1210,
      "expectedĠ": 1211,
      "erfa": 1212,
      "CMP": 1213,
      "riteĊ": 1214,
      "79": 1215,
      "max": 1216,
      "TR": 1217,
      "ETH": 1218,
      "21": 1219,
      "imp": 1220,
      "archsim": 1221,
      "ersĊ": 1222,
      "At": 1223,
      "dir": 1224,
      "sli": 1225,
      "Mar": 1226,
      "vi": 1227,
      ",Ġwant": 1228,
      "Zero": 1229,
      "tex": 1230,
      "LE": 1231,
      "HeaderĊ": 1232,
      "ach": 1233,
      "M_": 1234,
      "OpConst": 1235,
      "pack": 1236,
      "keyĊ": 1237,
      "21Ċ": 1238,
      "TimeĊ": 1239,
      "insĊ": 1240,
      "24": 1241,
      "ValĊ": 1242,
      "Coun": 1243,
      "ultĊ": 1244,
      "MIPS": 1245,
      "ench": 1246,
      "SprintfĊ": 1247,
      "728": 1248,
      "archsimdĊ": 1249,
      "Size": 1250,
      "Run": 1251,
      "MUL": 1252,
      "NodeĊ": 1253,
      "ofĠ": 1254,
      "IĊ": 1255,
      "x3": 1256,
      "atu": 1257,
      "EqualĊ": 1258,
      "ing\"Ċ": 1259,
      "PRO": 1260,
      "214": 1261,
      "Get": 1262,
      "cf": 1263,
      "ample": 1264,
      "Not": 1265,
      "DMasked": 1266,
      "ong": 1267,
      "valid": 1268,
      "Key": 1269,
      "6_": 1270,
      "OfĊ": 1271,
      "1614": 1272,
      "nam": 1273,
      "scall": 1274,
      "UT": 1275,
      "Writ": 1276,
      "0x00Ċ": 1277,
      "'\\": 1278,
      "gener": 1279,
      "Byte": 1280,
      "IndexĊ": 1281,
      "VersionĊ": 1282,
      "ecĊ": 1283,
      "lemĊ": 1284,
      "SET": 1285,
      "cmd": 1286,
      "ListĊ": 1287,
      "DataĊ": 1288,
      "72829": 1289,
      "RunĊ": 1290,
      "ist": 1291,
      "codeĊ": 1292,
      "281472829": 1293,
      "161472Ċ": 1294,
      "281472829161472Ċ": 1295,
      "Call": 1296,
      "ipĊ": 1297,
      "erĠ": 1298,
      "3276": 1299,
      "SetĊ": 1300,
      "GET": 1301,
      "TypesĊ": 1302,
      "\"un": 1303,
      "PPC64": 1304,
      "\"internal/": 1305,
      "8\"Ċ": 1306,
      "LL": 1307,
      "Slice": 1308,
      "ms": 1309,
      "value": 1310,
      "04": 1311,
      "YĊ": 1312,
      "Ra": 1313,
      "21474": 1314,
      "429496": 1315,
      "net": 1316,
      "odyĊ": 1317,
      "Comm": 1318,
      "mb": 1319,
      "c_": 1320,
      "\"F": 1321,
      "foo": 1322,
      "offsetĊ": 1323,
      "Ġ%d\"Ċ": 1324,
      "Ev": 1325,
      "coun": 1326,
      "Reg": 1327,
      "x1": 1328,
      "429496729": 1329,
      "http2": 1330,
      "01": 1331,
      "26": 1332,
      "las": 1333,
      "parse": 1334,
      "Ser": 1335,
      "trace": 1336,
      "uintĊ": 1337,
      "So": 1338,
      "resĊ": 1339,
      "StateĊ": 1340,
      "/internal/": 1341,
      "tedĊ": 1342,
      "PackageĊ": 1343,
      "abledĊ": 1344,
      "NE": 1345,
      "DW": 1346,
      "gpĊ": 1347,
      "ONG": 1348,
      "modeĊ": 1349,
      "lient": 1350,
      "0x2Ċ": 1351,
      "vex": 1352,
      "Rang": 1353,
      "Imp": 1354,
      "c\"Ċ": 1355,
      "Off": 1356,
      "x4": 1357,
      "data": 1358,
      "ethod": 1359,
      "\":": 1360,
      "auxTo": 1361,
      "ali": 1362,
      "errorsĊ": 1363,
      "LOONG": 1364,
      "Mod": 1365,
      "IL": 1366,
      "MaskĊ": 1367,
      "AddĊ": 1368,
      "theĠ": 1369,
      "Len": 1370,
      "\"x": 1371,
      "perĊ": 1372,
      "infoĊ": 1373,
      "ldrĊ": 1374,
      "path": 1375,
      "C_NONEĊ": 1376,
      "SCV": 1377,
      "Escap": 1378,
      "reqĊ": 1379,
      "Sub": 1380,
      "int64": 1381,
      "31Ċ": 1382,
      "tokenĊ": 1383,
      "ound": 1384,
      "0xffĊ": 1385,
      "OffĊ": 1386,
      "rewriteValueAMD64": 1387,
      "ho": 1388,
      "DL": 1389,
      "SA": 1390,
      "Eff": 1391,
      "NO": 1392,
      "CVT": 1393,
      "Param": 1394,
      "x9": 1395,
      "expĊ": 1396,
      "WriterĊ": 1397,
      "MOVW": 1398,
      "csĊ": 1399,
      "String": 1400,
      ")Ġ=": 1401,
      "ME": 1402,
      "OpS390X": 1403,
      "FprintfĊ": 1404,
      "logĊ": 1405,
      "35": 1406,
      "atom": 1407,
      "rewriteValueAMD64_": 1408,
      "locĊ": 1409,
      "\"C": 1410,
      "WriteĊ": 1411,
      "low": 1412,
      "addr": 1413,
      "terĊ": 1414,
      "OĊ": 1415,
      "idĠ": 1416,
      "OpPPC64": 1417,
      "shift": 1418,
      "gp": 1419,
      "Rep": 1420,
      "RISCV": 1421,
      "Ġb": 1422,
      "ageĠ": 1423,
      "enchmark": 1424,
      "wa": 1425,
      "Gro": 1426,
      "\\t": 1427,
      "log": 1428,
      "fault": 1429,
      "ĠĠĠĠĠĠĠĠ": 1430,
      "fro": 1431,
      "y\"Ċ": 1432,
      "14Ċ": 1433,
      "Cer": 1434,
      "valueĊ": 1435,
      "ationĊ": 1436,
      "Build": 1437,
      "EC": 1438,
      "ep": 1439,
      "fiel": 1440,
      "SyscallĊ": 1441,
      "AddArg3Ċ": 1442,
      "faile": 1443,
      "30": 1444,
      "0x4Ċ": 1445,
      "386": 1446,
      "66Ċ": 1447,
      "ir": 1448,
      "32\"Ċ": 1449,
      "60": 1450,
      "\"t": 1451,
      "nil": 1452,
      "test_int": 1453,
      "condĊ": 1454,
      "filepathĊ": 1455,
      "StmtĊ": 1456,
      "link": 1457,
      "auxĊ": 1458,
      "cor": 1459,
      "HĊ": 1460,
      "AMOV": 1461,
      "v_1_": 1462,
      "listĊ": 1463,
      "contextĊ": 1464,
      "ReadĊ": 1465,
      "envĊ": 1466,
      "useĊ": 1467,
      "def": 1468,
      "ffffffff": 1469,
      "cgo": 1470,
      "avx": 1471,
      "OpMIPS": 1472,
      "Reque": 1473,
      "SIOC": 1474,
      "HelperĊ": 1475,
      "gro": 1476,
      "debu": 1477,
      "slice": 1478,
      "Encod": 1479,
      "printĊ": 1480,
      "749": 1481,
      "x15": 1482,
      "Ali": 1483,
      "TestĊ": 1484,
      "Ob": 1485,
      "x14": 1486,
      "4\"Ċ": 1487,
      "Th": 1488,
      "PtrĊ": 1489,
      "RD": 1490,
      "GC": 1491,
      "1e": 1492,
      "com": 1493,
      "ModeĊ": 1494,
      "..": 1495,
      "19Ċ": 1496,
      "inar": 1497,
      "pkgĊ": 1498,
      "Max": 1499,
      "temp": 1500,
      "Time": 1501,
      "Num": 1502,
      "SP": 1503,
      "map": 1504,
      "Star": 1505,
      "\\u": 1506,
      "Low": 1507,
      "int64ToAuxIntĊ": 1508,
      "Sele": 1509,
      "27": 1510,
      "65": 1511,
      "x10": 1512,
      "Ġ=Ġ%d": 1513,
      "ren": 1514,
      "unk": 1515,
      "line": 1516,
      "inval": 1517,
      "Parse": 1518,
      "hel": 1519,
      "fic": 1520,
      "int16Ċ": 1521,
      "Jo": 1522,
      "AVP": 1523,
      "CON": 1524,
      "traceĊ": 1525,
      "ilĊ": 1526,
      "LoadĊ": 1527,
      "auxToSymĊ": 1528,
      "ixĊ": 1529,
      "Ġ%q\"Ċ": 1530,
      "UR": 1531,
      "aren": 1532,
      "D\"Ċ": 1533,
      "Sk": 1534,
      "2.": 1535,
      "libc_": 1536,
      "IT": 1537,
      "PrefixĊ": 1538,
      "Pan": 1539,
      "rect": 1540,
      "targ": 1541,
      "MAX": 1542,
      "Elem": 1543,
      "der": 1544,
      "\"Vec": 1545,
      "Interfa": 1546,
      "expected": 1547,
      "EscapeĊ": 1548,
      "EffectĊ": 1549,
      "crypto": 1550,
      "77": 1551,
      "rang": 1552,
      "allĊ": 1553,
      "KindĊ": 1554,
      "ule": 1555,
      "x\"Ċ": 1556,
      "25Ċ": 1557,
      "hsĊ": 1558,
      "iss": 1559,
      "forĠ": 1560,
      "IC": 1561,
      "2814749": 1562,
      "281474976": 1563,
      "AX": 1564,
      "OpR": 1565,
      "EnabledĊ": 1566,
      "symEffectĊ": 1567,
      "auxTypeĊ": 1568,
      "AF": 1569,
      "Stack": 1570,
      "archĊ": 1571,
      "QMasked": 1572,
      "Std": 1573,
      "Flag": 1574,
      "ContextĊ": 1575,
      "100Ċ": 1576,
      "z1": 1577,
      "Ext": 1578,
      "IdxĊ": 1579,
      "EL": 1580,
      "Map": 1581,
      "o\"Ċ": 1582,
      "SHA": 1583,
      "odĊ": 1584,
      "dow": 1585,
      "ConnĊ": 1586,
      "int8Ċ": 1587,
      "min": 1588,
      "ree": 1589,
      "5120Ċ": 1590,
      "tram": 1591,
      "32_": 1592,
      "main": 1593,
      "645120Ċ": 1594,
      "281474976645120Ċ": 1595,
      "x13": 1596,
      "\"cmd": 1597,
      "invalidĠ": 1598,
      "argĊ": 1599,
      "param": 1600,
      "\"s": 1601,
      "printlnĊ": 1602,
      "BodyĊ": 1603,
      "ute": 1604,
      "simd": 1605,
      "asm": 1606,
      "non": 1607,
      ";\"Ċ": 1608,
      "scĊ": 1609,
      "cp": 1610,
      "Buff": 1611,
      "LOONG64": 1612,
      "agĊ": 1613,
      "ssĊ": 1614,
      "Check": 1615,
      "KE": 1616,
      "SB": 1617,
      "s2Ċ": 1618,
      "make": 1619,
      "\",": 1620,
      "retĊ": 1621,
      "ETHER": 1622,
      "LA": 1623,
      "Uint1Ċ": 1624,
      "marshal": 1625,
      "Look": 1626,
      "mathĊ": 1627,
      "Ġ=Ġ": 1628,
      "gh": 1629,
      "andĊ": 1630,
      "ftĊ": 1631,
      "0x10Ċ": 1632,
      "saĊ": 1633,
      "0x20Ċ": 1634,
      "LogfĊ": 1635,
      "2147483": 1636,
      "loĊ": 1637,
      "Store": 1638,
      "Out": 1639,
      "MapĊ": 1640,
      "214748364": 1641,
      "EO": 1642,
      "opt": 1643,
      "TP": 1644,
      "match": 1645,
      "packageĠ": 1646,
      "TIOC": 1647,
      "tific": 1648,
      "Op386": 1649,
      "Ġ=Ġ%d,ĠwantĠ": 1650,
      "name": 1651,
      "derĊ": 1652,
      "JoinĊ": 1653,
      "pkg": 1654,
      "clobb": 1655,
      "sho": 1656,
      "x12": 1657,
      "Stat": 1658,
      "\"%s": 1659,
      "encĊ": 1660,
      "Res": 1661,
      "sha": 1662,
      "ave": 1663,
      "Add64Ċ": 1664,
      "ret": 1665,
      "Raw": 1666,
      "09": 1667,
      "Ap": 1668,
      "Wa": 1669,
      "cl": 1670,
      "flagĊ": 1671,
      "ok": 1672,
      "war": 1673,
      "IPĊ": 1674,
      "Mul": 1675,
      "callĊ": 1676,
      "\\x00\\x00\\x00\\x00\\x00\\x00\\x00\\x00\\x00\\x00\\x00\\x00\\x00\\x00\\x00\\x00": 1677,
      "BaseĊ": 1678,
      "initĊ": 1679,
      "\\r": 1680,
      "ptr": 1681,
      "xĠ": 1682,
      "polineĊ": 1683,
      "LIN": 1684,
      "cip": 1685,
      "/b": 1686,
      "30Ċ": 1687,
      "Wor": 1688,
      "18Ċ": 1689,
      "68": 1690,
      "0x8Ċ": 1691,
      "build": 1692,
      "Tra": 1693,
      "\":Ġ": 1694,
      "withĠ": 1695,
      "OpLOONG64": 1696,
      "000": 1697,
      "must": 1698,
      "s/": 1699,
      "QU": 1700,
      "gr": 1701,
      "Ho": 1702,
      "trampolineĊ": 1703,
      ".com": 1704,
      "mul_": 1705,
      "Uni": 1706,
      "tryĊ": 1707,
      "avxEscapeĊ": 1708,
      "mt\"Ċ": 1709,
      "ElemĊ": 1710,
      "z14": 1711,
      "z15": 1712,
      "\"R": 1713,
      "typeĠ": 1714,
      "num": 1715,
      "Pk": 1716,
      "tcĊ": 1717,
      "ToAuxĊ": 1718,
      "128\"Ċ": 1719,
      "antĊ": 1720,
      "XOR": 1721,
      "spon": 1722,
      "'\\U": 1723,
      "mem": 1724,
      "Ġ(": 1725,
      "flag": 1726,
      "Nam": 1727,
      "\"foo": 1728,
      "cfgĊ": 1729,
      "256\"Ċ": 1730,
      "48": 1731,
      "IPV": 1732,
      "PROT": 1733,
      "Vec": 1734,
      "pl": 1735,
      "ctionĊ": 1736,
      "AMD64Ċ": 1737,
      "fsĊ": 1738,
      "Bit": 1739,
      "BoolĊ": 1740,
      "ControlsĊ": 1741,
      "_trampolineĊ": 1742,
      "63Ċ": 1743,
      "List": 1744,
      "alĠ": 1745,
      "LD": 1746,
      "Int32x": 1747,
      "store": 1748,
      "Sock": 1749,
      "OSĊ": 1750,
      "pcĊ": 1751,
      "igĊ": 1752,
      "Per": 1753,
      "23Ċ": 1754,
      "MI": 1755,
      "\"B": 1756,
      "old": 1757,
      "mpty": 1758,
      "startĊ": 1759,
      "ĠofĠ": 1760,
      "Scan": 1761,
      "AND": 1762,
      "\"fmt\"Ċ": 1763,
      "066": 1764,
      "Use": 1765,
      "ml": 1766,
      "testsĊ": 1767,
      "22Ċ": 1768,
      "entĠ": 1769,
      "Benchmark": 1770,
      "opsetĊ": 1771,
      "AE": 1772,
      "\"mul_": 1773,
      "PrintfĊ": 1774,
      "indexĊ": 1775,
      "Lower": 1776,
      "Dec": 1777,
      "Cop": 1778,
      "urn": 1779,
      "Ġ%dĠ": 1780,
      "otĊ": 1781,
      "Obj": 1782,
      "MS": 1783,
      "tedĠ": 1784,
      "nextĊ": 1785,
      "taxĊ": 1786,
      "Non": 1787,
      "s1Ċ": 1788,
      "tabĊ": 1789,
      "v3Ċ": 1790,
      "msgĊ": 1791,
      "ETHERTYPE_": 1792,
      "muĊ": 1793,
      "supp": 1794,
      "}`Ċ": 1795,
      "configĊ": 1796,
      "Appen": 1797,
      "ll": 1798,
      "'\\U0000": 1799,
      "0x01Ċ": 1800,
      "FieldĊ": 1801,
      "prefixĊ": 1802,
      "tmp": 1803,
      "per": 1804,
      "aa": 1805,
      "z5": 1806,
      "toĊ": 1807,
      "win": 1808,
      "alle": 1809,
      "z10": 1810,
      "z13": 1811,
      "RISCV64": 1812,
      "testenvĊ": 1813,
      "_F": 1814,
      "\"o": 1815,
      "pri": 1816,
      "cle": 1817,
      "ProgĊ": 1818,
      "34": 1819,
      "Ct": 1820,
      "27Ċ": 1821,
      "ZĊ": 1822,
      "CheckĊ": 1823,
      "fo": 1824,
      "test_int64Ċ": 1825,
      "oldĊ": 1826,
      "AsĊ": 1827,
      "Name": 1828,
      "Uint32x": 1829,
      "v_0_0Ċ": 1830,
      "RequestĊ": 1831,
      "du": 1832,
      "Int64Ċ": 1833,
      "60Ċ": 1834,
      "_Neg": 1835,
      "e-": 1836,
      "em": 1837,
      "38Ċ": 1838,
      "resultĊ": 1839,
      ".go": 1840,
      "Attr": 1841,
      "STĊ": 1842,
      "ul_int": 1843,
      "16\"Ċ": 1844,
      "Addr": 1845,
      "elem": 1846,
      "addFĊ": 1847,
      "LineĊ": 1848,
      "ARCH": 1849,
      "hand": 1850,
      "Invalid": 1851,
      "Ġ%#": 1852,
      "wh": 1853,
      "strĊ": 1854,
      "time\"Ċ": 1855,
      "%d": 1856,
      "ccĊ": 1857,
      "PO": 1858,
      "US": 1859,
      "shoul": 1860,
      "from": 1861,
      "g\"Ċ": 1862,
      "mall": 1863,
      "ĠisĠ": 1864,
      "init": 1865,
      "TestsĊ": 1866,
      "ic\"Ċ": 1867,
      "tent": 1868,
      "BitsĊ": 1869,
      "wn": 1870,
      "Uint64x": 1871,
      "Fr": 1872,
      "Ġerror": 1873,
      "ken": 1874,
      "PROTO_": 1875,
      "IPPROTO_": 1876,
      "INT": 1877,
      "08": 1878,
      "block": 1879,
      "act": 1880,
      "Int64x": 1881,
      "CountĊ": 1882,
      "\"c": 1883,
      "storeĊ": 1884,
      "ee": 1885,
      "714": 1886,
      "z12": 1887,
      "408": 1888,
      "strcon": 1889,
      "key": 1890,
      "Handl": 1891,
      "GB": 1892,
      "Qu": 1893,
      "BufĊ": 1894,
      "ABI": 1895,
      "endĊ": 1896,
      "\"0": 1897,
      "Uint64Ċ": 1898,
      "z9": 1899,
      "ite": 1900,
      "MIN": 1901,
      "OpRsh": 1902,
      "symToAuxĊ": 1903,
      "6\"Ċ": 1904,
      "\"runtime": 1905,
      "All": 1906,
      "512\"Ċ": 1907,
      "LockĊ": 1908,
      "Marshal": 1909,
      "SS": 1910,
      "ArchĊ": 1911,
      "andĠ": 1912,
      "BP": 1913,
      "Local": 1914,
      "BufferĊ": 1915,
      "ire": 1916,
      "OpRISCV64": 1917,
      "ID": 1918,
      "lim": 1919,
      "lit": 1920,
      "genericĊ": 1921,
      "3\"Ċ": 1922,
      "88": 1923,
      "AF_": 1924,
      "simdPackageĊ": 1925,
      "vert": 1926,
      "TE": 1927,
      "MemĊ": 1928,
      "server": 1929,
      "text": 1930,
      "Syn": 1931,
      "rep": 1932,
      "DLT_": 1933,
      "cess": 1934,
      "Certific": 1935,
      "\"http": 1936,
      "ft": 1937,
      "Nil": 1938,
      "x6": 1939,
      "op_": 1940,
      "ns": 1941,
      "}Ċ": 1942,
      "Int16x": 1943,
      "26Ċ": 1944,
      "0x3Ċ": 1945,
      "ast": 1946,
      "ly": 1947,
      "scan": 1948,
      "{Ġ": 1949,
      "Lowered": 1950,
      "Ms": 1951,
      "Roo": 1952,
      "float32Ċ": 1953,
      "://": 1954,
      "Mo": 1955,
      "fr": 1956,
      "ress": 1957,
      "dec": 1958,
      "Tr": 1959,
      "ps": 1960,
      "reeĊ": 1961,
      "12345": 1962,
      "buil": 1963,
      "EOFĊ": 1964,
      "stat": 1965,
      "URLĊ": 1966,
      "Method": 1967,
      "matĊ": 1968,
      "cer": 1969,
      "regsĊ": 1970,
      "workĊ": 1971,
      "0000Ċ": 1972,
      "HT": 1973,
      "objabiĊ": 1974,
      "spanĊ": 1975,
      "off2Ċ": 1976,
      "er\"Ċ": 1977,
      "</": 1978,
      "head": 1979,
      "Float64x": 1980,
      "onĠ": 1981,
      "rout": 1982,
      "\"i": 1983,
      "\"X": 1984,
      "Flo": 1985,
      "cmp": 1986,
      "Import": 1987,
      "arm": 1988,
      "9464": 1989,
      "{{.": 1990,
      "t1Ċ": 1991,
      "syscall": 1992,
      "ull": 1993,
      "typeĊ": 1994,
      "hiĊ": 1995,
      "Syscall": 1996,
      "45066": 1997,
      "7149464": 1998,
      "40845066": 1999,
      "714946440845066": 2000,
      "71494644084506624Ċ": 2001,
      "ethodĊ": 2002,
      "Uint8x": 2003,
      "InterfaceĊ": 2004,
      "EV": 2005,
      "ERĊ": 2006,
      "Var": 2007,
      "lengthĊ": 2008,
      "28Ċ": 2009,
      "Path": 2010,
      "IPV6_": 2011,
      "Conta": 2012,
      "a\"Ċ": 2013,
      "Struct": 2014,
      "()Ġ": 2015,
      "dwar": 2016,
      "atur": 2017,
      "Ind": 2018,
      "return": 2019,
      "cipher": 2020,
      "Respon": 2021,
      "ream": 2022,
      "noĠ": 2023,
      "42Ċ": 2024,
      "Tran": 2025,
      "Arra": 2026,
      "Float32x": 2027,
      "back": 2028,
      "=\"Ċ": 2029,
      "Do": 2030,
      "ld": 2031,
      "ank": 2032,
      "0x80Ċ": 2033,
      "oundĊ": 2034,
      "ublic": 2035,
      "K_": 2036,
      "routin": 2037,
      "LOC": 2038,
      "89": 2039,
      "PP": 2040,
      "ppĊ": 2041,
      "zz": 2042,
      "ge": 2043,
      "fe": 2044,
      "Uint16x": 2045,
      "Uint32Ċ": 2046,
      "tion": 2047,
      "ifyĊ": 2048,
      "load\"Ċ": 2049,
      "copy": 2050,
      "Sig": 2051,
      "fir": 2052,
      "src": 2053,
      "hello": 2054,
      "Ato": 2055,
      "Client": 2056,
      "7\"Ċ": 2057,
      "es": 2058,
      "reĊ": 2059,
      "import": 2060,
      "suppor": 2061,
      "HashĊ": 2062,
      "ONĊ": 2063,
      "a1Ċ": 2064,
      "off1Ċ": 2065,
      "\"\\n\"Ċ": 2066,
      "CallĊ": 2067,
      "asser": 2068,
      "sigĊ": 2069,
      "Scal": 2070,
      "encode": 2071,
      "Int8x": 2072,
      "ssageĊ": 2073,
      "MOVB": 2074,
      "TextĊ": 2075,
      "`json": 2076,
      "WriteStringĊ": 2077,
      "\"<": 2078,
      "syntaxĊ": 2079,
      "ww": 2080,
      "Min": 2081,
      "close": 2082,
      "lt": 2083,
      "Ġm": 2084,
      "opBytesĊ": 2085,
      "Can": 2086,
      "rootĊ": 2087,
      "Clas": 2088,
      "OpAMD64VPMOV": 2089,
      "hashĊ": 2090,
      "SignalĊ": 2091,
      "\"cmd/": 2092,
      "ant": 2093,
      "\"ab": 2094,
      "umĊ": 2095,
      "ify": 2096,
      "gidĊ": 2097,
      "ĠnotĠ": 2098,
      "SL": 2099,
      "ADĊ": 2100,
      "spĊ": 2101,
      "BPF_": 2102,
      "P_": 2103,
      "scri": 2104,
      "encod": 2105,
      "Cach": 2106,
      "_uint": 2107,
      "`{": 2108,
      "\"testing\"Ċ": 2109,
      "\"string": 2110,
      "29Ċ": 2111,
      "r1Ċ": 2112,
      "next": 2113,
      "serĊ": 2114,
      "zero": 2115,
      "state": 2116,
      "BI": 2117,
      "cre": 2118,
      "wgĊ": 2119,
      "MergingĊ": 2120,
      "\"crypto": 2121,
      "entsĊ": 2122,
      "Header": 2123,
      "TableĊ": 2124,
      "netĊ": 2125,
      ".Ċ": 2126,
      "Mem": 2127,
      "40Ċ": 2128,
      ":Ġ%s\"Ċ": 2129,
      "ROR": 2130,
      "1Ġ": 2131,
      "malloc": 2132,
      "DAT": 2133,
      "35Ċ": 2134,
      "Pri": 2135,
      "bol": 2136,
      "Chunk": 2137,
      "`json:": 2138,
      "bit": 2139,
      "AllĊ": 2140,
      "Temp": 2141,
      "cat": 2142,
      "CPU": 2143,
      "targetĊ": 2144,
      "sw": 2145,
      ">\"Ċ": 2146,
      "SEG": 2147,
      "521": 2148,
      "FIL": 2149,
      "countĊ": 2150,
      "W\"Ċ": 2151,
      "wr": 2152,
      "__": 2153,
      "0x7Ċ": 2154,
      "AI": 2155,
      "SPĊ": 2156,
      "host": 2157,
      "06": 2158,
      "ElementĊ": 2159,
      "maxĊ": 2160,
      "expect": 2161,
      "colo": 2162,
      "std": 2163,
      "GE": 2164,
      "W0Ċ": 2165,
      "direct": 2166,
      ")Ċ": 2167,
      "01Ċ": 2168,
      "G_": 2169,
      "vate": 2170,
      "copyĊ": 2171,
      "FloatĊ": 2172,
      "gth": 2173,
      "GOOSĊ": 2174,
      "list": 2175,
      "\"P": 2176,
      ".\"Ċ": 2177,
      "37": 2178,
      "TLS_": 2179,
      "atusĊ": 2180,
      "mag": 2181,
      "uleĊ": 2182,
      "Select": 2183,
      "NAM": 2184,
      "addĊ": 2185,
      "IP_": 2186,
      "Group": 2187,
      "Unmarshal": 2188,
      "tyĊ": 2189,
      "02": 2190,
      "MPĊ": 2191,
      "0x40Ċ": 2192,
      "aceĊ": 2193,
      "syncĊ": 2194,
      "\"p": 2195,
      "FlagĊ": 2196,
      "TYPE_REGĊ": 2197,
      "fin": 2198,
      "OpMIPS64": 2199,
      "Sw": 2200,
      "Less": 2201,
      "inaryĊ": 2202,
      "ALĊ": 2203,
      "Cur": 2204,
      "Field": 2205,
      "\"Read": 2206,
      "cd": 2207,
      "randĊ": 2208,
      "ifi": 2209,
      "areĊ": 2210,
      "0x6Ċ": 2211,
      "funcĠ": 2212,
      "TCP": 2213,
      "ldĊ": 2214,
      "EncodingĊ": 2215,
      ":\"Ċ": 2216,
      "CacheĊ": 2217,
      "evex0": 2218,
      "\"invalidĠ": 2219,
      "%s": 2220,
      "Rank": 2221,
      "PrintlnĊ": 2222,
      "Left": 2223,
      "CC": 2224,
      "x1Ċ": 2225,
      "example": 2226,
      "dedĊ": 2227,
      "raw": 2228,
      "OD": 2229,
      "heap": 2230,
      "size": 2231,
      "httpĊ": 2232,
      "form": 2233,
      ")`Ċ": 2234,
      "NT": 2235,
      "127Ċ": 2236,
      "one": 2237,
      "ATĊ": 2238,
      "fd": 2239,
      "rig": 2240,
      "46": 2241,
      "start": 2242,
      "litĊ": 2243,
      "{Ċ": 2244,
      "f\"Ċ": 2245,
      "StoreĊ": 2246,
      "ceĠ": 2247,
      "ByteĊ": 2248,
      "evexN": 2249,
      "varĠ": 2250,
      "lab": 2251,
      "StartĊ": 2252,
      "ed\"Ċ": 2253,
      "36": 2254,
      "TU": 2255,
      "goo": 2256,
      "VarĊ": 2257,
      "runeĊ": 2258,
      "_0Ċ": 2259,
      "FromStringĊ": 2260,
      "paren": 2261,
      "StackĊ": 2262,
      "Cm": 2263,
      "iesĊ": 2264,
      "sock": 2265,
      "Ġint": 2266,
      "\\x9": 2267,
      "OT": 2268,
      "z8": 2269,
      "UnlockĊ": 2270,
      "root": 2271,
      "opLen": 2272,
      "last": 2273,
      "UInt64Ċ": 2274,
      "\"error": 2275,
      "EE": 2276,
      "OL": 2277,
      "\"run": 2278,
      "fp": 2279,
      "lockRank": 2280,
      "RangeĊ": 2281,
      "xx": 2282,
      "Must": 2283,
      "pat": 2284,
      "0x5Ċ": 2285,
      "chedĊ": 2286,
      "SLL": 2287,
      "TypeVec": 2288,
      "ffixĊ": 2289,
      "SD": 2290,
      "mlĊ": 2291,
      "x16": 2292,
      "orĠ": 2293,
      "Small": 2294,
      "LengthĊ": 2295,
      "Wasm": 2296,
      "sa": 2297,
      "Q\"Ċ": 2298,
      "rowĊ": 2299,
      "Server": 2300,
      "Atom": 2301,
      "ulĊ": 2302,
      "Equal": 2303,
      "after": 2304,
      "AtĊ": 2305,
      "atĠ": 2306,
      "point": 2307,
      "adĠ": 2308,
      "linkĊ": 2309,
      "window": 2310,
      ".Ġ": 2311,
      "ical": 2312,
      "BuilderĊ": 2313,
      "doneĊ": 2314,
      "debug": 2315,
      "kindĊ": 2316,
      "Link": 2317,
      "BR": 2318,
      "apĊ": 2319,
      "rewriteValueARM": 2320,
      "instĊ": 2321,
      "decĊ": 2322,
      "RGB": 2323,
      "EndĊ": 2324,
      "GetĊ": 2325,
      "quire": 2326,
      "C_REGĊ": 2327,
      "Be": 2328,
      "Append": 2329,
      "48Ċ": 2330,
      "0x10": 2331,
      "loaderĊ": 2332,
      "87Ċ": 2333,
      "ContainsĊ": 2334,
      "678": 2335,
      "PtrFromStringĊ": 2336,
      "/\"Ċ": 2337,
      "LI": 2338,
      "fix": 2339,
      "stackĊ": 2340,
      "Lookup": 2341,
      "112Ċ": 2342,
      "lob": 2343,
      "c1Ċ": 2344,
      "mmĊ": 2345,
      "p1Ċ": 2346,
      "Close": 2347,
      "dbĊ": 2348,
      "Shift": 2349,
      "CAL": 2350,
      "Dur": 2351,
      "client": 2352,
      ",Ċ": 2353,
      "TLS": 2354,
      "SO_": 2355,
      "\"unsaf": 2356,
      "EP": 2357,
      ";Ġwant": 2358,
      "FuncPC": 2359,
      "ask": 2360,
      "TRAC": 2361,
      "Panic": 2362,
      "kno": 2363,
      "Atomic": 2364,
      "SYS_GET": 2365,
      "v4Ċ": 2366,
      "calle": 2367,
      "LinkĊ": 2368,
      "sys": 2369,
      "elfĊ": 2370,
      "36Ċ": 2371,
      "connĊ": 2372,
      "MOVH": 2373,
      "v_1_0Ċ": 2374,
      "A_": 2375,
      "Na": 2376,
      "ffffĊ": 2377,
      "strconvĊ": 2378,
      "\"A": 2379,
      "80Ċ": 2380,
      "ingEnabledĊ": 2381,
      "rsĊ": 2382,
      "FuncPCABI": 2383,
      "ED": 2384,
      "255": 2385,
      "\"os\"Ċ": 2386,
      "\"syn": 2387,
      "ValuesĊ": 2388,
      "S\"Ċ": 2389,
      "mt": 2390,
      "MOVDconstĊ": 2391,
      "Off\"Ċ": 2392,
      "p521": 2393,
      "ĠtoĠ": 2394,
      "otate": 2395,
      "/atom": 2396,
      "exec": 2397,
      "Base": 2398,
      "panic": 2399,
      "tokĊ": 2400,
      "2P": 2401,
      "paramsĊ": 2402,
      "bo": 2403,
      "cmpĊ": 2404,
      "\"1": 2405,
      "fail": 2406,
      "sbĊ": 2407,
      "Mat": 2408,
      "\"strings\"Ċ": 2409,
      "nerĊ": 2410,
      "x7": 2411,
      "hash": 2412,
      "tin": 2413,
      "true": 2414,
      "abĊ": 2415,
      "90": 2416,
      "sectĊ": 2417,
      "v_0_1Ċ": 2418,
      "\"Sym": 2419,
      "BitĊ": 2420,
      "\\xff": 2421,
      "rec": 2422,
      "BytePtrFromStringĊ": 2423,
      "Range": 2424,
      "Debu": 2425,
      "H_": 2426,
      "Wait": 2427,
      "CL": 2428,
      "secĊ": 2429,
      "OutputĊ": 2430,
      "_SIG": 2431,
      "epĊ": 2432,
      "NewReaderĊ": 2433,
      "Sizeof": 2434,
      "45Ċ": 2435,
      "BU": 2436,
      "le\"Ċ": 2437,
      "0000000000000000": 2438,
      "sour": 2439,
      "local": 2440,
      "95": 2441,
      "Lab": 2442,
      "t2Ċ": 2443,
      "Pa": 2444,
      "test_int32Ċ": 2445,
      "Cre": 2446,
      "PtrSizeĊ": 2447,
      "PH": 2448,
      "Merge": 2449,
      "sit": 2450,
      "4294967296Ċ": 2451,
      "SkipĊ": 2452,
      "\"hello": 2453,
      "lyĊ": 2454,
      "ppc": 2455,
      "bigĊ": 2456,
      "ptĊ": 2457,
      "RA": 2458,
      "`packageĠ": 2459,
      "/atomic\"Ċ": 2460,
      "CO": 2461,
      "ial": 2462,
      "kip": 2463,
      "PointĊ": 2464,
      "07": 2465,
      "ternĊ": 2466,
      "DoneĊ": 2467,
      "fips": 2468,
      "thĊ": 2469,
      "Content": 2470,
      "sigctxtĊ": 2471,
      "OP_": 2472,
      "StackCheckĊ": 2473,
      "WMasked": 2474,
      "o1Ċ": 2475,
      "ADC": 2476,
      "Index": 2477,
      "655": 2478,
      "SQ": 2479,
      ":\\n": 2480,
      "istĊ": 2481,
      "auxSym": 2482,
      "version": 2483,
      "(%q": 2484,
      "callGo": 2485,
      "anĠ": 2486,
      "33Ċ": 2487,
      "Paralle": 2488,
      "sist": 2489,
      "SRL": 2490,
      "callGoStackCheckĊ": 2491,
      "67": 2492,
      "compile": 2493,
      "Format": 2494,
      "RTM_": 2495,
      "0x30Ċ": 2496,
      "a8": 2497,
      "Skip": 2498,
      "2_": 2499,
      "Alloc": 2500,
      "\"a\"Ċ": 2501,
      "wait": 2502,
      "37Ċ": 2503,
      "Mult": 2504,
      "\"G": 2505,
      "dĠtoĠ": 2506,
      "cc": 2507,
      "evĊ": 2508,
      "TypeFlagsĊ": 2509,
      "StderrĊ": 2510,
      "\"unsafe\"Ċ": 2511,
      "ortĠ": 2512,
      "gotĠ": 2513,
      "\"v": 2514,
      "Convert": 2515,
      "Public": 2516,
      "SYS_F": 2517,
      "dwarfĊ": 2518,
      "UD": 2519,
      "over": 2520,
      "\"d": 2521,
      "[]": 2522,
      "yn": 2523,
      "psĊ": 2524,
      "{}": 2525,
      "open": 2526,
      "\"math": 2527,
      "pa": 2528,
      "OpConst64Ċ": 2529,
      "regist": 2530,
      "Option": 2531,
      "optsĊ": 2532,
      "work": 2533,
      "copeĊ": 2534,
      "kwĊ": 2535,
      "TagĊ": 2536,
      "igh": 2537,
      "FuncPCABI0Ċ": 2538,
      "EB": 2539,
      "Version": 2540,
      "reflect": 2541,
      "AttrĊ": 2542,
      "MADD": 2543,
      "Of": 2544,
      "\"T": 2545,
      "ValueOfĊ": 2546,
      "MethodĊ": 2547,
      "ure": 2548,
      "ZeroĊ": 2549,
      ":Ġgot": 2550,
      "evexZero": 2551,
      "If": 2552,
      "evexZeroingEnabledĊ": 2553,
      "CodeĊ": 2554,
      "FilesĊ": 2555,
      "inputĊ": 2556,
      "Make": 2557,
      "i\"Ċ": 2558,
      "atomicĊ": 2559,
      "\"!": 2560,
      "ressĊ": 2561,
      "Mul64Ċ": 2562,
      "col": 2563,
      "FP": 2564,
      "OnNil": 2565,
      "3.": 2566,
      "elĊ": 2567,
      "mode": 2568,
      "EntryĊ": 2569,
      "lateĊ": 2570,
      "mentĊ": 2571,
      "oper": 2572,
      "inst": 2573,
      "module": 2574,
      "REG_R": 2575,
      "CCĊ": 2576,
      "pidĊ": 2577,
      "384": 2578,
      "128_": 2579,
      "ECD": 2580,
      "free": 2581,
      "0x33Ċ": 2582,
      "\">": 2583,
      "\\x8": 2584,
      "evex66Ċ": 2585,
      "faultOnNil": 2586,
      "Up": 2587,
      "\"expectedĠ": 2588,
      "_Op": 2589,
      "50Ċ": 2590,
      "OpAMD64VCVT": 2591,
      "iv": 2592,
      "complex": 2593,
      "mbin": 2594,
      "jsontestĊ": 2595,
      "\"internal/runtime": 2596,
      "mbed": 2597,
      "assertĊ": 2598,
      "50": 2599,
      "specĊ": 2600,
      "34Ċ": 2601,
      "Mode": 2602,
      "Private": 2603,
      "clobber": 2604,
      "Af": 2605,
      "ature": 2606,
      "TRĊ": 2607,
      "InputĊ": 2608,
      "buf": 2609,
      "\\u00": 2610,
      "p521Uint1Ċ": 2611,
      "elemĊ": 2612,
      "UsesĊ": 2613,
      "ParallelĊ": 2614,
      "uctĊ": 2615,
      "mallocgc": 2616,
      "exprĊ": 2617,
      "Reloc": 2618,
      "ADDRĊ": 2619,
      "throwĊ": 2620,
      ",Ġgot": 2621,
      "bc": 2622,
      "shouldĠ": 2623,
      "8_": 2624,
      "'Ġ": 2625,
      "empty": 2626,
      "ight": 2627,
      "JS": 2628,
      "ak": 2629,
      "\"byte": 2630,
      "Numb": 2631,
      "bsĊ": 2632,
      "p2Ċ": 2633,
      "39Ċ": 2634,
      ":Ġ%v": 2635,
      "aryĊ": 2636,
      ".go\"Ċ": 2637,
      "spec": 2638,
      "Ux": 2639,
      "Sec": 2640,
      "_r": 2641,
      "cĠ": 2642,
      "iftĊ": 2643,
      "IG": 2644,
      "e+": 2645,
      "ToUint": 2646,
      "field": 2647,
      "100": 2648,
      "debugĊ": 2649,
      "64_Op": 2650,
      "writ": 2651,
      "goarchĊ": 2652,
      "agesĊ": 2653,
      "0xcĊ": 2654,
      "FDĊ": 2655,
      "ofĊ": 2656,
      "ded": 2657,
      "REL": 2658,
      "shĊ": 2659,
      "db": 2660,
      "Example": 2661,
      "\"unexpectedĠ": 2662,
      "PR_": 2663,
      "gerĊ": 2664,
      "try": 2665,
      "slicesĊ": 2666,
      "mallocgcSmall": 2667,
      "Gener": 2668,
      "PanicĊ": 2669,
      "Trim": 2670,
      "SOC": 2671,
      "\"Int": 2672,
      "blockĊ": 2673,
      "Ġ\"Ċ": 2674,
      "Conn": 2675,
      "//Ġ": 2676,
      "stem": 2677,
      "bs": 2678,
      "lace": 2679,
      "ParamsĊ": 2680,
      "failed": 2681,
      "cance": 2682,
      "chang": 2683,
      "v_1_1Ċ": 2684,
      "modĊ": 2685,
      "]\"Ċ": 2686,
      "loader": 2687,
      "Bound": 2688,
      "SpaceĊ": 2689,
      "ix": 2690,
      "==": 2691,
      "ive": 2692,
      "Ġ-": 2693,
      "DurationĊ": 2694,
      "atureĊ": 2695,
      "\"(": 2696,
      "script": 2697,
      "siz": 2698,
      "HasPrefixĊ": 2699,
      "NOT": 2700,
      "Sockaddr": 2701,
      "Ac": 2702,
      "expectedĊ": 2703,
      "CommandĊ": 2704,
      "Boun": 2705,
      "formatĊ": 2706,
      "PSMasked": 2707,
      "=%v\"Ċ": 2708,
      "\"di": 2709,
      "0x11Ċ": 2710,
      "ypĊ": 2711,
      "lyĠ": 2712,
      "user": 2713,
      "0x14Ċ": 2714,
      "4.": 2715,
      "WIT": 2716,
      "reco": 2717,
      "cannotĠ": 2718,
      "shalĊ": 2719,
      "CopyĊ": 2720,
      "%s\"Ċ": 2721,
      "0xfĊ": 2722,
      "Fa": 2723,
      "false": 2724,
      "390x": 2725,
      "\"/\"Ċ": 2726,
      "first": 2727,
      "020": 2728,
      "127": 2729,
      "0x37Ċ": 2730,
      "HandlerĊ": 2731,
      "loaderstateĊ": 2732,
      "Cle": 2733,
      "TokenĊ": 2734,
      "\"r": 2735,
      "WRI": 2736,
      "any": 2737,
      "FL": 2738,
      "QQ": 2739,
      "fer": 2740,
      "65Ċ": 2741,
      "ateĠ": 2742,
      "da": 2743,
      "schedĊ": 2744,
      "StructĊ": 2745,
      "ph": 2746,
      "uidĊ": 2747,
      "dst": 2748,
      "MaxĊ": 2749,
      "59": 2750,
      "sin": 2751,
      "attr": 2752,
      "Lit": 2753,
      "secondĊ": 2754,
      "Comple": 2755,
      "RootĊ": 2756,
      "n1Ċ": 2757,
      "135Ċ": 2758,
      "TimerĊ": 2759,
      "AP": 2760,
      "sum": 2761,
      "group": 2762,
      "\"runtime\"Ċ": 2763,
      "tmpĊ": 2764,
      "REG_F": 2765,
      "9999": 2766,
      "colorĊ": 2767,
      "Decod": 2768,
      "z6": 2769,
      "0xaĊ": 2770,
      "Exten": 2771,
      "EventĊ": 2772,
      "\\r\\n\"Ċ": 2773,
      "utf": 2774,
      "closeĊ": 2775,
      "namesĊ": 2776,
      "car": 2777,
      "z4": 2778,
      "END": 2779,
      "CertificateĊ": 2780,
      "Transp": 2781,
      "200": 2782,
      "5\"Ċ": 2783,
      "RuneĊ": 2784,
      "41Ċ": 2785,
      "esĠ": 2786,
      "lientĊ": 2787,
      "append": 2788,
      "Exec": 2789,
      "Merging\"Ċ": 2790,
      "non-": 2791,
      "I64": 2792,
      "ernalĊ": 2793,
      "curren": 2794,
      "12345678": 2795,
      "AA": 2796,
      "atorĊ": 2797,
      "ResetĊ": 2798,
      "reset": 2799,
      "outputĊ": 2800,
      "NextĊ": 2801,
      "rtĊ": 2802,
      "0xbĊ": 2803,
      "ildĊ": 2804,
      "Lev": 2805,
      "Us": 2806,
      "Lsh": 2807,
      "delt": 2808,
      "F38Ċ": 2809,
      "method": 2810,
      "_int64_": 2811,
      "progĊ": 2812,
      "ĠinĠ": 2813,
      "ControlĊ": 2814,
      "reat": 2815,
      "need": 2816,
      ",Ġ%v": 2817,
      "73Ċ": 2818,
      "0x9Ċ": 2819,
      "look": 2820,
      "hexĊ": 2821,
      "issue": 2822,
      "z16": 2823,
      "tx": 2824,
      "_int32Ċ": 2825,
      "filesĊ": 2826,
      "Node": 2827,
      "InitĊ": 2828,
      "GroupĊ": 2829,
      "magic": 2830,
      "orderĊ": 2831,
      "versionĊ": 2832,
      "x8\"Ċ": 2833,
      "capĊ": 2834,
      "EXT": 2835,
      "ClassĊ": 2836,
      "mptyĊ": 2837,
      "B\"Ċ": 2838,
      "OpAMD64MOV": 2839,
      "auxSymOffĊ": 2840,
      "tgĊ": 2841,
      "faultOnNilArg0Ċ": 2842,
      "03Ċ": 2843,
      "\"SymOff\"Ċ": 2844,
      "allocĊ": 2845,
      "f2Ċ": 2846,
      "mul_int": 2847,
      "Dead": 2848,
      "cha": 2849,
      "Response": 2850,
      "beĠ": 2851,
      "NamesĊ": 2852,
      "deltaĊ": 2853,
      "AST": 2854,
      "16_": 2855,
      "elf": 2856,
      "\"foo\"Ċ": 2857,
      "9\"Ċ": 2858,
      "Sc": 2859,
      "ar\"Ċ": 2860,
      "AXV": 2861,
      "2Ġ": 2862,
      "dns": 2863,
      "Pkg": 2864,
      "NaNĊ": 2865,
      "UInt32Ċ": 2866,
      "acc": 2867,
      "SymReadĊ": 2868,
      ":=Ġ": 2869,
      "FD": 2870,
      "decode": 2871,
      "fileĠ": 2872,
      "t0Ċ": 2873,
      "nodeĊ": 2874,
      "709": 2875,
      "SIOCG": 2876,
      "index": 2877,
      "_int64\"Ċ": 2878,
      "test_uint64Ċ": 2879,
      "Proto": 2880,
      "\"http://": 2881,
      "OO": 2882,
      "0xeĊ": 2883,
      "example.com": 2884,
      ").": 2885,
      "ETH_P": 2886,
      "msĊ": 2887,
      "pe": 2888,
      "Remo": 2889,
      "readĊ": 2890,
      "Lock": 2891,
      "'tĠ": 2892,
      "ae": 2893,
      "pthĊ": 2894,
      "HTTP": 2895,
      "\"S": 2896,
      "RGBAĊ": 2897,
      "genĊ": 2898,
      "Recor": 2899,
      "446": 2900,
      "\"R_": 2901,
      "\"net": 2902,
      "ImmĊ": 2903,
      "44Ċ": 2904,
      "not": 2905,
      "tagĊ": 2906,
      "canMerge": 2907,
      "0x00": 2908,
      "READĊ": 2909,
      "x2": 2910,
      "ortedĊ": 2911,
      "INF": 2912,
      "quo": 2913,
      "Pointer": 2914,
      "98": 2915,
      "hdrĊ": 2916,
      "\"#": 2917,
      "DU": 2918,
      "IFF_": 2919,
      "typecheckĊ": 2920,
      "errorfĊ": 2921,
      "TEĊ": 2922,
      "_tĊ": 2923,
      "\"badĠ": 2924,
      "gin": 2925,
      "Endi": 2926,
      "\"M": 2927,
      "ment": 2928,
      "clobberFlagsĊ": 2929,
      "ifĠ": 2930,
      "0575": 2931,
      "remo": 2932,
      "Heap": 2933,
      "utexĊ": 2934,
      "F\"Ċ": 2935,
      "amil": 2936,
      "afterĠ": 2937,
      "runc": 2938,
      "Empty": 2939,
      "fc": 2940,
      "\"con": 2941,
      "r2Ċ": 2942,
      "(%v": 2943,
      "too": 2944,
      "ValidĊ": 2945,
      "MOVV": 2946,
      "SSĊ": 2947,
      "\\x00\\x00\\x00\\x00\\x00\\x00\\x00\\x00\\x00\\x00\\x00\\x00\\x00\\x00\\x00\\x00\\x00\\x00\\x00\\x00\\x00\\x00\\x00\\x00\\x00\\x00\\x00\\x00\\x00\\x00\\x00\\x00": 2948,
      "ytabĊ": 2949,
      "\"g": 2950,
      "58": 2951,
      "share": 2952,
      "nection": 2953,
      "9403": 2954,
      "ationĠ": 2955,
      "s.": 2956,
      "0x13Ċ": 2957,
      "fips14": 2958,
      "=Ġ%d": 2959,
      "SO": 2960,
      "stra": 2961,
      "ushĊ": 2962,
      "0x32Ċ": 2963,
      "StatĊ": 2964,
      "TIM": 2965,
      "Lim": 2966,
      "PCĊ": 2967,
      "pc": 2968,
      "p256": 2969,
      ",Ġb": 2970,
      "720575": 2971,
      "7205759403": 2972,
      "}\"Ċ": 2973,
      "ted\"Ċ": 2974,
      "0x12Ċ": 2975,
      "span": 2976,
      "SCĊ": 2977,
      "9223372036854775807Ċ": 2978,
      "ce\"Ċ": 2979,
      "Stream": 2980,
      "Proc": 2981,
      "0.0Ċ": 2982,
      "_C_": 2983,
      "ai": 2984,
      "AnyĊ": 2985,
      "0x31Ċ": 2986,
      "ACC": 2987,
      "70Ċ": 2988,
      "GR": 2989,
      "ValAnd": 2990,
      "nore": 2991,
      "patternĊ": 2992,
      "MAS": 2993,
      "CtxĊ": 2994,
      "DN": 2995,
      "\"mul_int": 2996,
      "Data": 2997,
      "orted": 2998,
      "EnvĊ": 2999,
      "T\"Ċ": 3000,
      "char": 3001,
      "SYS_SET": 3002,
      "0Ġ": 3003,
      "late": 3004,
      "proc": 3005,
      "matchĊ": 3006,
      ";Ċ": 3007,
      "OPĊ": 3008,
      "User": 3009,
      "1024Ċ": 3010,
      "filenameĊ": 3011,
      "Ġ=Ġ%d,ĠwantĠ0\"Ċ": 3012,
      "wantErrĊ": 3013,
      "_Sig": 3014,
      "escap": 3015,
      "my": 3016,
      "PrivateKeyĊ": 3017,
      "18112Ċ": 3018,
      "HandleĊ": 3019,
      "SA_": 3020,
      "UintĊ": 3021,
      "Section": 3022,
      "Decode": 3023,
      "2147418112Ċ": 3024,
      "\"int": 3025,
      "a2Ċ": 3026,
      "vv": 3027,
      "Copy": 3028,
      "\"%s:Ġ": 3029,
      "56Ċ": 3030,
      "OutĊ": 3031,
      "f1Ċ": 3032,
      "enc": 3033,
      "0x18Ċ": 3034,
      "spa": 3035,
      "NilĊ": 3036,
      "OpenĊ": 3037,
      "ityĊ": 3038,
      "regMaskĊ": 3039,
      "fromĊ": 3040,
      "\"Read\"Ċ": 3041,
      "shiftR": 3042,
      "V_": 3043,
      "io": 3044,
      "urlĊ": 3045,
      "DW_": 3046,
      "1d": 3047,
      "`<": 3048,
      "wsĊ": 3049,
      "failedĠtoĠ": 3050,
      "\"got": 3051,
      "96": 3052,
      "\\xe": 3053,
      "Float64Ċ": 3054,
      "ServerĊ": 3055,
      "b\"Ċ": 3056,
      "send": 3057,
      "Module": 3058,
      "Fe": 3059,
      "lowĊ": 3060,
      "Keep": 3061,
      "0x1fĊ": 3062,
      "\"Vec128\"Ċ": 3063,
      "urĊ": 3064,
      "foreĊ": 3065,
      "CompareĊ": 3066,
      "Status": 3067,
      "AMaskĊ": 3068,
      "Regist": 3069,
      "fiĊ": 3070,
      "validĊ": 3071,
      "ghtĊ": 3072,
      "OptionsĊ": 3073,
      "\\\"": 3074,
      "geĊ": 3075,
      "leftĊ": 3076,
      "Have": 3077,
      "_y": 3078,
      "range": 3079,
      "99Ċ": 3080,
      "Over": 3081,
      "lang": 3082,
      "nsĊ": 3083,
      "runĊ": 3084,
      "ARPH": 3085,
      "ARCHĊ": 3086,
      "fsetĊ": 3087,
      "to64Ċ": 3088,
      "SuffixĊ": 3089,
      "0xdĊ": 3090,
      "ADDĊ": 3091,
      "}}\"Ċ": 3092,
      "rewriteValueAMD64_Op": 3093,
      "56": 3094,
      "MD": 3095,
      "b1Ċ": 3096,
      "format": 3097,
      "Mark": 3098,
      "Case": 3099,
      "Open": 3100,
      "messageĊ": 3101,
      "signĊ": 3102,
      "\"crypto/": 3103,
      "Aut": 3104,
      "Int32Ċ": 3105,
      "18446": 3106,
      "sym2Ċ": 3107,
      "SizeofĊ": 3108,
      "Bounds": 3109,
      "1844674": 3110,
      "idthĊ": 3111,
      "DATAĊ": 3112,
      "ARPHRD": 3113,
      "dĠnotĠ": 3114,
      "OpAMD64VPSH": 3115,
      "MB": 3116,
      "PTRAC": 3117,
      "s390x": 3118,
      "RTF_": 3119,
      "81Ċ": 3120,
      "eryĊ": 3121,
      "elemsizeĊ": 3122,
      "77Ċ": 3123,
      "a6Ċ": 3124,
      "ipeĊ": 3125,
      "Symbol": 3126,
      "PR": 3127,
      "big": 3128,
      "PkgĊ": 3129,
      "copyOfĊ": 3130,
      "0e": 3131,
      "76Ċ": 3132,
      "asesĊ": 3133,
      "evexW0Ċ": 3134,
      "StoreSliceĊ": 3135,
      "base": 3136,
      "ick": 3137,
      "clobberĊ": 3138,
      "tag": 3139,
      "InfĊ": 3140,
      "OpZero": 3141,
      "\"bytes\"Ċ": 3142,
      "Right": 3143,
      "w2": 3144,
      "tenvĊ": 3145,
      "86": 3146,
      "AQ": 3147,
      "minĊ": 3148,
      "risc": 3149,
      "ParseĊ": 3150,
      "184467440": 3151,
      "ls": 3152,
      "PublicKeyĊ": 3153,
      "75Ċ": 3154,
      "0x15Ċ": 3155,
      "ipsĊ": 3156,
      "UTF": 3157,
      "ER_": 3158,
      "Sour": 3159,
      "defin": 3160,
      "ody": 3161,
      "moduleĊ": 3162,
      "Start": 3163,
      "\"_": 3164,
      "LEĊ": 3165,
      "86Ċ": 3166,
      "Ġre": 3167,
      "subĊ": 3168,
      "Rec": 3169,
      "compile/internal/": 3170,
      "Page": 3171,
      "cover": 3172,
      "126Ċ": 3173,
      "fil": 3174,
      "goĠ": 3175,
      "Result": 3176,
      "StrĊ": 3177,
      "Dir": 3178,
      "1000Ċ": 3179,
      "leĠ": 3180,
      "ated": 3181,
      "herĊ": 3182,
      "ush": 3183,
      "statĊ": 3184,
      "\"VPMOV": 3185,
      "bodyĊ": 3186,
      "cach": 3187,
      "DIV": 3188,
      "\\r\\n": 3189,
      "binaryĊ": 3190,
      "Inter": 3191,
      "SYN": 3192,
      "\"cmd/compile/internal/": 3193,
      "WRITEĊ": 3194,
      "\"sub": 3195,
      "\"noĠ": 3196,
      "PortĊ": 3197,
      "Hello": 3198,
      "foundĊ": 3199,
      "ery": 3200,
      "\"%dĠ": 3201,
      "(%dĠ": 3202,
      "MOVDQU": 3203,
      "Text": 3204,
      "vt": 3205,
      "ArrayĊ": 3206,
      "54": 3207,
      "0x38Ċ": 3208,
      "pas": 3209,
      "Listen": 3210,
      "Line": 3211,
      "32767Ċ": 3212,
      "LookupĊ": 3213,
      "ek": 3214,
      "!=Ġ": 3215,
      "idx": 3216,
      "0x34Ċ": 3217,
      "\"1.": 3218,
      "long": 3219,
      "ExitĊ": 3220,
      "CallExprĊ": 3221,
      "edi": 3222,
      "\"io\"Ċ": 3223,
      "EA": 3224,
      "GEĊ": 3225,
      "ENO": 3226,
      "ffffffffffff": 3227,
      "\\\\": 3228,
      "ullĊ": 3229,
      "WaitĊ": 3230,
      "DecoderĊ": 3231,
      "EndianĊ": 3232,
      "0x35Ċ": 3233,
      "\"+": 3234,
      "96Ċ": 3235,
      "T1Ċ": 3236,
      "18446744073": 3237,
      "\"[": 3238,
      "AVF": 3239,
      "ResultĊ": 3240,
      "\"runtime.": 3241,
      "utĠ": 3242,
      "ORĊ": 3243,
      "sym1Ċ": 3244,
      "----": 3245,
      "70955": 3246,
      "arra": 3247,
      "loop": 3248,
      "1844674407370955": 3249,
      "0x57Ċ": 3250,
      "Event": 3251,
      "limitĊ": 3252,
      "\"E": 3253,
      "SHĊ": 3254,
      "SW": 3255,
      "confĊ": 3256,
      "\".\"Ċ": 3257,
      "networkĊ": 3258,
      "REĊ": 3259,
      "Dis": 3260,
      "uni": 3261,
      "kipp": 3262,
      "WITH_": 3263,
      "ECĊ": 3264,
      "rcĊ": 3265,
      "ary": 3266,
      "rightĊ": 3267,
      "target": 3268,
      "CALC_": 3269,
      "OpZeroExt": 3270,
      "have": 3271,
      "Cance": 3272,
      "00000Ċ": 3273,
      "known": 3274,
      "52Ċ": 3275,
      "78Ċ": 3276,
      "x11": 3277,
      "\"{{": 3278,
      "DB": 3279,
      "ecd": 3280,
      "privĊ": 3281,
      "html": 3282,
      "lobal": 3283,
      "MT": 3284,
      "0x1aĊ": 3285,
      "Ġ%vĠ": 3286,
      "D2": 3287,
      "bool": 3288,
      "tot": 3289,
      "512loadĊ": 3290,
      "Targ": 3291,
      "system": 3292,
      "app": 3293,
      "linesĊ": 3294,
      "Default": 3295,
      "\"0\"Ċ": 3296,
      "tern": 3297,
      "alk": 3298,
      "cond": 3299,
      "Div": 3300,
      "sure": 3301,
      "path\"Ċ": 3302,
      "amilyĊ": 3303,
      "123Ċ": 3304,
      "LogĊ": 3305,
      "evalĊ": 3306,
      "\"go/": 3307,
      "Host": 3308,
      "_1Ċ": 3309,
      "84": 3310,
      "FLA": 3311,
      "GE_": 3312,
      "mapĊ": 3313,
      "Token": 3314,
      "fromĠ": 3315,
      ">Ċ": 3316,
      "stkĊ": 3317,
      "neg": 3318,
      "(%s": 3319,
      "cst": 3320,
      "df": 3321,
      "\"Vec256\"Ċ": 3322,
      "8ToAuxIntĊ": 3323,
      "z3": 3324,
      "chan": 3325,
      "limĊ": 3326,
      "SumĊ": 3327,
      "ory": 3328,
      "\"cmd/internal/": 3329,
      "ObjectĊ": 3330,
      "/p": 3331,
      "71Ċ": 3332,
      "default": 3333,
      "sumĊ": 3334,
      "NET": 3335,
      ",ĠwantĠ%v\"Ċ": 3336,
      "KeepAli": 3337,
      "184467440737095516": 3338,
      "]`Ċ": 3339,
      "groun": 3340,
      "Object": 3341,
      "Ca": 3342,
      "mit": 3343,
      "ireĊ": 3344,
      "CS": 3345,
      "otaĊ": 3346,
      "74Ċ": 3347,
      "FC": 3348,
      "orig": 3349,
      "MulĊ": 3350,
      "arg1Ċ": 3351,
      "cpu": 3352,
      "wrong": 3353,
      "Net": 3354,
      "V\"Ċ": 3355,
      "ud": 3356,
      "Concat": 3357,
      "StatusĊ": 3358,
      "SubĊ": 3359,
      "CONĊ": 3360,
      "\"Vec512\"Ċ": 3361,
      "\"1\"Ċ": 3362,
      "79Ċ": 3363,
      "Trunc": 3364,
      "date": 3365,
      "numĊ": 3366,
      "wo": 3367,
      "0x16Ċ": 3368,
      "SYS_M": 3369,
      "384Ċ": 3370,
      "SR_": 3371,
      "v6": 3372,
      "enĠ": 3373,
      "Count": 3374,
      "Round": 3375,
      "0x5cĊ": 3376,
      "Loo": 3377,
      "PK": 3378,
      "or_": 3379,
      "checkSlice": 3380,
      "PTRACE_": 3381,
      "TimeoutĊ": 3382,
      "lect": 3383,
      "leepĊ": 3384,
      "poll": 3385,
      "Ġ%qĠ": 3386,
      "Repe": 3387,
      "resetWith": 3388,
      ".or": 3389,
      "ScopeĊ": 3390,
      "attrĊ": 3391,
      "address": 3392,
      "MinĊ": 3393,
      "OrderĊ": 3394,
      "inary": 3395,
      "0x39Ċ": 3396,
      "constantĊ": 3397,
      "parentĊ": 3398,
      "recor": 3399,
      "\"%v": 3400,
      "FSĊ": 3401,
      "0x36Ċ": 3402,
      "Float64": 3403,
      "Back": 3404,
      "MOVQĊ": 3405,
      "Assign": 3406,
      "Que": 3407,
      "szĊ": 3408,
      "ert": 3409,
      "loong": 3410,
      "conta": 3411,
      "execĊ": 3412,
      "0x800": 3413,
      "Ident": 3414,
      "cb": 3415,
      "cap": 3416,
      "rt": 3417,
      "req": 3418,
      "entryĊ": 3419,
      "0x17Ċ": 3420,
      "0x1cĊ": 3421,
      "0000000Ċ": 3422,
      "DO": 3423,
      "OpWasm": 3424,
      "0'Ċ": 3425,
      "Cl": 3426,
      "\"VCVT": 3427,
      "ghdrĊ": 3428,
      "dump": 3429,
      "MEMĊ": 3430,
      "CR": 3431,
      "aliz": 3432,
      "_G": 3433,
      "\\x01": 3434,
      "Rune": 3435,
      "otateLeft": 3436,
      "IV": 3437,
      "LLĊ": 3438,
      "absĊ": 3439,
      "ATEĊ": 3440,
      "DiagĊ": 3441,
      "Spec": 3442,
      "CmdĊ": 3443,
      ":Ġ%": 3444,
      "GT": 3445,
      "0x19Ċ": 3446,
      "51Ċ": 3447,
      "62Ċ": 3448,
      "CT": 3449,
      "El": 3450,
      "clean": 3451,
      "ETH_P_": 3452,
      "09Ċ": 3453,
      "213": 3454,
      "erface": 3455,
      "EncoderĊ": 3456,
      "ChunkIdxĊ": 3457,
      "BoundedĊ": 3458,
      "}}Ċ": 3459,
      "AsmĊ": 3460,
      "\"!(%dĠ": 3461,
      "uble": 3462,
      "iveĊ": 3463,
      "59Ċ": 3464,
      "tran": 3465,
      "53Ċ": 3466,
      "0xaaĊ": 3467,
      "Great": 3468,
      "fooĊ": 3469,
      "c2Ċ": 3470,
      "0x1d": 3471,
      "Compare": 3472,
      "DeclĊ": 3473,
      "null": 3474,
      "asĠ": 3475,
      "0x1dĊ": 3476,
      "MsgĊ": 3477,
      "resetWithControlĊ": 3478,
      "Ed": 3479,
      "lastĊ": 3480,
      "\\xf": 3481,
      "Length": 3482,
      "\\xff\\xff": 3483,
      "dateĊ": 3484,
      "iotaĊ": 3485,
      "slo": 3486,
      "token": 3487,
      "0x400": 3488,
      "resol": 3489,
      "AT_": 3490,
      "imageĊ": 3491,
      "Int64": 3492,
      "Syscall6Ċ": 3493,
      "68Ċ": 3494,
      "xy": 3495,
      "argListĊ": 3496,
      "Request": 3497,
      "Interface": 3498,
      "_TLS_": 3499,
      "cho": 3500,
      "Create": 3501,
      "BE": 3502,
      "`\"": 3503,
      "\"reflect": 3504,
      "End": 3505,
      "02069": 3506,
      "67Ċ": 3507,
      "\\xb": 3508,
      "test_int8Ċ": 3509,
      "test_int16Ċ": 3510,
      "61Ċ": 3511,
      "BL": 3512,
      "gen": 3513,
      "encoding": 3514,
      "1f": 3515,
      "imm": 3516,
      "eta": 3517,
      "vex0": 3518,
      "byĠ": 3519,
      "Mil": 3520,
      "PSĊ": 3521,
      "dele": 3522,
      "dirfdĊ": 3523,
      "handl": 3524,
      "770": 3525,
      "ADDR": 3526,
      "IdentĊ": 3527,
      ">`Ċ": 3528,
      "Last": 3529,
      "clas": 3530,
      "TIME": 3531,
      "0.0.": 3532,
      "avxĊ": 3533,
      "Certificate": 3534,
      "Array": 3535,
      "benchmark": 3536,
      "goĊ": 3537,
      "ConstĊ": 3538,
      "typsĊ": 3539,
      "nil\"Ċ": 3540,
      "ailab": 3541,
      "_testĊ": 3542,
      "entr": 3543,
      "0x27Ċ": 3544,
      "symsĊ": 3545,
      "OpAMD64VMOVDQU": 3546,
      "SecretĊ": 3547,
      "hi": 3548,
      "m1Ċ": 3549,
      "Trace": 3550,
      "DebugĊ": 3551,
      "EI": 3552,
      "ParamĊ": 3553,
      "evex0F38Ċ": 3554,
      "ightĊ": 3555,
      "0xff": 3556,
      "Inet": 3557,
      "2147483647Ċ": 3558,
      "SQRT": 3559,
      "Tri": 3560,
      "p\"Ċ": 3561,
      "utex": 3562,
      "should": 3563,
      "fl": 3564,
      "_p1Ċ": 3565,
      "Compil": 3566,
      "9223372036854775808Ċ": 3567,
      "LINKĊ": 3568,
      "1:": 3569,
      "88Ċ": 3570,
      "Ġ%v,ĠwantĠ%v\"Ċ": 3571,
      "X\"Ċ": 3572,
      "ĠforĠ": 3573,
      "reloc": 3574,
      "10\"Ċ": 3575,
      "arm64Ċ": 3576,
      "is32": 3577,
      "Eq": 3578,
      "caseĊ": 3579,
      "TypeOfĊ": 3580,
      "errnoĊ": 3581,
      "rand": 3582,
      "000000Ċ": 3583,
      "TCP_": 3584,
      "_yv": 3585,
      "PavxĊ": 3586,
      "l\"Ċ": 3587,
      "\"in": 3588,
      "224": 3589,
      "expectĊ": 3590,
      "hav": 3591,
      "mipsĊ": 3592,
      "GOARCHĊ": 3593,
      "NumberĊ": 3594,
      "p384": 3595,
      "rewriteValueAMD64_OpAMD64VP": 3596,
      "Ge": 3597,
      "bar": 3598,
      "sec": 3599,
      ";ĠwantĠ": 3600,
      "ĉĉĉ": 3601,
      "IsBoundedĊ": 3602,
      "OpConst32Ċ": 3603,
      "shiftIsBoundedĊ": 3604,
      "MULTI": 3605,
      "46Ċ": 3606,
      "W1Ċ": 3607,
      "itĠ": 3608,
      "Trail": 3609,
      "Content-": 3610,
      "43Ċ": 3611,
      "Bas": 3612,
      "sLog": 3613,
      "writeĊ": 3614,
      "MessageĊ": 3615,
      "MustHave": 3616,
      "ctx": 3617,
      "SCAL": 3618,
      "FieldsĊ": 3619,
      "Arch": 3620,
      "length": 3621,
      "EDĊ": 3622,
      "One": 3623,
      "0x2eĊ": 3624,
      "\"internal/runtime/atomic\"Ċ": 3625,
      "\"GO": 3626,
      "ML": 3627,
      "checkSlicesLog": 3628,
      "IdĊ": 3629,
      "_int64Ċ": 3630,
      "bad": 3631,
      "ionsĊ": 3632,
      "generic": 3633,
      "53": 3634,
      "92Ċ": 3635,
      "TypĊ": 3636,
      "AddressĊ": 3637,
      "Hash": 3638,
      "_CL": 3639,
      "EQ": 3640,
      "Code": 3641,
      "faceĊ": 3642,
      "SecondĊ": 3643,
      "velĊ": 3644,
      "Bytes": 3645,
      "gor": 3646,
      "0x1bĊ": 3647,
      "numb": 3648,
      "04Ċ": 3649,
      "HostĊ": 3650,
      "BRO": 3651,
      "rele": 3652,
      "testĠ": 3653,
      "recoverĊ": 3654,
      "Goroutin": 3655,
      "\"tcp": 3656,
      "\"skipp": 3657,
      "Milli": 3658,
      "55Ċ": 3659,
      "0x23Ċ": 3660,
      "tracev2Ċ": 3661,
      "SRA": 3662,
      "mk": 3663,
      "BlockARM": 3664,
      "checkSlicesLogInputĊ": 3665,
      "mult": 3666,
      "test\"Ċ": 3667,
      "0x24Ċ": 3668,
      "AES": 3669,
      "opLen2Ċ": 3670,
      "dd": 3671,
      "equ": 3672,
      "levelĊ": 3673,
      "STR": 3674,
      "BROADC": 3675,
      "LconstĊ": 3676,
      "goroutin": 3677,
      "INTĊ": 3678,
      "PPC64_": 3679,
      "()": 3680,
      "L\"Ċ": 3681,
      "AllocĊ": 3682,
      "CHĊ": 3683,
      "visi": 3684,
      "RawSyscallĊ": 3685,
      "LoweredAtomic": 3686,
      "rrĊ": 3687,
      "statusĊ": 3688,
      "RepeatĊ": 3689,
      "SBĊ": 3690,
      "\"x=%v\"Ċ": 3691,
      "FA": 3692,
      "Init": 3693,
      "ppc64Ċ": 3694,
      "cesĊ": 3695,
      "getgĊ": 3696,
      "ValAndOffĊ": 3697,
      "\"UInt": 3698,
      "DQ": 3699,
      "]Ġ": 3700,
      "stream": 3701,
      "\"time\"Ċ": 3702,
      "Hi": 3703,
      "MASKĊ": 3704,
      "\"failedĠtoĠ": 3705,
      "215": 3706,
      "90Ċ": 3707,
      "ZX": 3708,
      "{{end": 3709,
      "ND": 3710,
      "wdĊ": 3711,
      "env": 3712,
      "EmptyĊ": 3713,
      "NowĊ": 3714,
      "SET_": 3715,
      "SYNCĊ": 3716,
      "Fl": 3717,
      "Tag": 3718,
      "_Ġ=Ġ": 3719,
      "buff": 3720,
      "0x21Ċ": 3721,
      "ChanĊ": 3722,
      "aut": 3723,
      "shiftĊ": 3724,
      "Combin": 3725,
      ";ĠfuncĠ": 3726,
      "offset": 3727,
      "CommentĊ": 3728,
      "SIOCGIF": 3729,
      "42": 3730,
      "evexB": 3731,
      "0x66Ċ": 3732,
      "structĠ": 3733,
      "'0'Ċ": 3734,
      "TMPĊ": 3735,
      "_cgo": 3736,
      "inter": 3737,
      "NotifyĊ": 3738,
      "Scalar": 3739,
      "Cgo": 3740,
      "we": 3741,
      "assign": 3742,
      "cstN": 3743,
      "evexBcstN": 3744,
      "Bg": 3745,
      "BMasked": 3746,
      "lineĠ": 3747,
      "UInt8Ċ": 3748,
      "02Ċ": 3749,
      "ERROR": 3750,
      "\"testdata": 3751,
      ".org": 3752,
      "1b": 3753,
      "backĊ": 3754,
      "AddArg4Ċ": 3755,
      "\"mod": 3756,
      "FnĊ": 3757,
      "GCĊ": 3758,
      "MN": 3759,
      "pu": 3760,
      "xml": 3761,
      "0x1eĊ": 3762,
      "ANDĊ": 3763,
      "FFĊ": 3764,
      "afterĊ": 3765,
      "Replace": 3766,
      "\"errors\"Ċ": 3767,
      "Tool": 3768,
      "align": 3769,
      "UnixĊ": 3770,
      "ument": 3771,
      "test_uint32Ċ": 3772,
      "Clean": 3773,
      "CAS": 3774,
      "QconstĊ": 3775,
      "cessĊ": 3776,
      "State": 3777,
      "0x22Ċ": 3778,
      "ARPHRD_": 3779,
      "MutexĊ": 3780,
      "\"h": 3781,
      "84Ċ": 3782,
      "uzz": 3783,
      "OpSub": 3784,
      "types2Ċ": 3785,
      "MillisecondĊ": 3786,
      "\",Ġ": 3787,
      "hasĠ": 3788,
      "pdĊ": 3789,
      "allow": 3790,
      "object": 3791,
      ">Ġ": 3792,
      "SX": 3793,
      "m_": 3794,
      ":Ġ\"Ċ": 3795,
      "`json:\",": 3796,
      "1c": 3797,
      "ROL": 3798,
      "marshalĊ": 3799,
      "Child": 3800,
      "79770": 3801,
      "720575940379770": 3802,
      "72057594037977087Ċ": 3803,
      "Yx": 3804,
      "OPV": 3805,
      "fieldsĊ": 3806,
      "gram": 3807,
      "Handler": 3808,
      "uteĊ": 3809,
      "Char": 3810,
      "-----": 3811,
      "TargetĊ": 3812,
      "T2Ċ": 3813,
      "0x28Ċ": 3814,
      "EQĊ": 3815,
      "seedĊ": 3816,
      "cept": 3817,
      "52": 3818,
      "AVL": 3819,
      "varsĊ": 3820,
      "\"*": 3821,
      "\"and": 3822,
      "PDMasked": 3823,
      "itch": 3824,
      "Match": 3825,
      "0b": 3826,
      "57Ċ": 3827,
      "the": 3828,
      "ill": 3829,
      "compar": 3830,
      "ResponseĊ": 3831,
      "is32BitĊ": 3832,
      "\"add": 3833,
      "find": 3834,
      "lay": 3835,
      "Alig": 3836,
      "meĊ": 3837,
      "order": 3838,
      "ity": 3839,
      "Work": 3840,
      "69Ċ": 3841,
      "PD": 3842,
      "Fir": 3843,
      "prevĊ": 3844,
      "47Ċ": 3845,
      "ĠwithĠ": 3846,
      "1.0Ċ": 3847,
      "issingĠ": 3848,
      "Ġ=Ġ%d,ĠwantĠ-": 3849,
      "After": 3850,
      "AUT": 3851,
      "enceĊ": 3852,
      "0x2fĊ": 3853,
      "0x26Ċ": 3854,
      "sliceĊ": 3855,
      "CaseĊ": 3856,
      "LSymĊ": 3857,
      "InternalĊ": 3858,
      "GoĊ": 3859,
      "101Ċ": 3860,
      "ProfileĊ": 3861,
      "MOVWconstĊ": 3862,
      "\"syscall": 3863,
      "prof": 3864,
      "Level": 3865,
      "s390xĊ": 3866,
      "ClientĊ": 3867,
      "TypeMemĊ": 3868,
      "0x60Ċ": 3869,
      "160Ċ": 3870,
      "S_I": 3871,
      "Frame": 3872,
      "flow": 3873,
      "ignore": 3874,
      "iel": 3875,
      "z2": 3876,
      "resse": 3877,
      "0x200Ċ": 3878,
      "ResponseWriterĊ": 3879,
      "PoolĊ": 3880,
      "cn": 3881,
      "bufi": 3882,
      "symbol": 3883,
      "Loc": 3884,
      "0x25Ċ": 3885,
      "INĊ": 3886,
      "vexĊ": 3887,
      "Cip": 3888,
      "it\"Ċ": 3889,
      "eq": 3890,
      "rap": 3891,
      "0x29Ċ": 3892,
      "straint": 3893,
      "ForĊ": 3894,
      "My": 3895,
      "templateĊ": 3896,
      "anyĠ": 3897,
      "newValue": 3898,
      "7f": 3899,
      "LitĊ": 3900,
      "sync": 3901,
      "SpecĊ": 3902,
      "right": 3903,
      "TC": 3904,
      "bf": 3905,
      "0x73Ċ": 3906,
      "ShortĊ": 3907,
      "0-": 3908,
      "larg": 3909,
      "|Ġ": 3910,
      "192Ċ": 3911,
      "const\"Ċ": 3912,
      "mask": 3913,
      "x2Ċ": 3914,
      "_int16Ċ": 3915,
      "0x70Ċ": 3916,
      "fieldĊ": 3917,
      "256loadĊ": 3918,
      "200Ċ": 3919,
      "Signature": 3920,
      "Ġ%s\\n\"Ċ": 3921,
      "LabelĊ": 3922,
      "/file": 3923,
      "verse": 3924,
      "0x50Ċ": 3925,
      "cancelĊ": 3926,
      "haveĠ": 3927,
      "58Ċ": 3928,
      "Put": 3929,
      "roun": 3930,
      "000000": 3931,
      "e-10Ċ": 3932,
      "U\"Ċ": 3933,
      "0xB": 3934,
      "stop": 3935,
      "rel": 3936,
      "0x42Ċ": 3937,
      "STAT": 3938,
      "%d\"Ċ": 3939,
      "T[": 3940,
      "dead": 3941,
      "\\n\\t": 3942,
      "Seg": 3943,
      "canMergeLoadĊ": 3944,
      "GTĊ": 3945,
      "HI": 3946,
      "`Ġ": 3947,
      "rsaĊ": 3948,
      "0xffff": 3949,
      "uint64_": 3950,
      "_int32\"Ċ": 3951,
      "beforeĊ": 3952,
      "OpAMD64VMOVDQUload": 3953,
      "*Ġ": 3954,
      "fore": 3955,
      "parserĊ": 3956,
      "TYPE_MEMĊ": 3957,
      "ListenerĊ": 3958,
      ".tx": 3959,
      "HE": 3960,
      "VW": 3961,
      "OpLsh": 3962,
      "760Ċ": 3963,
      "valuesĊ": 3964,
      "PROC": 3965,
      "\"\\t": 3966,
      "\"slice": 3967,
      "EvexĊ": 3968,
      "1073": 3969,
      "vari": 3970,
      "NodesĊ": 3971,
      "8.": 3972,
      "i1Ċ": 3973,
      "pf": 3974,
      "tool": 3975,
      "armĊ": 3976,
      "0x100Ċ": 3977,
      "precĊ": 3978,
      "SHA256Ċ": 3979,
      "FamilyĊ": 3980,
      "edOutputĊ": 3981,
      "Dele": 3982,
      "REG_X": 3983,
      "importĠ": 3984,
      "doĊ": 3985,
      "jsonĊ": 3986,
      "CombinedOutputĊ": 3987,
      "OK": 3988,
      "SleepĊ": 3989,
      "cted": 3990,
      "mul": 3991,
      "0x2dĊ": 3992,
      "FormatĊ": 3993,
      "::": 3994,
      "Big": 3995,
      "Free": 3996,
      "UPĊ": 3997,
      "\\x00\\x00\\x00": 3998,
      "vexW0Ċ": 3999,
      "statsĊ": 4000,
      "unlockĊ": 4001,
      "Siz": 4002,
      "49135Ċ": 4003,
      "jsontextĊ": 4004,
      "\"sync": 4005,
      "\"sync\"Ċ": 4006,
      "/Ġ": 4007,
      "85Ċ": 4008,
      "tric": 4009,
      "0x63Ċ": 4010,
      "0x65Ċ": 4011,
      "SHU": 4012,
      "Direct": 4013,
      "template": 4014,
      "Backgroun": 4015,
      "\"ch": 4016,
      "BinaryĊ": 4017,
      "49Ċ": 4018,
      "stringĠ": 4019,
      "\"Ġ\"Ċ": 4020,
      "hostĊ": 4021,
      "Quo": 4022,
      "Bad": 4023,
      "SeqĊ": 4024,
      "Sup": 4025,
      "amd": 4026,
      "amesĊ": 4027,
      "div": 4028,
      "0x69Ċ": 4029,
      "dnsmessageĊ": 4030,
      "Dup": 4031,
      "merg": 4032,
      "ineĊ": 4033,
      "0x3aĊ": 4034,
      "Ġ%q,Ġwant": 4035,
      "op_V": 4036,
      "SkipfĊ": 4037,
      "Ag": 4038,
      "ha": 4039,
      "dis": 4040,
      "suc": 4041,
      "ismatch": 4042,
      "183Ċ": 4043,
      "Sync": 4044,
      "Cook": 4045,
      "0x44Ċ": 4046,
      "LocalĊ": 4047,
      "doesĠ": 4048,
      "\"./": 4049,
      "Pair": 4050,
      "pbĊ": 4051,
      "wnĊ": 4052,
      "z7": 4053,
      "C_U": 4054,
      "0x61Ċ": 4055,
      "Profile": 4056,
      "struct_": 4057,
      "FLO": 4058,
      "zip": 4059,
      "stmtĊ": 4060,
      "151Ċ": 4061,
      "128loadĊ": 4062,
      "\\xc": 4063,
      "rawĊ": 4064,
      "tooĠ": 4065,
      "cs": 4066,
      "expr": 4067,
      "StatsĊ": 4068,
      "INFOĊ": 4069,
      "DT_": 4070,
      "setĠ": 4071,
      "0x2aĊ": 4072,
      "Deep": 4073,
      "0x6cĊ": 4074,
      "quest": 4075,
      "StdoutĊ": 4076,
      "NAME_": 4077,
      "0x2bĊ": 4078,
      "0x53Ċ": 4079,
      "MAP_": 4080,
      "Float32": 4081,
      ",ĠwantĠ%": 4082,
      "headerĊ": 4083,
      "83Ċ": 4084,
      "require": 4085,
      "ched": 4086,
      "outĠofĠ": 4087,
      "other": 4088,
      "\"cannotĠ": 4089,
      "474": 4090,
      "UX": 4091,
      "LOCKĊ": 4092,
      "FLAG": 4093,
      "ips": 4094,
      "0x74Ċ": 4095
    },
    "merges": [
      [
        "â",
        "ĺ"
      ],
      [
        "âĺ",
        "º"
      ],
      [
        "âĺº",
        "âĺº"
      ],
      [
        "i",
        "n"
      ],
      [
        "e",
        "Ċ"
      ],
      [
        "âĺºâĺº",
        "âĺºâĺº"
      ],
      [
        "t",
        "Ċ"
      ],
      [
        "e",
        "r"
      ],
      [
        "s",
        "Ċ"
      ],
      [
        "0",
        "Ċ"
      ],
      [
        "\"",
        "Ċ"
      ],
      [
        "r",
        "Ċ"
      ],
      [
        "1",
        "Ċ"
      ],
      [
        "0",
        "x"
      ],
      [
        "âĺºâĺºâĺºâĺº",
        "âĺºâĺºâĺºâĺº"
      ],
      [
        "in",
        "t"
      ],
      [
        "s",
        "t"
      ],
      [
        "a",
        "l"
      ],
      [
        "2",
        "Ċ"
      ],
      [
        "6",
        "4"
      ],
      [
        "t",
        "e"
      ],
      [
        "r",
        "e"
      ],
      [
        "g",
        "Ċ"
      ],
      [
        "n",
        "Ċ"
      ],
      [
        "d",
        "Ċ"
      ],
      [
        "l",
        "Ċ"
      ],
      [
        "x",
        "Ċ"
      ],
      [
        "a",
        "t"
      ],
      [
        "f",
        "Ċ"
      ],
      [
        "p",
        "Ċ"
      ],
      [
        "l",
        "e"
      ],
      [
        "I",
        "n"
      ],
      [
        "a",
        "n"
      ],
      [
        "o",
        "n"
      ],
      [
        "r",
        "o"
      ],
      [
        "v",
        "Ċ"
      ],
      [
        "c",
        "Ċ"
      ],
      [
        "a",
        "r"
      ],
      [
        "0",
        "0"
      ],
      [
        "âĺºâĺºâĺºâĺºâĺºâĺºâĺºâĺº",
        "âĺºâĺºâĺºâĺºâĺºâĺºâĺºâĺº"
      ],
      [
        "l",
        "o"
      ],
      [
        "t",
        "r"
      ],
      [
        "a",
        "m"
      ],
      [
        "e",
        "n"
      ],
      [
        "er",
        "rĊ"
      ],
      [
        "64",
        "Ċ"
      ],
      [
        "a",
        "s"
      ],
      [
        "u",
        "n"
      ],
      [
        "b",
        "Ċ"
      ],
      [
        "6",
        "Ċ"
      ],
      [
        "u",
        "int"
      ],
      [
        "8",
        "Ċ"
      ],
      [
        "O",
        "p"
      ],
      [
        "in",
        "gĊ"
      ],
      [
        "a",
        "Ċ"
      ],
      [
        "m",
        "Ċ"
      ],
      [
        "7",
        "Ċ"
      ],
      [
        "b",
        "y"
      ],
      [
        "i",
        "Ċ"
      ],
      [
        "n",
        "i"
      ],
      [
        "y",
        "Ċ"
      ],
      [
        "t",
        "eĊ"
      ],
      [
        "s",
        "e"
      ],
      [
        "er",
        "Ċ"
      ],
      [
        "y",
        "p"
      ],
      [
        "c",
        "k"
      ],
      [
        "a",
        "d"
      ],
      [
        "c",
        "o"
      ],
      [
        "3",
        "Ċ"
      ],
      [
        "ni",
        "lĊ"
      ],
      [
        "4",
        "Ċ"
      ],
      [
        "u",
        "eĊ"
      ],
      [
        "o",
        "Ċ"
      ],
      [
        "by",
        "teĊ"
      ],
      [
        "am",
        "eĊ"
      ],
      [
        "3",
        "2Ċ"
      ],
      [
        "v",
        "_"
      ],
      [
        "o",
        "r"
      ],
      [
        "st",
        "r"
      ],
      [
        "u",
        "t"
      ],
      [
        "h",
        "Ċ"
      ],
      [
        "A",
        "r"
      ],
      [
        "g",
        "sĊ"
      ],
      [
        "f",
        "f"
      ],
      [
        "5",
        "Ċ"
      ],
      [
        "e",
        "x"
      ],
      [
        "R",
        "e"
      ],
      [
        "i",
        "m"
      ],
      [
        "Ġ",
        "%"
      ],
      [
        "in",
        "tĊ"
      ],
      [
        "i",
        "t"
      ],
      [
        "E",
        "r"
      ],
      [
        "te",
        "st"
      ],
      [
        "u",
        "x"
      ],
      [
        "s",
        "tĊ"
      ],
      [
        "o",
        "o"
      ],
      [
        "In",
        "t"
      ],
      [
        "c",
        "h"
      ],
      [
        "\\",
        "x"
      ],
      [
        "d",
        "e"
      ],
      [
        "tr",
        "ueĊ"
      ],
      [
        "V",
        "al"
      ],
      [
        "1",
        "2"
      ],
      [
        "f",
        "i"
      ],
      [
        "m",
        "p"
      ],
      [
        "c",
        "t"
      ],
      [
        "n",
        "ameĊ"
      ],
      [
        "T",
        "Ċ"
      ],
      [
        "_",
        "Ċ"
      ],
      [
        "g",
        "o"
      ],
      [
        "T",
        "yp"
      ],
      [
        "k",
        "Ċ"
      ],
      [
        "l",
        "i"
      ],
      [
        "âĺºâĺºâĺºâĺºâĺºâĺºâĺºâĺºâĺºâĺºâĺºâĺºâĺºâĺºâĺºâĺº",
        "âĺºâĺºâĺºâĺºâĺºâĺºâĺºâĺºâĺºâĺºâĺºâĺºâĺºâĺºâĺºâĺº"
      ],
      [
        "w",
        "an"
      ],
      [
        "e",
        "w"
      ],
      [
        "s",
        "y"
      ],
      [
        "str",
        "ingĊ"
      ],
      [
        "1",
        "7Ċ"
      ],
      [
        "m",
        "a"
      ],
      [
        "s",
        "i"
      ],
      [
        "e",
        "d"
      ],
      [
        "A",
        "d"
      ],
      [
        "9",
        "Ċ"
      ],
      [
        "p",
        "t"
      ],
      [
        "T",
        "o"
      ],
      [
        "A",
        "M"
      ],
      [
        "s",
        "eĊ"
      ],
      [
        "u",
        "e"
      ],
      [
        "3",
        "2"
      ],
      [
        "r",
        "i"
      ],
      [
        "c",
        "on"
      ],
      [
        "e",
        "t"
      ],
      [
        "P",
        "o"
      ],
      [
        "Er",
        "ro"
      ],
      [
        "In",
        "tĊ"
      ],
      [
        "u",
        "l"
      ],
      [
        "Ad",
        "d"
      ],
      [
        "C",
        "on"
      ],
      [
        "o",
        "d"
      ],
      [
        "l",
        "a"
      ],
      [
        "c",
        "e"
      ],
      [
        "S",
        "t"
      ],
      [
        "1",
        "4"
      ],
      [
        "A",
        "ux"
      ],
      [
        "pt",
        "rĊ"
      ],
      [
        "c",
        "al"
      ],
      [
        "1",
        "6Ċ"
      ],
      [
        "Aux",
        "IntĊ"
      ],
      [
        "e",
        "c"
      ],
      [
        "1",
        "6"
      ],
      [
        "v_",
        "0Ċ"
      ],
      [
        "i",
        "l"
      ],
      [
        "er",
        "ro"
      ],
      [
        "in",
        "g"
      ],
      [
        "\\x",
        "00"
      ],
      [
        "b",
        "u"
      ],
      [
        "0x",
        "1"
      ],
      [
        "R",
        "E"
      ],
      [
        "s",
        "s"
      ],
      [
        "Ġ",
        "Ġ"
      ],
      [
        "Ar",
        "gsĊ"
      ],
      [
        "AM",
        "D"
      ],
      [
        "Typ",
        "eĊ"
      ],
      [
        "2",
        "5"
      ],
      [
        "oo",
        "lĊ"
      ],
      [
        "a",
        "b"
      ],
      [
        "le",
        "nĊ"
      ],
      [
        "e",
        "sĊ"
      ],
      [
        "d",
        "Ġ"
      ],
      [
        "se",
        "tĊ"
      ],
      [
        "\\x00",
        "\\x00"
      ],
      [
        "in",
        "Ċ"
      ],
      [
        "uint",
        "64Ċ"
      ],
      [
        "a",
        "p"
      ],
      [
        "al",
        "Ċ"
      ],
      [
        "f",
        "al"
      ],
      [
        "ck",
        "Ċ"
      ],
      [
        "S",
        "y"
      ],
      [
        "AMD",
        "64"
      ],
      [
        "w",
        "Ċ"
      ],
      [
        "p",
        "ut"
      ],
      [
        "ar",
        "g"
      ],
      [
        "N",
        "ew"
      ],
      [
        "fal",
        "seĊ"
      ],
      [
        "s",
        "h"
      ],
      [
        "t",
        "yp"
      ],
      [
        "t",
        "Ġ"
      ],
      [
        "b",
        "oolĊ"
      ],
      [
        "Erro",
        "r"
      ],
      [
        "n",
        "o"
      ],
      [
        "t",
        "o"
      ],
      [
        "O",
        "V"
      ],
      [
        ",",
        "Ġ"
      ],
      [
        "e",
        "l"
      ],
      [
        "t",
        "im"
      ],
      [
        "Val",
        "ue"
      ],
      [
        "S",
        "i"
      ],
      [
        "f",
        "oĊ"
      ],
      [
        "d",
        "i"
      ],
      [
        "L",
        "o"
      ],
      [
        "1",
        "0"
      ],
      [
        "Error",
        "fĊ"
      ],
      [
        "Op",
        "AMD64"
      ],
      [
        "A",
        "R"
      ],
      [
        "int",
        "64Ċ"
      ],
      [
        "e",
        "nĊ"
      ],
      [
        "O",
        "pĊ"
      ],
      [
        "wan",
        "tĊ"
      ],
      [
        "a",
        "g"
      ],
      [
        "t",
        "y"
      ],
      [
        "`",
        "Ċ"
      ],
      [
        "âĺºâĺº",
        "Ċ"
      ],
      [
        "âĺºâĺºâĺºâĺºâĺºâĺºâĺºâĺºâĺºâĺºâĺºâĺºâĺºâĺºâĺºâĺº",
        "âĺºâĺºĊ"
      ],
      [
        "âĺºâĺºâĺºâĺºâĺºâĺºâĺºâĺºâĺºâĺºâĺºâĺºâĺºâĺºâĺºâĺºâĺºâĺºâĺºâĺºâĺºâĺºâĺºâĺºâĺºâĺºâĺºâĺºâĺºâĺºâĺºâĺº",
        "âĺºâĺºâĺºâĺºâĺºâĺºâĺºâĺºâĺºâĺºâĺºâĺºâĺºâĺºâĺºâĺºâĺºâĺºĊ"
      ],
      [
        "T",
        "e"
      ],
      [
        "E",
        "x"
      ],
      [
        "e",
        "Ġ"
      ],
      [
        "S",
        "tr"
      ],
      [
        "D",
        "Ċ"
      ],
      [
        "j",
        "Ċ"
      ],
      [
        "co",
        "mp"
      ],
      [
        "uint",
        "ptrĊ"
      ],
      [
        "s",
        "Ġ"
      ],
      [
        "o",
        "p"
      ],
      [
        "00",
        "00"
      ],
      [
        "a",
        "ux"
      ],
      [
        "v_",
        "1Ċ"
      ],
      [
        "c",
        "eĊ"
      ],
      [
        "V",
        "P"
      ],
      [
        "a",
        "f"
      ],
      [
        "ri",
        "te"
      ],
      [
        "In",
        "foĊ"
      ],
      [
        "M",
        "OV"
      ],
      [
        "S",
        "_"
      ],
      [
        "z",
        "eĊ"
      ],
      [
        "uint",
        "32Ċ"
      ],
      [
        "at",
        "hĊ"
      ],
      [
        "E",
        "Ċ"
      ],
      [
        "s",
        "\"Ċ"
      ],
      [
        "test",
        "ingĊ"
      ],
      [
        ":",
        "Ġ"
      ],
      [
        "a",
        "ck"
      ],
      [
        "u",
        "tĊ"
      ],
      [
        "m",
        "tĊ"
      ],
      [
        "I",
        "P"
      ],
      [
        "u",
        "r"
      ],
      [
        "ad",
        "d"
      ],
      [
        "o",
        "ut"
      ],
      [
        "erro",
        "rĊ"
      ],
      [
        "ty",
        "pĊ"
      ],
      [
        "N",
        "ameĊ"
      ],
      [
        "l",
        "in"
      ],
      [
        "Ar",
        "g"
      ],
      [
        "0x",
        "2"
      ],
      [
        "C",
        "Ċ"
      ],
      [
        "x",
        "tĊ"
      ],
      [
        "C",
        "o"
      ],
      [
        "U",
        "int"
      ],
      [
        "\\",
        "n"
      ],
      [
        "O",
        "N"
      ],
      [
        "i",
        "d"
      ],
      [
        "7",
        "2"
      ],
      [
        "p",
        "r"
      ],
      [
        "f",
        "fĊ"
      ],
      [
        "r",
        "un"
      ],
      [
        "S",
        "Ċ"
      ],
      [
        "v",
        "er"
      ],
      [
        "v",
        "al"
      ],
      [
        "a",
        "nĊ"
      ],
      [
        "T",
        "_"
      ],
      [
        "o",
        "b"
      ],
      [
        "lo",
        "at"
      ],
      [
        "f",
        "a"
      ],
      [
        "a",
        "dĊ"
      ],
      [
        "M",
        "as"
      ],
      [
        "S",
        "Y"
      ],
      [
        "s",
        "af"
      ],
      [
        "0x",
        "8"
      ],
      [
        "Te",
        "st"
      ],
      [
        "0x",
        "0"
      ],
      [
        "I",
        "N"
      ],
      [
        "arg",
        "L"
      ],
      [
        "at",
        "i"
      ],
      [
        "a",
        "te"
      ],
      [
        "Po",
        "sĊ"
      ],
      [
        "A",
        "D"
      ],
      [
        "l",
        "eĊ"
      ],
      [
        "\"",
        "\"Ċ"
      ],
      [
        "comp",
        "le"
      ],
      [
        "un",
        "saf"
      ],
      [
        "Ġ%",
        "v"
      ],
      [
        "C",
        "_"
      ],
      [
        "F",
        "at"
      ],
      [
        "ex",
        "p"
      ],
      [
        "E",
        "n"
      ],
      [
        "Val",
        "ueĊ"
      ],
      [
        "ch",
        "e"
      ],
      [
        "Po",
        "int"
      ],
      [
        "S",
        "e"
      ],
      [
        "o",
        "nĊ"
      ],
      [
        "at",
        "eĊ"
      ],
      [
        "0x",
        "3"
      ],
      [
        "v",
        "0Ċ"
      ],
      [
        "L",
        "Ċ"
      ],
      [
        "bu",
        "fĊ"
      ],
      [
        "n",
        "ew"
      ],
      [
        "s",
        "p"
      ],
      [
        "1",
        "5"
      ],
      [
        "f",
        "mtĊ"
      ],
      [
        "e",
        "v"
      ],
      [
        "0x",
        "4"
      ],
      [
        "s",
        "u"
      ],
      [
        "i",
        "rĊ"
      ],
      [
        "1",
        "3"
      ],
      [
        "RE",
        "G"
      ],
      [
        "re",
        "gĊ"
      ],
      [
        "E",
        "R"
      ],
      [
        "'",
        "Ċ"
      ],
      [
        "m",
        "e"
      ],
      [
        "p",
        "o"
      ],
      [
        "s",
        "cal"
      ],
      [
        "m",
        "m"
      ],
      [
        "i",
        "cĊ"
      ],
      [
        "k",
        "e"
      ],
      [
        "comple",
        "xĊ"
      ],
      [
        "E",
        "T"
      ],
      [
        "SY",
        "S_"
      ],
      [
        "ss",
        "aĊ"
      ],
      [
        "re",
        "s"
      ],
      [
        "AR",
        "M"
      ],
      [
        "i",
        "c"
      ],
      [
        "unsaf",
        "eĊ"
      ],
      [
        "e",
        "1Ċ"
      ],
      [
        "g",
        "t"
      ],
      [
        "w",
        "rite"
      ],
      [
        "F",
        "un"
      ],
      [
        "en",
        "t"
      ],
      [
        "F",
        "Ċ"
      ],
      [
        "Point",
        "erĊ"
      ],
      [
        "Str",
        "ingĊ"
      ],
      [
        "_",
        "int"
      ],
      [
        "i",
        "p"
      ],
      [
        "E",
        "_"
      ],
      [
        "Mas",
        "k"
      ],
      [
        "B",
        "y"
      ],
      [
        "te",
        "stĊ"
      ],
      [
        "d",
        "at"
      ],
      [
        "f",
        "nĊ"
      ],
      [
        "i",
        "s"
      ],
      [
        "1",
        "2Ċ"
      ],
      [
        "tim",
        "eĊ"
      ],
      [
        "wan",
        "t"
      ],
      [
        "D",
        "e"
      ],
      [
        "d",
        "\"Ċ"
      ],
      [
        "in",
        "put"
      ],
      [
        "od",
        "eĊ"
      ],
      [
        "p",
        "en"
      ],
      [
        "re",
        "g"
      ],
      [
        "fi",
        "le"
      ],
      [
        "\\x00\\x00",
        "\\x00\\x00"
      ],
      [
        "i",
        "f"
      ],
      [
        "7",
        "4"
      ],
      [
        "u",
        "xĊ"
      ],
      [
        "2",
        "9"
      ],
      [
        "s",
        "c"
      ],
      [
        "Re",
        "ad"
      ],
      [
        "as",
        "eĊ"
      ],
      [
        "q",
        "u"
      ],
      [
        "i",
        "tĊ"
      ],
      [
        "P",
        "Ċ"
      ],
      [
        "re",
        "setĊ"
      ],
      [
        "k",
        "eĊ"
      ],
      [
        "pr",
        "int"
      ],
      [
        "h",
        "t"
      ],
      [
        "ul",
        "t"
      ],
      [
        "o",
        "utĊ"
      ],
      [
        "o",
        "kĊ"
      ],
      [
        "an",
        "d"
      ],
      [
        "S",
        "I"
      ],
      [
        "B",
        "Ċ"
      ],
      [
        "O",
        "C"
      ],
      [
        "h",
        "e"
      ],
      [
        "aux",
        "Int"
      ],
      [
        "as",
        "mĊ"
      ],
      [
        "out",
        "put"
      ],
      [
        "te",
        "sĊ"
      ],
      [
        "To",
        "Int"
      ],
      [
        "F",
        "i"
      ],
      [
        "er",
        "n"
      ],
      [
        "p",
        "athĊ"
      ],
      [
        "o",
        "t"
      ],
      [
        "go",
        "tĊ"
      ],
      [
        "1",
        "0Ċ"
      ],
      [
        "2",
        "2"
      ],
      [
        "Mask",
        "ed"
      ],
      [
        "ob",
        "jĊ"
      ],
      [
        "B",
        "lo"
      ],
      [
        "Si",
        "zeĊ"
      ],
      [
        "Typ",
        "e"
      ],
      [
        "g",
        "n"
      ],
      [
        "Erro",
        "rĊ"
      ],
      [
        "O",
        "R"
      ],
      [
        "q",
        "Ċ"
      ],
      [
        "0x",
        "5"
      ],
      [
        "i",
        "dĊ"
      ],
      [
        "r",
        "a"
      ],
      [
        "erro",
        "r"
      ],
      [
        "7",
        "6"
      ],
      [
        "Add",
        "Arg"
      ],
      [
        "v",
        "eĊ"
      ],
      [
        "v",
        "e"
      ],
      [
        "t",
        "a"
      ],
      [
        "gt",
        "hĊ"
      ],
      [
        "z",
        "Ċ"
      ],
      [
        "c",
        "m"
      ],
      [
        "x",
        "8"
      ],
      [
        "Ġ",
        "="
      ],
      [
        "3",
        "3"
      ],
      [
        "1",
        "8"
      ],
      [
        "0x",
        "7"
      ],
      [
        "n",
        "anĊ"
      ],
      [
        "U",
        "n"
      ],
      [
        "2",
        "8"
      ],
      [
        "ma",
        "keĊ"
      ],
      [
        "I",
        "s"
      ],
      [
        "er",
        "r"
      ],
      [
        "p",
        "ro"
      ],
      [
        "c",
        "hĊ"
      ],
      [
        "typ",
        "esĊ"
      ],
      [
        "ev",
        "ex"
      ],
      [
        "c",
        "tĊ"
      ],
      [
        "M",
        "a"
      ],
      [
        "ĠĠ",
        "ĠĠ"
      ],
      [
        "S",
        "T"
      ],
      [
        "0x",
        "6"
      ],
      [
        "it",
        "sĊ"
      ],
      [
        "\\n",
        "\"Ċ"
      ],
      [
        "en",
        "tĊ"
      ],
      [
        "f",
        "or"
      ],
      [
        "X",
        "Ċ"
      ],
      [
        "auxInt",
        "ToInt"
      ],
      [
        "u",
        "p"
      ],
      [
        "0",
        "0Ċ"
      ],
      [
        "0",
        "3"
      ],
      [
        "sy",
        "m"
      ],
      [
        "OpAMD64",
        "VP"
      ],
      [
        "co",
        "d"
      ],
      [
        "K",
        "e"
      ],
      [
        "z",
        "er"
      ],
      [
        "e",
        "dĊ"
      ],
      [
        "p",
        "an"
      ],
      [
        "P",
        "C"
      ],
      [
        "ff",
        "ff"
      ],
      [
        "f",
        "la"
      ],
      [
        "p",
        "ar"
      ],
      [
        "it",
        "h"
      ],
      [
        "ap",
        "pen"
      ],
      [
        "A",
        "V"
      ],
      [
        "I",
        "F"
      ],
      [
        "i",
        "on"
      ],
      [
        "int",
        "32Ċ"
      ],
      [
        "1",
        "9"
      ],
      [
        "AD",
        "D"
      ],
      [
        "t",
        "h"
      ],
      [
        "e",
        "\"Ċ"
      ],
      [
        "B",
        "u"
      ],
      [
        "S",
        "H"
      ],
      [
        "P",
        "ro"
      ],
      [
        "3",
        "9"
      ],
      [
        "re",
        "write"
      ],
      [
        "7",
        "5"
      ],
      [
        "3",
        "8"
      ],
      [
        "an",
        "g"
      ],
      [
        "scal",
        "lĊ"
      ],
      [
        "\"",
        "%"
      ],
      [
        "Er",
        "rĊ"
      ],
      [
        "Sy",
        "m"
      ],
      [
        "Fat",
        "al"
      ],
      [
        "Op",
        "ARM"
      ],
      [
        "F",
        "la"
      ],
      [
        "P",
        "ar"
      ],
      [
        "u",
        "Ċ"
      ],
      [
        "f",
        "dĊ"
      ],
      [
        "S",
        "li"
      ],
      [
        "S",
        "et"
      ],
      [
        "rewrite",
        "Value"
      ],
      [
        "N",
        "Ċ"
      ],
      [
        "0x",
        "c"
      ],
      [
        "F",
        "ro"
      ],
      [
        "0x",
        "a"
      ],
      [
        "Fatal",
        "fĊ"
      ],
      [
        "s",
        "r"
      ],
      [
        "en",
        "gthĊ"
      ],
      [
        "A",
        "Ċ"
      ],
      [
        "To",
        "AuxIntĊ"
      ],
      [
        "1",
        "\"Ċ"
      ],
      [
        "8",
        "0"
      ],
      [
        "Ex",
        "p"
      ],
      [
        "New",
        "Value"
      ],
      [
        "0x",
        "9"
      ],
      [
        "lo",
        "c"
      ],
      [
        "u",
        "m"
      ],
      [
        "T",
        "im"
      ],
      [
        "ff",
        "setĊ"
      ],
      [
        "Er",
        "r"
      ],
      [
        ";",
        "Ġ"
      ],
      [
        "f",
        "loat"
      ],
      [
        "R",
        "Ċ"
      ],
      [
        "con",
        "stĊ"
      ],
      [
        "NewValue",
        "0Ċ"
      ],
      [
        "\"",
        "m"
      ],
      [
        "o",
        "l"
      ],
      [
        "A",
        "uxĊ"
      ],
      [
        "M",
        "A"
      ],
      [
        "ht",
        "t"
      ],
      [
        "exp",
        "ec"
      ],
      [
        "n",
        "e"
      ],
      [
        "ct",
        "xtĊ"
      ],
      [
        "4",
        "5"
      ],
      [
        "H",
        "e"
      ],
      [
        "Sy",
        "mĊ"
      ],
      [
        "R",
        "O"
      ],
      [
        "appen",
        "dĊ"
      ],
      [
        "ern",
        "al"
      ],
      [
        "f",
        "n"
      ],
      [
        "te",
        "xtĊ"
      ],
      [
        "al",
        "l"
      ],
      [
        "0x",
        "f"
      ],
      [
        "F",
        "_"
      ],
      [
        "Ġ%v",
        "\"Ċ"
      ],
      [
        "dat",
        "aĊ"
      ],
      [
        "ab",
        "le"
      ],
      [
        "4",
        "9"
      ],
      [
        "si",
        "zeĊ"
      ],
      [
        "\"",
        "V"
      ],
      [
        "R",
        "_"
      ],
      [
        "G",
        "o"
      ],
      [
        "or",
        "t"
      ],
      [
        "S",
        "C"
      ],
      [
        "L",
        "O"
      ],
      [
        "d",
        "o"
      ],
      [
        "12",
        "8Ċ"
      ],
      [
        "0x",
        "b"
      ],
      [
        "a",
        "tĊ"
      ],
      [
        "A",
        "l"
      ],
      [
        "0x",
        "d"
      ],
      [
        "s",
        "er"
      ],
      [
        "in",
        "gsĊ"
      ],
      [
        "lo",
        "ad"
      ],
      [
        "co",
        "mm"
      ],
      [
        "o",
        "sĊ"
      ],
      [
        "64",
        "_"
      ],
      [
        "Fun",
        "cĊ"
      ],
      [
        "A",
        "C"
      ],
      [
        "sy",
        "mĊ"
      ],
      [
        "tr",
        "a"
      ],
      [
        "1",
        "1"
      ],
      [
        "S",
        "u"
      ],
      [
        "2",
        "0"
      ],
      [
        "ag",
        "eĊ"
      ],
      [
        "Re",
        "gĊ"
      ],
      [
        "expec",
        "te"
      ],
      [
        "12",
        "8"
      ],
      [
        "T",
        "Y"
      ],
      [
        "5",
        "12"
      ],
      [
        "m",
        "ar"
      ],
      [
        "F",
        "loat"
      ],
      [
        "A",
        "n"
      ],
      [
        "i",
        "g"
      ],
      [
        "A",
        "T"
      ],
      [
        "int",
        "ernal"
      ],
      [
        "V",
        "Ċ"
      ],
      [
        "_",
        "i"
      ],
      [
        "argL",
        "enĊ"
      ],
      [
        "se",
        "t"
      ],
      [
        "Ar",
        "gĊ"
      ],
      [
        "8",
        "5"
      ],
      [
        "A",
        "L"
      ],
      [
        "argL",
        "engthĊ"
      ],
      [
        "4",
        "7"
      ],
      [
        "no",
        "tĠ"
      ],
      [
        "c",
        "an"
      ],
      [
        "o",
        "un"
      ],
      [
        "Ġ%",
        "d"
      ],
      [
        "go",
        "t"
      ],
      [
        "t",
        "tĊ"
      ],
      [
        "v",
        "1Ċ"
      ],
      [
        "b",
        "aseĊ"
      ],
      [
        "str",
        "ingsĊ"
      ],
      [
        "N",
        "o"
      ],
      [
        "O",
        "_"
      ],
      [
        "32",
        "x"
      ],
      [
        "fn",
        "nameĊ"
      ],
      [
        "o",
        "f"
      ],
      [
        "25",
        "6Ċ"
      ],
      [
        "pan",
        "icĊ"
      ],
      [
        "me",
        "mĊ"
      ],
      [
        "zer",
        "oĊ"
      ],
      [
        "ing",
        "Ġ"
      ],
      [
        "b",
        "itsĊ"
      ],
      [
        "\"",
        "f"
      ],
      [
        "ar",
        "gsĊ"
      ],
      [
        "re",
        "ad"
      ],
      [
        "add",
        "rĊ"
      ],
      [
        "print",
        "fĊ"
      ],
      [
        "\"",
        "-"
      ],
      [
        "lin",
        "eĊ"
      ],
      [
        "AddArg",
        "2Ċ"
      ],
      [
        "o",
        "ffĊ"
      ],
      [
        "0x",
        "e"
      ],
      [
        "tim",
        "e"
      ],
      [
        "A",
        "N"
      ],
      [
        "C",
        "lo"
      ],
      [
        "m",
        "od"
      ],
      [
        "REG",
        "_"
      ],
      [
        "p",
        "re"
      ],
      [
        "as",
        "kĊ"
      ],
      [
        "htt",
        "p"
      ],
      [
        "Q",
        "Ċ"
      ],
      [
        "K",
        "Ċ"
      ],
      [
        "25",
        "6"
      ],
      [
        "64",
        "x"
      ],
      [
        "Ġ%",
        "q"
      ],
      [
        "internal",
        "/"
      ],
      [
        "_",
        "p"
      ],
      [
        "4",
        "0"
      ],
      [
        "il",
        "d"
      ],
      [
        "0x",
        "0Ċ"
      ],
      [
        "L",
        "i"
      ],
      [
        "a",
        "re"
      ],
      [
        "h",
        "as"
      ],
      [
        "j",
        "s"
      ],
      [
        "am",
        "e"
      ],
      [
        "A",
        "B"
      ],
      [
        "s",
        "im"
      ],
      [
        "t",
        "er"
      ],
      [
        "F",
        "il"
      ],
      [
        "C",
        "h"
      ],
      [
        "re",
        "f"
      ],
      [
        "N",
        "e"
      ],
      [
        "at",
        "h"
      ],
      [
        "T",
        "I"
      ],
      [
        "0",
        "_"
      ],
      [
        "m",
        "o"
      ],
      [
        "typ",
        "e"
      ],
      [
        "R",
        "I"
      ],
      [
        "E",
        "N"
      ],
      [
        "uint",
        "8Ċ"
      ],
      [
        "W",
        "rite"
      ],
      [
        "v",
        "alĊ"
      ],
      [
        "25",
        "5Ċ"
      ],
      [
        "TY",
        "P"
      ],
      [
        "M",
        "P"
      ],
      [
        "S",
        "U"
      ],
      [
        "Add",
        "ArgĊ"
      ],
      [
        "9",
        "9"
      ],
      [
        "By",
        "tesĊ"
      ],
      [
        "co",
        "de"
      ],
      [
        "lo",
        "adĊ"
      ],
      [
        "W",
        "Ċ"
      ],
      [
        "I",
        "DĊ"
      ],
      [
        "f",
        "un"
      ],
      [
        "\"",
        "VP"
      ],
      [
        "_i",
        "0Ċ"
      ],
      [
        "te",
        "n"
      ],
      [
        "reg",
        "InfoĊ"
      ],
      [
        "m",
        "at"
      ],
      [
        "L",
        "in"
      ],
      [
        ")",
        "Ġ"
      ],
      [
        "u",
        "ct"
      ],
      [
        "che",
        "ckĊ"
      ],
      [
        "O",
        "P"
      ],
      [
        "M",
        "Ċ"
      ],
      [
        "fi",
        "gĊ"
      ],
      [
        "sy",
        "scallĊ"
      ],
      [
        "1",
        "7"
      ],
      [
        "V",
        "er"
      ],
      [
        "a",
        "v"
      ],
      [
        "p",
        "k"
      ],
      [
        "28",
        "14"
      ],
      [
        "5",
        "5"
      ],
      [
        "He",
        "ad"
      ],
      [
        "c",
        "lo"
      ],
      [
        "0",
        "."
      ],
      [
        "sy",
        "n"
      ],
      [
        "R",
        "T"
      ],
      [
        "input",
        "sĊ"
      ],
      [
        "0",
        "\"Ċ"
      ],
      [
        "y",
        "Ġ"
      ],
      [
        "v",
        "2Ċ"
      ],
      [
        "T",
        "oĊ"
      ],
      [
        "Fil",
        "eĊ"
      ],
      [
        "1",
        "."
      ],
      [
        "D",
        "i"
      ],
      [
        "g",
        "c"
      ],
      [
        "z",
        "e"
      ],
      [
        "t",
        "rĊ"
      ],
      [
        "ma",
        "inĊ"
      ],
      [
        "Fat",
        "alĊ"
      ],
      [
        "o",
        "pĊ"
      ],
      [
        "S",
        "E"
      ],
      [
        "Exp",
        "rĊ"
      ],
      [
        "C",
        "H"
      ],
      [
        "n",
        "oĊ"
      ],
      [
        "2",
        "4Ċ"
      ],
      [
        "Con",
        "st"
      ],
      [
        "L",
        "e"
      ],
      [
        "G",
        "O"
      ],
      [
        "de",
        "xĊ"
      ],
      [
        "TYP",
        "E_"
      ],
      [
        ")",
        "\"Ċ"
      ],
      [
        "le",
        "m"
      ],
      [
        "(",
        "%"
      ],
      [
        "d",
        "rĊ"
      ],
      [
        "sr",
        "cĊ"
      ],
      [
        "U",
        "Ċ"
      ],
      [
        "H",
        "as"
      ],
      [
        "ati",
        "veĊ"
      ],
      [
        "Add",
        "rĊ"
      ],
      [
        "u",
        "nĊ"
      ],
      [
        "6",
        "6"
      ],
      [
        "new",
        "Ċ"
      ],
      [
        "64",
        "\"Ċ"
      ],
      [
        "ex",
        "tĊ"
      ],
      [
        "js",
        "on"
      ],
      [
        "o",
        "re"
      ],
      [
        "ref",
        "le"
      ],
      [
        "9",
        "4"
      ],
      [
        "m",
        "askĊ"
      ],
      [
        "wan",
        "tĠ"
      ],
      [
        "t",
        "\"Ċ"
      ],
      [
        "}",
        "}"
      ],
      [
        "I",
        "d"
      ],
      [
        "U",
        "L"
      ],
      [
        "r",
        "0Ċ"
      ],
      [
        "an",
        "yĊ"
      ],
      [
        "5",
        "12Ċ"
      ],
      [
        "Blo",
        "ckĊ"
      ],
      [
        "Fi",
        "le"
      ],
      [
        "Co",
        "mp"
      ],
      [
        "P",
        "athĊ"
      ],
      [
        "1",
        "_"
      ],
      [
        "uint",
        "16Ċ"
      ],
      [
        "Sli",
        "ceĊ"
      ],
      [
        "po",
        "sĊ"
      ],
      [
        "ut",
        "ativeĊ"
      ],
      [
        "\"",
        "b"
      ],
      [
        "comm",
        "utativeĊ"
      ],
      [
        "co",
        "p"
      ],
      [
        "e",
        "tĊ"
      ],
      [
        "si",
        "onĊ"
      ],
      [
        "o",
        "m"
      ],
      [
        "1",
        "5Ċ"
      ],
      [
        "c",
        "r"
      ],
      [
        "ar",
        "ch"
      ],
      [
        "et",
        "h"
      ],
      [
        "di",
        "rĊ"
      ],
      [
        "Arg",
        "0Ċ"
      ],
      [
        "G",
        "Ċ"
      ],
      [
        "p",
        "p"
      ],
      [
        "input",
        "InfoĊ"
      ],
      [
        "P",
        "r"
      ],
      [
        "res",
        "ult"
      ],
      [
        "lo",
        "ck"
      ],
      [
        "d",
        "stĊ"
      ],
      [
        "output",
        "sĊ"
      ],
      [
        "t",
        "i"
      ],
      [
        "\\x00\\x00\\x00\\x00",
        "\\x00\\x00\\x00\\x00"
      ],
      [
        "t",
        "sĊ"
      ],
      [
        "M",
        "e"
      ],
      [
        "O",
        "ffsetĊ"
      ],
      [
        "{",
        "{"
      ],
      [
        "auxIntToInt",
        "32Ċ"
      ],
      [
        "o",
        "ff"
      ],
      [
        "E",
        "qu"
      ],
      [
        "1",
        "1Ċ"
      ],
      [
        "i",
        "oĊ"
      ],
      [
        "w",
        "or"
      ],
      [
        "9",
        "22"
      ],
      [
        "OpARM",
        "64"
      ],
      [
        "S",
        "R"
      ],
      [
        "l",
        "nĊ"
      ],
      [
        "\"",
        "/"
      ],
      [
        "Z",
        "er"
      ],
      [
        "i",
        "le"
      ],
      [
        "REG",
        "Ċ"
      ],
      [
        "Fro",
        "mĊ"
      ],
      [
        "33",
        "72"
      ],
      [
        "7",
        "2Ċ"
      ],
      [
        "_p",
        "0Ċ"
      ],
      [
        "922",
        "3372"
      ],
      [
        "er",
        "g"
      ],
      [
        "p",
        "utĊ"
      ],
      [
        "An",
        "d"
      ],
      [
        "a",
        "Ġ"
      ],
      [
        "P",
        "re"
      ],
      [
        "en",
        "er"
      ],
      [
        "on",
        "eĊ"
      ],
      [
        "run",
        "timeĊ"
      ],
      [
        "ĉ",
        "ĉ"
      ],
      [
        "fun",
        "c"
      ],
      [
        "in",
        "fĊ"
      ],
      [
        "r",
        "it"
      ],
      [
        "che",
        "ck"
      ],
      [
        "u",
        "st"
      ],
      [
        "fi",
        "leĊ"
      ],
      [
        "P",
        "PC"
      ],
      [
        "u",
        "s"
      ],
      [
        "float",
        "64Ċ"
      ],
      [
        "lo",
        "ckĊ"
      ],
      [
        "Ke",
        "yĊ"
      ],
      [
        "st",
        "ateĊ"
      ],
      [
        "m",
        "pĊ"
      ],
      [
        "c",
        "a"
      ],
      [
        "ab",
        "iĊ"
      ],
      [
        "a",
        "rĊ"
      ],
      [
        "ati",
        "on"
      ],
      [
        "L",
        "enĊ"
      ],
      [
        "output",
        "InfoĊ"
      ],
      [
        "D",
        "at"
      ],
      [
        "si",
        "on"
      ],
      [
        "int",
        "32"
      ],
      [
        "fi",
        "xĊ"
      ],
      [
        "SI",
        "G"
      ],
      [
        "D",
        "I"
      ],
      [
        "r",
        "an"
      ],
      [
        "Err",
        "noĊ"
      ],
      [
        "OpAMD64",
        "V"
      ],
      [
        "l",
        "sĊ"
      ],
      [
        "F",
        "or"
      ],
      [
        "x",
        "5"
      ],
      [
        "Read",
        "erĊ"
      ],
      [
        "str",
        "ing"
      ],
      [
        "M",
        "IP"
      ],
      [
        "9223372",
        "03"
      ],
      [
        "o",
        "rĊ"
      ],
      [
        "e",
        "ct"
      ],
      [
        "Fla",
        "gsĊ"
      ],
      [
        "7",
        "0"
      ],
      [
        "am",
        "p"
      ],
      [
        "sh",
        "al"
      ],
      [
        "in",
        "d"
      ],
      [
        ":",
        "Ġ%v\"Ċ"
      ],
      [
        "as",
        "tĊ"
      ],
      [
        "U",
        "N"
      ],
      [
        "S",
        "p"
      ],
      [
        "Blo",
        "ck"
      ],
      [
        "fla",
        "gsĊ"
      ],
      [
        "7",
        "8"
      ],
      [
        "li",
        "c"
      ],
      [
        "Ne",
        "g"
      ],
      [
        "C",
        "he"
      ],
      [
        "00",
        "0Ċ"
      ],
      [
        "H",
        "el"
      ],
      [
        "in",
        "dĊ"
      ],
      [
        "S",
        "h"
      ],
      [
        "al",
        "loc"
      ],
      [
        "ab",
        "leĊ"
      ],
      [
        "ec",
        "tĊ"
      ],
      [
        "as",
        "e"
      ],
      [
        "to",
        "Ġ"
      ],
      [
        "ob",
        "j"
      ],
      [
        "c",
        "ur"
      ],
      [
        "16",
        "x"
      ],
      [
        "0000",
        "0000"
      ],
      [
        "st",
        "ack"
      ],
      [
        "id",
        "xĊ"
      ],
      [
        "li",
        "b"
      ],
      [
        "ed",
        "Ġ"
      ],
      [
        "si",
        "gn"
      ],
      [
        "b",
        "b"
      ],
      [
        "Fi",
        "el"
      ],
      [
        "ul",
        "_"
      ],
      [
        "s",
        "o"
      ],
      [
        "if",
        "t"
      ],
      [
        "SU",
        "B"
      ],
      [
        "2",
        "3"
      ],
      [
        "8",
        "x"
      ],
      [
        "st",
        "ar"
      ],
      [
        "by",
        "te"
      ],
      [
        "6",
        "85"
      ],
      [
        "E",
        "X"
      ],
      [
        "ag",
        "e"
      ],
      [
        "4",
        "4"
      ],
      [
        "A",
        "S"
      ],
      [
        "Fun",
        "c"
      ],
      [
        "Ġ%",
        "sĠ"
      ],
      [
        "Si",
        "gn"
      ],
      [
        "k",
        "enĊ"
      ],
      [
        "t",
        "ro"
      ],
      [
        "sy",
        "sĊ"
      ],
      [
        "test",
        "_"
      ],
      [
        "\"",
        "."
      ],
      [
        "q",
        "ue"
      ],
      [
        "O",
        "n"
      ],
      [
        "12",
        "3"
      ],
      [
        "P",
        "ack"
      ],
      [
        "cm",
        "dĊ"
      ],
      [
        "cal",
        "l"
      ],
      [
        "_",
        "P"
      ],
      [
        "N",
        "ON"
      ],
      [
        "u",
        "pĊ"
      ],
      [
        "si",
        "g"
      ],
      [
        "S",
        "39"
      ],
      [
        "8",
        "3"
      ],
      [
        "Lo",
        "ad"
      ],
      [
        "a",
        "c"
      ],
      [
        "refle",
        "ctĊ"
      ],
      [
        "-",
        "-"
      ],
      [
        "\"",
        "Ġ"
      ],
      [
        "C",
        "V"
      ],
      [
        "Pr",
        "int"
      ],
      [
        "x8",
        "6Ċ"
      ],
      [
        "75",
        "80"
      ],
      [
        "D",
        "irĊ"
      ],
      [
        "sc",
        "ap"
      ],
      [
        "T",
        "L"
      ],
      [
        "922337203",
        "685"
      ],
      [
        "run",
        "time"
      ],
      [
        "In",
        "Arg0Ċ"
      ],
      [
        "New",
        "Ċ"
      ],
      [
        "922337203685",
        "47"
      ],
      [
        "Lo",
        "g"
      ],
      [
        "M",
        "erg"
      ],
      [
        "result",
        "InArg0Ċ"
      ],
      [
        "7",
        "3"
      ],
      [
        "C",
        "P"
      ],
      [
        "W",
        "ith"
      ],
      [
        "\"",
        "`Ċ"
      ],
      [
        "v",
        "ar"
      ],
      [
        "by",
        "tesĊ"
      ],
      [
        "92233720368547",
        "7580"
      ],
      [
        "ct",
        "xĊ"
      ],
      [
        "in",
        "Ġ"
      ],
      [
        "4",
        "29"
      ],
      [
        "v_",
        "2Ċ"
      ],
      [
        "str",
        "uct"
      ],
      [
        "con",
        "st"
      ],
      [
        "\"",
        "test"
      ],
      [
        "ct",
        "ion"
      ],
      [
        "U",
        "Int"
      ],
      [
        "IF",
        "T_"
      ],
      [
        "err",
        "no"
      ],
      [
        "or",
        "tĊ"
      ],
      [
        "u",
        "b"
      ],
      [
        "le",
        "n"
      ],
      [
        "w",
        "ith"
      ],
      [
        "v",
        "\"Ċ"
      ],
      [
        "2",
        "\"Ċ"
      ],
      [
        "0x",
        "1Ċ"
      ],
      [
        "Ġ%",
        "s"
      ],
      [
        "int32",
        "ToAuxIntĊ"
      ],
      [
        "cr",
        "yp"
      ],
      [
        "Con",
        "figĊ"
      ],
      [
        "Clo",
        "seĊ"
      ],
      [
        "errno",
        "ErrĊ"
      ],
      [
        "te",
        "d"
      ],
      [
        "D",
        "E"
      ],
      [
        "S39",
        "0"
      ],
      [
        "i",
        "sĠ"
      ],
      [
        "_",
        "C"
      ],
      [
        "v",
        "erĊ"
      ],
      [
        "1",
        "3Ċ"
      ],
      [
        "a",
        "ckĊ"
      ],
      [
        "en",
        "d"
      ],
      [
        ",Ġ",
        "wantĠ"
      ],
      [
        "u",
        "se"
      ],
      [
        "429",
        "49"
      ],
      [
        "a",
        "sĊ"
      ],
      [
        "P",
        "S"
      ],
      [
        "v_",
        "0_"
      ],
      [
        "P",
        "tr"
      ],
      [
        "\"",
        "go"
      ],
      [
        "O",
        "r"
      ],
      [
        "h",
        "er"
      ],
      [
        "i",
        "onĊ"
      ],
      [
        "\"",
        "a"
      ],
      [
        "ex",
        "t"
      ],
      [
        "A",
        "s"
      ],
      [
        "=",
        "Ġ"
      ],
      [
        "0",
        "5"
      ],
      [
        "F",
        "F"
      ],
      [
        "/",
        "/"
      ],
      [
        "Ġ%",
        "s\"Ċ"
      ],
      [
        "NON",
        "EĊ"
      ],
      [
        "d",
        "sĊ"
      ],
      [
        "Con",
        "tro"
      ],
      [
        "6",
        "9"
      ],
      [
        "su",
        "b"
      ],
      [
        "b",
        "e"
      ],
      [
        "mar",
        "k"
      ],
      [
        "oo",
        "l"
      ],
      [
        "72",
        "9"
      ],
      [
        "or",
        "eĊ"
      ],
      [
        "MOV",
        "D"
      ],
      [
        "S390",
        "X"
      ],
      [
        "g",
        "et"
      ],
      [
        "=",
        "%"
      ],
      [
        "oo",
        "k"
      ],
      [
        "2",
        "0Ċ"
      ],
      [
        "H",
        "and"
      ],
      [
        "Fro",
        "m"
      ],
      [
        "auxIntToInt",
        "64Ċ"
      ],
      [
        "expecte",
        "dĠ"
      ],
      [
        "er",
        "fa"
      ],
      [
        "C",
        "MP"
      ],
      [
        "ri",
        "teĊ"
      ],
      [
        "7",
        "9"
      ],
      [
        "ma",
        "x"
      ],
      [
        "T",
        "R"
      ],
      [
        "ET",
        "H"
      ],
      [
        "2",
        "1"
      ],
      [
        "im",
        "p"
      ],
      [
        "arch",
        "sim"
      ],
      [
        "er",
        "sĊ"
      ],
      [
        "A",
        "t"
      ],
      [
        "di",
        "r"
      ],
      [
        "s",
        "li"
      ],
      [
        "M",
        "ar"
      ],
      [
        "v",
        "i"
      ],
      [
        ",Ġ",
        "want"
      ],
      [
        "Zer",
        "o"
      ],
      [
        "te",
        "x"
      ],
      [
        "L",
        "E"
      ],
      [
        "Head",
        "erĊ"
      ],
      [
        "a",
        "ch"
      ],
      [
        "M",
        "_"
      ],
      [
        "Op",
        "Const"
      ],
      [
        "p",
        "ack"
      ],
      [
        "ke",
        "yĊ"
      ],
      [
        "2",
        "1Ċ"
      ],
      [
        "Tim",
        "eĊ"
      ],
      [
        "in",
        "sĊ"
      ],
      [
        "2",
        "4"
      ],
      [
        "Val",
        "Ċ"
      ],
      [
        "Co",
        "un"
      ],
      [
        "ul",
        "tĊ"
      ],
      [
        "MIP",
        "S"
      ],
      [
        "en",
        "ch"
      ],
      [
        "S",
        "printfĊ"
      ],
      [
        "72",
        "8"
      ],
      [
        "archsim",
        "dĊ"
      ],
      [
        "Si",
        "ze"
      ],
      [
        "R",
        "un"
      ],
      [
        "M",
        "UL"
      ],
      [
        "N",
        "odeĊ"
      ],
      [
        "of",
        "Ġ"
      ],
      [
        "I",
        "Ċ"
      ],
      [
        "x",
        "3"
      ],
      [
        "at",
        "u"
      ],
      [
        "Equ",
        "alĊ"
      ],
      [
        "ing",
        "\"Ċ"
      ],
      [
        "P",
        "RO"
      ],
      [
        "2",
        "14"
      ],
      [
        "G",
        "et"
      ],
      [
        "c",
        "f"
      ],
      [
        "amp",
        "le"
      ],
      [
        "N",
        "ot"
      ],
      [
        "D",
        "Masked"
      ],
      [
        "on",
        "g"
      ],
      [
        "val",
        "id"
      ],
      [
        "Ke",
        "y"
      ],
      [
        "6",
        "_"
      ],
      [
        "O",
        "fĊ"
      ],
      [
        "16",
        "14"
      ],
      [
        "n",
        "am"
      ],
      [
        "scal",
        "l"
      ],
      [
        "U",
        "T"
      ],
      [
        "W",
        "rit"
      ],
      [
        "0x0",
        "0Ċ"
      ],
      [
        "'",
        "\\"
      ],
      [
        "g",
        "ener"
      ],
      [
        "By",
        "te"
      ],
      [
        "In",
        "dexĊ"
      ],
      [
        "Ver",
        "sionĊ"
      ],
      [
        "e",
        "cĊ"
      ],
      [
        "le",
        "mĊ"
      ],
      [
        "S",
        "ET"
      ],
      [
        "cm",
        "d"
      ],
      [
        "Li",
        "stĊ"
      ],
      [
        "Dat",
        "aĊ"
      ],
      [
        "728",
        "29"
      ],
      [
        "R",
        "unĊ"
      ],
      [
        "i",
        "st"
      ],
      [
        "cod",
        "eĊ"
      ],
      [
        "2814",
        "72829"
      ],
      [
        "1614",
        "72Ċ"
      ],
      [
        "281472829",
        "161472Ċ"
      ],
      [
        "C",
        "all"
      ],
      [
        "i",
        "pĊ"
      ],
      [
        "er",
        "Ġ"
      ],
      [
        "32",
        "76"
      ],
      [
        "Se",
        "tĊ"
      ],
      [
        "G",
        "ET"
      ],
      [
        "Typ",
        "esĊ"
      ],
      [
        "\"",
        "un"
      ],
      [
        "PPC",
        "64"
      ],
      [
        "\"",
        "internal/"
      ],
      [
        "8",
        "\"Ċ"
      ],
      [
        "L",
        "L"
      ],
      [
        "Sli",
        "ce"
      ],
      [
        "m",
        "s"
      ],
      [
        "val",
        "ue"
      ],
      [
        "0",
        "4"
      ],
      [
        "Y",
        "Ċ"
      ],
      [
        "R",
        "a"
      ],
      [
        "214",
        "74"
      ],
      [
        "42949",
        "6"
      ],
      [
        "n",
        "et"
      ],
      [
        "od",
        "yĊ"
      ],
      [
        "Co",
        "mm"
      ],
      [
        "m",
        "b"
      ],
      [
        "c",
        "_"
      ],
      [
        "\"",
        "F"
      ],
      [
        "f",
        "oo"
      ],
      [
        "o",
        "ffsetĊ"
      ],
      [
        "Ġ%",
        "d\"Ċ"
      ],
      [
        "E",
        "v"
      ],
      [
        "co",
        "un"
      ],
      [
        "Re",
        "g"
      ],
      [
        "x",
        "1"
      ],
      [
        "429496",
        "729"
      ],
      [
        "http",
        "2"
      ],
      [
        "0",
        "1"
      ],
      [
        "2",
        "6"
      ],
      [
        "l",
        "as"
      ],
      [
        "par",
        "se"
      ],
      [
        "S",
        "er"
      ],
      [
        "tra",
        "ce"
      ],
      [
        "u",
        "intĊ"
      ],
      [
        "S",
        "o"
      ],
      [
        "re",
        "sĊ"
      ],
      [
        "St",
        "ateĊ"
      ],
      [
        "/",
        "internal/"
      ],
      [
        "te",
        "dĊ"
      ],
      [
        "Pack",
        "ageĊ"
      ],
      [
        "able",
        "dĊ"
      ],
      [
        "N",
        "E"
      ],
      [
        "D",
        "W"
      ],
      [
        "g",
        "pĊ"
      ],
      [
        "ON",
        "G"
      ],
      [
        "m",
        "odeĊ"
      ],
      [
        "li",
        "ent"
      ],
      [
        "0x",
        "2Ċ"
      ],
      [
        "v",
        "ex"
      ],
      [
        "R",
        "ang"
      ],
      [
        "I",
        "mp"
      ],
      [
        "c",
        "\"Ċ"
      ],
      [
        "O",
        "ff"
      ],
      [
        "x",
        "4"
      ],
      [
        "dat",
        "a"
      ],
      [
        "eth",
        "od"
      ],
      [
        "\"",
        ":"
      ],
      [
        "aux",
        "To"
      ],
      [
        "al",
        "i"
      ],
      [
        "error",
        "sĊ"
      ],
      [
        "LO",
        "ONG"
      ],
      [
        "M",
        "od"
      ],
      [
        "I",
        "L"
      ],
      [
        "Mas",
        "kĊ"
      ],
      [
        "Ad",
        "dĊ"
      ],
      [
        "th",
        "eĠ"
      ],
      [
        "L",
        "en"
      ],
      [
        "\"",
        "x"
      ],
      [
        "p",
        "erĊ"
      ],
      [
        "in",
        "foĊ"
      ],
      [
        "l",
        "drĊ"
      ],
      [
        "p",
        "ath"
      ],
      [
        "C_",
        "NONEĊ"
      ],
      [
        "SC",
        "V"
      ],
      [
        "E",
        "scap"
      ],
      [
        "re",
        "qĊ"
      ],
      [
        "Su",
        "b"
      ],
      [
        "int",
        "64"
      ],
      [
        "3",
        "1Ċ"
      ],
      [
        "to",
        "kenĊ"
      ],
      [
        "oun",
        "d"
      ],
      [
        "0x",
        "ffĊ"
      ],
      [
        "O",
        "ffĊ"
      ],
      [
        "rewriteValue",
        "AMD64"
      ],
      [
        "h",
        "o"
      ],
      [
        "D",
        "L"
      ],
      [
        "S",
        "A"
      ],
      [
        "E",
        "ff"
      ],
      [
        "N",
        "O"
      ],
      [
        "CV",
        "T"
      ],
      [
        "Par",
        "am"
      ],
      [
        "x",
        "9"
      ],
      [
        "ex",
        "pĊ"
      ],
      [
        "Writ",
        "erĊ"
      ],
      [
        "MOV",
        "W"
      ],
      [
        "c",
        "sĊ"
      ],
      [
        "Str",
        "ing"
      ],
      [
        ")",
        "Ġ="
      ],
      [
        "M",
        "E"
      ],
      [
        "Op",
        "S390X"
      ],
      [
        "F",
        "printfĊ"
      ],
      [
        "lo",
        "gĊ"
      ],
      [
        "3",
        "5"
      ],
      [
        "at",
        "om"
      ],
      [
        "rewriteValueAMD64",
        "_"
      ],
      [
        "lo",
        "cĊ"
      ],
      [
        "\"",
        "C"
      ],
      [
        "W",
        "riteĊ"
      ],
      [
        "lo",
        "w"
      ],
      [
        "add",
        "r"
      ],
      [
        "t",
        "erĊ"
      ],
      [
        "O",
        "Ċ"
      ],
      [
        "i",
        "dĠ"
      ],
      [
        "Op",
        "PPC64"
      ],
      [
        "sh",
        "ift"
      ],
      [
        "g",
        "p"
      ],
      [
        "Re",
        "p"
      ],
      [
        "RI",
        "SCV"
      ],
      [
        "Ġ",
        "b"
      ],
      [
        "ag",
        "eĠ"
      ],
      [
        "ench",
        "mark"
      ],
      [
        "w",
        "a"
      ],
      [
        "G",
        "ro"
      ],
      [
        "\\",
        "t"
      ],
      [
        "lo",
        "g"
      ],
      [
        "fa",
        "ult"
      ],
      [
        "ĠĠĠĠ",
        "ĠĠĠĠ"
      ],
      [
        "f",
        "ro"
      ],
      [
        "y",
        "\"Ċ"
      ],
      [
        "1",
        "4Ċ"
      ],
      [
        "C",
        "er"
      ],
      [
        "val",
        "ueĊ"
      ],
      [
        "ati",
        "onĊ"
      ],
      [
        "Bu",
        "ild"
      ],
      [
        "E",
        "C"
      ],
      [
        "e",
        "p"
      ],
      [
        "fi",
        "el"
      ],
      [
        "Sy",
        "scallĊ"
      ],
      [
        "AddArg",
        "3Ċ"
      ],
      [
        "fa",
        "ile"
      ],
      [
        "3",
        "0"
      ],
      [
        "0x",
        "4Ċ"
      ],
      [
        "38",
        "6"
      ],
      [
        "6",
        "6Ċ"
      ],
      [
        "i",
        "r"
      ],
      [
        "32",
        "\"Ċ"
      ],
      [
        "6",
        "0"
      ],
      [
        "\"",
        "t"
      ],
      [
        "ni",
        "l"
      ],
      [
        "test",
        "_int"
      ],
      [
        "con",
        "dĊ"
      ],
      [
        "file",
        "pathĊ"
      ],
      [
        "St",
        "mtĊ"
      ],
      [
        "lin",
        "k"
      ],
      [
        "a",
        "uxĊ"
      ],
      [
        "co",
        "r"
      ],
      [
        "H",
        "Ċ"
      ],
      [
        "AM",
        "OV"
      ],
      [
        "v_",
        "1_"
      ],
      [
        "li",
        "stĊ"
      ],
      [
        "con",
        "textĊ"
      ],
      [
        "Re",
        "adĊ"
      ],
      [
        "en",
        "vĊ"
      ],
      [
        "u",
        "seĊ"
      ],
      [
        "de",
        "f"
      ],
      [
        "ffff",
        "ffff"
      ],
      [
        "c",
        "go"
      ],
      [
        "av",
        "x"
      ],
      [
        "Op",
        "MIPS"
      ],
      [
        "Re",
        "que"
      ],
      [
        "SI",
        "OC"
      ],
      [
        "Hel",
        "perĊ"
      ],
      [
        "g",
        "ro"
      ],
      [
        "de",
        "bu"
      ],
      [
        "sli",
        "ce"
      ],
      [
        "En",
        "cod"
      ],
      [
        "pr",
        "intĊ"
      ],
      [
        "74",
        "9"
      ],
      [
        "x",
        "15"
      ],
      [
        "A",
        "li"
      ],
      [
        "Te",
        "stĊ"
      ],
      [
        "O",
        "b"
      ],
      [
        "x",
        "14"
      ],
      [
        "4",
        "\"Ċ"
      ],
      [
        "T",
        "h"
      ],
      [
        "P",
        "trĊ"
      ],
      [
        "R",
        "D"
      ],
      [
        "G",
        "C"
      ],
      [
        "1",
        "e"
      ],
      [
        "co",
        "m"
      ],
      [
        "M",
        "odeĊ"
      ],
      [
        ".",
        "."
      ],
      [
        "1",
        "9Ċ"
      ],
      [
        "in",
        "ar"
      ],
      [
        "pk",
        "gĊ"
      ],
      [
        "Ma",
        "x"
      ],
      [
        "te",
        "mp"
      ],
      [
        "Tim",
        "e"
      ],
      [
        "N",
        "um"
      ],
      [
        "S",
        "P"
      ],
      [
        "ma",
        "p"
      ],
      [
        "St",
        "ar"
      ],
      [
        "\\",
        "u"
      ],
      [
        "Lo",
        "w"
      ],
      [
        "int64",
        "ToAuxIntĊ"
      ],
      [
        "Se",
        "le"
      ],
      [
        "2",
        "7"
      ],
      [
        "6",
        "5"
      ],
      [
        "x",
        "10"
      ],
      [
        "Ġ=",
        "Ġ%d"
      ],
      [
        "re",
        "n"
      ],
      [
        "un",
        "k"
      ],
      [
        "lin",
        "e"
      ],
      [
        "in",
        "val"
      ],
      [
        "Par",
        "se"
      ],
      [
        "h",
        "el"
      ],
      [
        "fi",
        "c"
      ],
      [
        "int",
        "16Ċ"
      ],
      [
        "J",
        "o"
      ],
      [
        "A",
        "VP"
      ],
      [
        "C",
        "ON"
      ],
      [
        "tra",
        "ceĊ"
      ],
      [
        "i",
        "lĊ"
      ],
      [
        "Lo",
        "adĊ"
      ],
      [
        "auxTo",
        "SymĊ"
      ],
      [
        "i",
        "xĊ"
      ],
      [
        "Ġ%q",
        "\"Ċ"
      ],
      [
        "U",
        "R"
      ],
      [
        "are",
        "n"
      ],
      [
        "D",
        "\"Ċ"
      ],
      [
        "S",
        "k"
      ],
      [
        "2",
        "."
      ],
      [
        "lib",
        "c_"
      ],
      [
        "I",
        "T"
      ],
      [
        "Pre",
        "fixĊ"
      ],
      [
        "P",
        "an"
      ],
      [
        "re",
        "ct"
      ],
      [
        "t",
        "arg"
      ],
      [
        "MA",
        "X"
      ],
      [
        "E",
        "lem"
      ],
      [
        "d",
        "er"
      ],
      [
        "\"V",
        "ec"
      ],
      [
        "Int",
        "erfa"
      ],
      [
        "expecte",
        "d"
      ],
      [
        "Escap",
        "eĊ"
      ],
      [
        "Eff",
        "ectĊ"
      ],
      [
        "cryp",
        "to"
      ],
      [
        "7",
        "7"
      ],
      [
        "r",
        "ang"
      ],
      [
        "al",
        "lĊ"
      ],
      [
        "K",
        "indĊ"
      ],
      [
        "u",
        "le"
      ],
      [
        "x",
        "\"Ċ"
      ],
      [
        "2",
        "5Ċ"
      ],
      [
        "h",
        "sĊ"
      ],
      [
        "i",
        "ss"
      ],
      [
        "for",
        "Ġ"
      ],
      [
        "I",
        "C"
      ],
      [
        "2814",
        "749"
      ],
      [
        "2814749",
        "76"
      ],
      [
        "A",
        "X"
      ],
      [
        "Op",
        "R"
      ],
      [
        "En",
        "abledĊ"
      ],
      [
        "sym",
        "EffectĊ"
      ],
      [
        "aux",
        "TypeĊ"
      ],
      [
        "A",
        "F"
      ],
      [
        "St",
        "ack"
      ],
      [
        "ar",
        "chĊ"
      ],
      [
        "Q",
        "Masked"
      ],
      [
        "St",
        "d"
      ],
      [
        "Fla",
        "g"
      ],
      [
        "Con",
        "textĊ"
      ],
      [
        "10",
        "0Ċ"
      ],
      [
        "z",
        "1"
      ],
      [
        "Ex",
        "t"
      ],
      [
        "Id",
        "xĊ"
      ],
      [
        "E",
        "L"
      ],
      [
        "M",
        "ap"
      ],
      [
        "o",
        "\"Ċ"
      ],
      [
        "SH",
        "A"
      ],
      [
        "o",
        "dĊ"
      ],
      [
        "do",
        "w"
      ],
      [
        "Con",
        "nĊ"
      ],
      [
        "int",
        "8Ċ"
      ],
      [
        "m",
        "in"
      ],
      [
        "re",
        "e"
      ],
      [
        "512",
        "0Ċ"
      ],
      [
        "tr",
        "am"
      ],
      [
        "32",
        "_"
      ],
      [
        "ma",
        "in"
      ],
      [
        "64",
        "5120Ċ"
      ],
      [
        "281474976",
        "645120Ċ"
      ],
      [
        "x",
        "13"
      ],
      [
        "\"",
        "cmd"
      ],
      [
        "inval",
        "idĠ"
      ],
      [
        "ar",
        "gĊ"
      ],
      [
        "par",
        "am"
      ],
      [
        "\"",
        "s"
      ],
      [
        "print",
        "lnĊ"
      ],
      [
        "B",
        "odyĊ"
      ],
      [
        "u",
        "te"
      ],
      [
        "sim",
        "d"
      ],
      [
        "as",
        "m"
      ],
      [
        "n",
        "on"
      ],
      [
        ";",
        "\"Ċ"
      ],
      [
        "s",
        "cĊ"
      ],
      [
        "c",
        "p"
      ],
      [
        "Bu",
        "ff"
      ],
      [
        "LOONG",
        "64"
      ],
      [
        "a",
        "gĊ"
      ],
      [
        "s",
        "sĊ"
      ],
      [
        "Che",
        "ck"
      ],
      [
        "K",
        "E"
      ],
      [
        "S",
        "B"
      ],
      [
        "s",
        "2Ċ"
      ],
      [
        "ma",
        "ke"
      ],
      [
        "\"",
        ","
      ],
      [
        "re",
        "tĊ"
      ],
      [
        "ETH",
        "ER"
      ],
      [
        "L",
        "A"
      ],
      [
        "Uint",
        "1Ċ"
      ],
      [
        "mar",
        "shal"
      ],
      [
        "L",
        "ook"
      ],
      [
        "m",
        "athĊ"
      ],
      [
        "Ġ=",
        "Ġ"
      ],
      [
        "g",
        "h"
      ],
      [
        "an",
        "dĊ"
      ],
      [
        "f",
        "tĊ"
      ],
      [
        "0x1",
        "0Ċ"
      ],
      [
        "s",
        "aĊ"
      ],
      [
        "0x2",
        "0Ċ"
      ],
      [
        "Log",
        "fĊ"
      ],
      [
        "21474",
        "83"
      ],
      [
        "lo",
        "Ċ"
      ],
      [
        "St",
        "ore"
      ],
      [
        "O",
        "ut"
      ],
      [
        "Ma",
        "pĊ"
      ],
      [
        "2147483",
        "64"
      ],
      [
        "E",
        "O"
      ],
      [
        "o",
        "pt"
      ],
      [
        "T",
        "P"
      ],
      [
        "mat",
        "ch"
      ],
      [
        "pack",
        "ageĠ"
      ],
      [
        "TI",
        "OC"
      ],
      [
        "ti",
        "fic"
      ],
      [
        "Op",
        "386"
      ],
      [
        "Ġ=Ġ%d",
        ",ĠwantĠ"
      ],
      [
        "n",
        "ame"
      ],
      [
        "d",
        "erĊ"
      ],
      [
        "Jo",
        "inĊ"
      ],
      [
        "pk",
        "g"
      ],
      [
        "clo",
        "bb"
      ],
      [
        "sh",
        "o"
      ],
      [
        "x",
        "12"
      ],
      [
        "St",
        "at"
      ],
      [
        "\"%",
        "s"
      ],
      [
        "en",
        "cĊ"
      ],
      [
        "Re",
        "s"
      ],
      [
        "sh",
        "a"
      ],
      [
        "a",
        "ve"
      ],
      [
        "Add",
        "64Ċ"
      ],
      [
        "re",
        "t"
      ],
      [
        "Ra",
        "w"
      ],
      [
        "0",
        "9"
      ],
      [
        "A",
        "p"
      ],
      [
        "W",
        "a"
      ],
      [
        "c",
        "l"
      ],
      [
        "fla",
        "gĊ"
      ],
      [
        "o",
        "k"
      ],
      [
        "w",
        "ar"
      ],
      [
        "IP",
        "Ċ"
      ],
      [
        "M",
        "ul"
      ],
      [
        "cal",
        "lĊ"
      ],
      [
        "\\x00\\x00\\x00\\x00\\x00\\x00\\x00\\x00",
        "\\x00\\x00\\x00\\x00\\x00\\x00\\x00\\x00"
      ],
      [
        "B",
        "aseĊ"
      ],
      [
        "in",
        "itĊ"
      ],
      [
        "\\",
        "r"
      ],
      [
        "p",
        "tr"
      ],
      [
        "x",
        "Ġ"
      ],
      [
        "po",
        "lineĊ"
      ],
      [
        "L",
        "IN"
      ],
      [
        "c",
        "ip"
      ],
      [
        "/",
        "b"
      ],
      [
        "3",
        "0Ċ"
      ],
      [
        "W",
        "or"
      ],
      [
        "1",
        "8Ċ"
      ],
      [
        "6",
        "8"
      ],
      [
        "0x",
        "8Ċ"
      ],
      [
        "bu",
        "ild"
      ],
      [
        "T",
        "ra"
      ],
      [
        "\"",
        ":Ġ"
      ],
      [
        "with",
        "Ġ"
      ],
      [
        "Op",
        "LOONG64"
      ],
      [
        "00",
        "0"
      ],
      [
        "m",
        "ust"
      ],
      [
        "s",
        "/"
      ],
      [
        "Q",
        "U"
      ],
      [
        "g",
        "r"
      ],
      [
        "H",
        "o"
      ],
      [
        "tram",
        "polineĊ"
      ],
      [
        ".",
        "com"
      ],
      [
        "m",
        "ul_"
      ],
      [
        "U",
        "ni"
      ],
      [
        "tr",
        "yĊ"
      ],
      [
        "avx",
        "EscapeĊ"
      ],
      [
        "m",
        "t\"Ċ"
      ],
      [
        "E",
        "lemĊ"
      ],
      [
        "z",
        "14"
      ],
      [
        "z",
        "15"
      ],
      [
        "\"",
        "R"
      ],
      [
        "typ",
        "eĠ"
      ],
      [
        "n",
        "um"
      ],
      [
        "P",
        "k"
      ],
      [
        "t",
        "cĊ"
      ],
      [
        "To",
        "AuxĊ"
      ],
      [
        "128",
        "\"Ċ"
      ],
      [
        "an",
        "tĊ"
      ],
      [
        "X",
        "OR"
      ],
      [
        "sp",
        "on"
      ],
      [
        "'\\",
        "U"
      ],
      [
        "me",
        "m"
      ],
      [
        "Ġ",
        "("
      ],
      [
        "fla",
        "g"
      ],
      [
        "N",
        "am"
      ],
      [
        "\"f",
        "oo"
      ],
      [
        "cf",
        "gĊ"
      ],
      [
        "256",
        "\"Ċ"
      ],
      [
        "4",
        "8"
      ],
      [
        "IP",
        "V"
      ],
      [
        "PRO",
        "T"
      ],
      [
        "V",
        "ec"
      ],
      [
        "p",
        "l"
      ],
      [
        "ct",
        "ionĊ"
      ],
      [
        "AMD",
        "64Ċ"
      ],
      [
        "f",
        "sĊ"
      ],
      [
        "B",
        "it"
      ],
      [
        "B",
        "oolĊ"
      ],
      [
        "Contro",
        "lsĊ"
      ],
      [
        "_",
        "trampolineĊ"
      ],
      [
        "6",
        "3Ċ"
      ],
      [
        "Li",
        "st"
      ],
      [
        "al",
        "Ġ"
      ],
      [
        "L",
        "D"
      ],
      [
        "Int",
        "32x"
      ],
      [
        "st",
        "ore"
      ],
      [
        "So",
        "ck"
      ],
      [
        "O",
        "SĊ"
      ],
      [
        "p",
        "cĊ"
      ],
      [
        "i",
        "gĊ"
      ],
      [
        "P",
        "er"
      ],
      [
        "2",
        "3Ċ"
      ],
      [
        "M",
        "I"
      ],
      [
        "\"",
        "B"
      ],
      [
        "ol",
        "d"
      ],
      [
        "mp",
        "ty"
      ],
      [
        "star",
        "tĊ"
      ],
      [
        "Ġ",
        "ofĠ"
      ],
      [
        "S",
        "can"
      ],
      [
        "AN",
        "D"
      ],
      [
        "\"f",
        "mt\"Ċ"
      ],
      [
        "0",
        "66"
      ],
      [
        "U",
        "se"
      ],
      [
        "m",
        "l"
      ],
      [
        "test",
        "sĊ"
      ],
      [
        "2",
        "2Ċ"
      ],
      [
        "en",
        "tĠ"
      ],
      [
        "B",
        "enchmark"
      ],
      [
        "op",
        "setĊ"
      ],
      [
        "A",
        "E"
      ],
      [
        "\"m",
        "ul_"
      ],
      [
        "Print",
        "fĊ"
      ],
      [
        "in",
        "dexĊ"
      ],
      [
        "Low",
        "er"
      ],
      [
        "D",
        "ec"
      ],
      [
        "C",
        "op"
      ],
      [
        "ur",
        "n"
      ],
      [
        "Ġ%",
        "dĠ"
      ],
      [
        "o",
        "tĊ"
      ],
      [
        "Ob",
        "j"
      ],
      [
        "M",
        "S"
      ],
      [
        "te",
        "dĠ"
      ],
      [
        "n",
        "extĊ"
      ],
      [
        "ta",
        "xĊ"
      ],
      [
        "N",
        "on"
      ],
      [
        "s",
        "1Ċ"
      ],
      [
        "ta",
        "bĊ"
      ],
      [
        "v",
        "3Ċ"
      ],
      [
        "ms",
        "gĊ"
      ],
      [
        "ETHER",
        "TYPE_"
      ],
      [
        "m",
        "uĊ"
      ],
      [
        "su",
        "pp"
      ],
      [
        "}",
        "`Ċ"
      ],
      [
        "con",
        "figĊ"
      ],
      [
        "Ap",
        "pen"
      ],
      [
        "l",
        "l"
      ],
      [
        "'\\U",
        "0000"
      ],
      [
        "0x0",
        "1Ċ"
      ],
      [
        "Fiel",
        "dĊ"
      ],
      [
        "pre",
        "fixĊ"
      ],
      [
        "t",
        "mp"
      ],
      [
        "p",
        "er"
      ],
      [
        "a",
        "a"
      ],
      [
        "z",
        "5"
      ],
      [
        "t",
        "oĊ"
      ],
      [
        "w",
        "in"
      ],
      [
        "al",
        "le"
      ],
      [
        "z",
        "10"
      ],
      [
        "z",
        "13"
      ],
      [
        "RISCV",
        "64"
      ],
      [
        "test",
        "envĊ"
      ],
      [
        "_",
        "F"
      ],
      [
        "\"",
        "o"
      ],
      [
        "p",
        "ri"
      ],
      [
        "c",
        "le"
      ],
      [
        "Pro",
        "gĊ"
      ],
      [
        "3",
        "4"
      ],
      [
        "C",
        "t"
      ],
      [
        "2",
        "7Ċ"
      ],
      [
        "Z",
        "Ċ"
      ],
      [
        "Che",
        "ckĊ"
      ],
      [
        "f",
        "o"
      ],
      [
        "test_",
        "int64Ċ"
      ],
      [
        "ol",
        "dĊ"
      ],
      [
        "A",
        "sĊ"
      ],
      [
        "N",
        "ame"
      ],
      [
        "Uint",
        "32x"
      ],
      [
        "v_0_",
        "0Ċ"
      ],
      [
        "Reque",
        "stĊ"
      ],
      [
        "d",
        "u"
      ],
      [
        "Int",
        "64Ċ"
      ],
      [
        "6",
        "0Ċ"
      ],
      [
        "_",
        "Neg"
      ],
      [
        "e",
        "-"
      ],
      [
        "e",
        "m"
      ],
      [
        "3",
        "8Ċ"
      ],
      [
        "res",
        "ultĊ"
      ],
      [
        ".",
        "go"
      ],
      [
        "At",
        "tr"
      ],
      [
        "S",
        "TĊ"
      ],
      [
        "ul",
        "_int"
      ],
      [
        "16",
        "\"Ċ"
      ],
      [
        "Add",
        "r"
      ],
      [
        "e",
        "lem"
      ],
      [
        "add",
        "FĊ"
      ],
      [
        "Lin",
        "eĊ"
      ],
      [
        "AR",
        "CH"
      ],
      [
        "h",
        "and"
      ],
      [
        "In",
        "valid"
      ],
      [
        "Ġ%",
        "#"
      ],
      [
        "w",
        "h"
      ],
      [
        "st",
        "rĊ"
      ],
      [
        "tim",
        "e\"Ċ"
      ],
      [
        "%",
        "d"
      ],
      [
        "c",
        "cĊ"
      ],
      [
        "P",
        "O"
      ],
      [
        "U",
        "S"
      ],
      [
        "sho",
        "ul"
      ],
      [
        "fro",
        "m"
      ],
      [
        "g",
        "\"Ċ"
      ],
      [
        "m",
        "all"
      ],
      [
        "Ġ",
        "isĠ"
      ],
      [
        "in",
        "it"
      ],
      [
        "Test",
        "sĊ"
      ],
      [
        "ic",
        "\"Ċ"
      ],
      [
        "ten",
        "t"
      ],
      [
        "B",
        "itsĊ"
      ],
      [
        "w",
        "n"
      ],
      [
        "Uint",
        "64x"
      ],
      [
        "F",
        "r"
      ],
      [
        "Ġ",
        "error"
      ],
      [
        "k",
        "en"
      ],
      [
        "PROT",
        "O_"
      ],
      [
        "IP",
        "PROTO_"
      ],
      [
        "IN",
        "T"
      ],
      [
        "0",
        "8"
      ],
      [
        "b",
        "lock"
      ],
      [
        "a",
        "ct"
      ],
      [
        "Int",
        "64x"
      ],
      [
        "Coun",
        "tĊ"
      ],
      [
        "\"",
        "c"
      ],
      [
        "st",
        "oreĊ"
      ],
      [
        "e",
        "e"
      ],
      [
        "7",
        "14"
      ],
      [
        "z",
        "12"
      ],
      [
        "40",
        "8"
      ],
      [
        "str",
        "con"
      ],
      [
        "ke",
        "y"
      ],
      [
        "Hand",
        "l"
      ],
      [
        "G",
        "B"
      ],
      [
        "Q",
        "u"
      ],
      [
        "Bu",
        "fĊ"
      ],
      [
        "AB",
        "I"
      ],
      [
        "en",
        "dĊ"
      ],
      [
        "\"",
        "0"
      ],
      [
        "U",
        "int64Ċ"
      ],
      [
        "z",
        "9"
      ],
      [
        "i",
        "te"
      ],
      [
        "M",
        "IN"
      ],
      [
        "OpR",
        "sh"
      ],
      [
        "sym",
        "ToAuxĊ"
      ],
      [
        "6",
        "\"Ċ"
      ],
      [
        "\"",
        "runtime"
      ],
      [
        "Al",
        "l"
      ],
      [
        "512",
        "\"Ċ"
      ],
      [
        "Lo",
        "ckĊ"
      ],
      [
        "Mar",
        "shal"
      ],
      [
        "S",
        "S"
      ],
      [
        "Ar",
        "chĊ"
      ],
      [
        "an",
        "dĠ"
      ],
      [
        "B",
        "P"
      ],
      [
        "Lo",
        "cal"
      ],
      [
        "Buff",
        "erĊ"
      ],
      [
        "i",
        "re"
      ],
      [
        "Op",
        "RISCV64"
      ],
      [
        "I",
        "D"
      ],
      [
        "l",
        "im"
      ],
      [
        "l",
        "it"
      ],
      [
        "gener",
        "icĊ"
      ],
      [
        "3",
        "\"Ċ"
      ],
      [
        "8",
        "8"
      ],
      [
        "A",
        "F_"
      ],
      [
        "simd",
        "PackageĊ"
      ],
      [
        "ver",
        "t"
      ],
      [
        "T",
        "E"
      ],
      [
        "Me",
        "mĊ"
      ],
      [
        "ser",
        "ver"
      ],
      [
        "tex",
        "t"
      ],
      [
        "Sy",
        "n"
      ],
      [
        "re",
        "p"
      ],
      [
        "DL",
        "T_"
      ],
      [
        "ce",
        "ss"
      ],
      [
        "Cer",
        "tific"
      ],
      [
        "\"",
        "http"
      ],
      [
        "f",
        "t"
      ],
      [
        "N",
        "il"
      ],
      [
        "x",
        "6"
      ],
      [
        "op",
        "_"
      ],
      [
        "n",
        "s"
      ],
      [
        "}",
        "Ċ"
      ],
      [
        "Int",
        "16x"
      ],
      [
        "2",
        "6Ċ"
      ],
      [
        "0x",
        "3Ċ"
      ],
      [
        "a",
        "st"
      ],
      [
        "l",
        "y"
      ],
      [
        "sc",
        "an"
      ],
      [
        "{",
        "Ġ"
      ],
      [
        "Lower",
        "ed"
      ],
      [
        "M",
        "s"
      ],
      [
        "R",
        "oo"
      ],
      [
        "float",
        "32Ċ"
      ],
      [
        ":",
        "//"
      ],
      [
        "M",
        "o"
      ],
      [
        "f",
        "r"
      ],
      [
        "re",
        "ss"
      ],
      [
        "de",
        "c"
      ],
      [
        "T",
        "r"
      ],
      [
        "p",
        "s"
      ],
      [
        "re",
        "eĊ"
      ],
      [
        "123",
        "45"
      ],
      [
        "bu",
        "il"
      ],
      [
        "EO",
        "FĊ"
      ],
      [
        "st",
        "at"
      ],
      [
        "UR",
        "LĊ"
      ],
      [
        "M",
        "ethod"
      ],
      [
        "ma",
        "tĊ"
      ],
      [
        "c",
        "er"
      ],
      [
        "re",
        "gsĊ"
      ],
      [
        "wor",
        "kĊ"
      ],
      [
        "00",
        "00Ċ"
      ],
      [
        "H",
        "T"
      ],
      [
        "obj",
        "abiĊ"
      ],
      [
        "sp",
        "anĊ"
      ],
      [
        "off",
        "2Ċ"
      ],
      [
        "er",
        "\"Ċ"
      ],
      [
        "<",
        "/"
      ],
      [
        "he",
        "ad"
      ],
      [
        "Float",
        "64x"
      ],
      [
        "on",
        "Ġ"
      ],
      [
        "ro",
        "ut"
      ],
      [
        "\"",
        "i"
      ],
      [
        "\"",
        "X"
      ],
      [
        "F",
        "lo"
      ],
      [
        "c",
        "mp"
      ],
      [
        "Imp",
        "ort"
      ],
      [
        "ar",
        "m"
      ],
      [
        "94",
        "64"
      ],
      [
        "{{",
        "."
      ],
      [
        "t",
        "1Ċ"
      ],
      [
        "sy",
        "scall"
      ],
      [
        "ul",
        "l"
      ],
      [
        "typ",
        "eĊ"
      ],
      [
        "h",
        "iĊ"
      ],
      [
        "Sy",
        "scall"
      ],
      [
        "45",
        "066"
      ],
      [
        "714",
        "9464"
      ],
      [
        "408",
        "45066"
      ],
      [
        "7149464",
        "40845066"
      ],
      [
        "714946440845066",
        "24Ċ"
      ],
      [
        "eth",
        "odĊ"
      ],
      [
        "Uint",
        "8x"
      ],
      [
        "Interfa",
        "ceĊ"
      ],
      [
        "E",
        "V"
      ],
      [
        "ER",
        "Ċ"
      ],
      [
        "V",
        "ar"
      ],
      [
        "len",
        "gthĊ"
      ],
      [
        "2",
        "8Ċ"
      ],
      [
        "P",
        "ath"
      ],
      [
        "IPV",
        "6_"
      ],
      [
        "Con",
        "ta"
      ],
      [
        "a",
        "\"Ċ"
      ],
      [
        "Str",
        "uct"
      ],
      [
        "(",
        ")Ġ"
      ],
      [
        "d",
        "war"
      ],
      [
        "at",
        "ur"
      ],
      [
        "In",
        "d"
      ],
      [
        "ret",
        "urn"
      ],
      [
        "cip",
        "her"
      ],
      [
        "Re",
        "spon"
      ],
      [
        "re",
        "am"
      ],
      [
        "no",
        "Ġ"
      ],
      [
        "4",
        "2Ċ"
      ],
      [
        "T",
        "ran"
      ],
      [
        "Ar",
        "ra"
      ],
      [
        "Float",
        "32x"
      ],
      [
        "b",
        "ack"
      ],
      [
        "=",
        "\"Ċ"
      ],
      [
        "D",
        "o"
      ],
      [
        "l",
        "d"
      ],
      [
        "an",
        "k"
      ],
      [
        "0x8",
        "0Ċ"
      ],
      [
        "oun",
        "dĊ"
      ],
      [
        "ub",
        "lic"
      ],
      [
        "K",
        "_"
      ],
      [
        "rout",
        "in"
      ],
      [
        "L",
        "OC"
      ],
      [
        "8",
        "9"
      ],
      [
        "P",
        "P"
      ],
      [
        "p",
        "pĊ"
      ],
      [
        "z",
        "z"
      ],
      [
        "g",
        "e"
      ],
      [
        "f",
        "e"
      ],
      [
        "Uint",
        "16x"
      ],
      [
        "Uint",
        "32Ċ"
      ],
      [
        "t",
        "ion"
      ],
      [
        "if",
        "yĊ"
      ],
      [
        "load",
        "\"Ċ"
      ],
      [
        "cop",
        "y"
      ],
      [
        "Si",
        "g"
      ],
      [
        "fi",
        "r"
      ],
      [
        "sr",
        "c"
      ],
      [
        "hel",
        "lo"
      ],
      [
        "A",
        "to"
      ],
      [
        "C",
        "lient"
      ],
      [
        "7",
        "\"Ċ"
      ],
      [
        "e",
        "s"
      ],
      [
        "r",
        "eĊ"
      ],
      [
        "imp",
        "ort"
      ],
      [
        "supp",
        "or"
      ],
      [
        "Has",
        "hĊ"
      ],
      [
        "ON",
        "Ċ"
      ],
      [
        "a",
        "1Ċ"
      ],
      [
        "off",
        "1Ċ"
      ],
      [
        "\"",
        "\\n\"Ċ"
      ],
      [
        "C",
        "allĊ"
      ],
      [
        "as",
        "ser"
      ],
      [
        "si",
        "gĊ"
      ],
      [
        "S",
        "cal"
      ],
      [
        "en",
        "code"
      ],
      [
        "Int",
        "8x"
      ],
      [
        "ss",
        "ageĊ"
      ],
      [
        "MOV",
        "B"
      ],
      [
        "T",
        "extĊ"
      ],
      [
        "`",
        "json"
      ],
      [
        "Write",
        "StringĊ"
      ],
      [
        "\"",
        "<"
      ],
      [
        "syn",
        "taxĊ"
      ],
      [
        "w",
        "w"
      ],
      [
        "M",
        "in"
      ],
      [
        "clo",
        "se"
      ],
      [
        "l",
        "t"
      ],
      [
        "Ġ",
        "m"
      ],
      [
        "op",
        "BytesĊ"
      ],
      [
        "C",
        "an"
      ],
      [
        "ro",
        "otĊ"
      ],
      [
        "C",
        "las"
      ],
      [
        "OpAMD64VP",
        "MOV"
      ],
      [
        "has",
        "hĊ"
      ],
      [
        "Sign",
        "alĊ"
      ],
      [
        "\"cmd",
        "/"
      ],
      [
        "an",
        "t"
      ],
      [
        "\"",
        "ab"
      ],
      [
        "u",
        "mĊ"
      ],
      [
        "if",
        "y"
      ],
      [
        "g",
        "idĊ"
      ],
      [
        "Ġ",
        "notĠ"
      ],
      [
        "S",
        "L"
      ],
      [
        "A",
        "DĊ"
      ],
      [
        "s",
        "pĊ"
      ],
      [
        "BP",
        "F_"
      ],
      [
        "P",
        "_"
      ],
      [
        "sc",
        "ri"
      ],
      [
        "en",
        "cod"
      ],
      [
        "C",
        "ach"
      ],
      [
        "_",
        "uint"
      ],
      [
        "`",
        "{"
      ],
      [
        "\"test",
        "ing\"Ċ"
      ],
      [
        "\"",
        "string"
      ],
      [
        "2",
        "9Ċ"
      ],
      [
        "r",
        "1Ċ"
      ],
      [
        "n",
        "ext"
      ],
      [
        "s",
        "erĊ"
      ],
      [
        "zer",
        "o"
      ],
      [
        "st",
        "ate"
      ],
      [
        "B",
        "I"
      ],
      [
        "c",
        "re"
      ],
      [
        "w",
        "gĊ"
      ],
      [
        "Merg",
        "ingĊ"
      ],
      [
        "\"",
        "crypto"
      ],
      [
        "ent",
        "sĊ"
      ],
      [
        "Head",
        "er"
      ],
      [
        "T",
        "ableĊ"
      ],
      [
        "ne",
        "tĊ"
      ],
      [
        ".",
        "Ċ"
      ],
      [
        "Me",
        "m"
      ],
      [
        "4",
        "0Ċ"
      ],
      [
        ":",
        "Ġ%s\"Ċ"
      ],
      [
        "R",
        "OR"
      ],
      [
        "1",
        "Ġ"
      ],
      [
        "m",
        "alloc"
      ],
      [
        "D",
        "AT"
      ],
      [
        "3",
        "5Ċ"
      ],
      [
        "P",
        "ri"
      ],
      [
        "b",
        "ol"
      ],
      [
        "Ch",
        "unk"
      ],
      [
        "`json",
        ":"
      ],
      [
        "b",
        "it"
      ],
      [
        "Al",
        "lĊ"
      ],
      [
        "Te",
        "mp"
      ],
      [
        "c",
        "at"
      ],
      [
        "CP",
        "U"
      ],
      [
        "targ",
        "etĊ"
      ],
      [
        "s",
        "w"
      ],
      [
        ">",
        "\"Ċ"
      ],
      [
        "SE",
        "G"
      ],
      [
        "5",
        "21"
      ],
      [
        "F",
        "IL"
      ],
      [
        "coun",
        "tĊ"
      ],
      [
        "W",
        "\"Ċ"
      ],
      [
        "w",
        "r"
      ],
      [
        "_",
        "_"
      ],
      [
        "0x",
        "7Ċ"
      ],
      [
        "A",
        "I"
      ],
      [
        "S",
        "PĊ"
      ],
      [
        "ho",
        "st"
      ],
      [
        "0",
        "6"
      ],
      [
        "Elem",
        "entĊ"
      ],
      [
        "ma",
        "xĊ"
      ],
      [
        "exp",
        "ect"
      ],
      [
        "co",
        "lo"
      ],
      [
        "st",
        "d"
      ],
      [
        "G",
        "E"
      ],
      [
        "W",
        "0Ċ"
      ],
      [
        "di",
        "rect"
      ],
      [
        ")",
        "Ċ"
      ],
      [
        "0",
        "1Ċ"
      ],
      [
        "G",
        "_"
      ],
      [
        "v",
        "ate"
      ],
      [
        "cop",
        "yĊ"
      ],
      [
        "Flo",
        "atĊ"
      ],
      [
        "gt",
        "h"
      ],
      [
        "GO",
        "OSĊ"
      ],
      [
        "li",
        "st"
      ],
      [
        "\"",
        "P"
      ],
      [
        ".",
        "\"Ċ"
      ],
      [
        "3",
        "7"
      ],
      [
        "TL",
        "S_"
      ],
      [
        "atu",
        "sĊ"
      ],
      [
        "ma",
        "g"
      ],
      [
        "ul",
        "eĊ"
      ],
      [
        "Sele",
        "ct"
      ],
      [
        "N",
        "AM"
      ],
      [
        "ad",
        "dĊ"
      ],
      [
        "IP",
        "_"
      ],
      [
        "Gro",
        "up"
      ],
      [
        "Un",
        "marshal"
      ],
      [
        "t",
        "yĊ"
      ],
      [
        "0",
        "2"
      ],
      [
        "M",
        "PĊ"
      ],
      [
        "0x4",
        "0Ċ"
      ],
      [
        "a",
        "ceĊ"
      ],
      [
        "syn",
        "cĊ"
      ],
      [
        "\"",
        "p"
      ],
      [
        "Fla",
        "gĊ"
      ],
      [
        "TYPE_",
        "REGĊ"
      ],
      [
        "f",
        "in"
      ],
      [
        "OpMIPS",
        "64"
      ],
      [
        "S",
        "w"
      ],
      [
        "Le",
        "ss"
      ],
      [
        "inar",
        "yĊ"
      ],
      [
        "A",
        "LĊ"
      ],
      [
        "C",
        "ur"
      ],
      [
        "Fiel",
        "d"
      ],
      [
        "\"",
        "Read"
      ],
      [
        "c",
        "d"
      ],
      [
        "ran",
        "dĊ"
      ],
      [
        "i",
        "fi"
      ],
      [
        "ar",
        "eĊ"
      ],
      [
        "0x",
        "6Ċ"
      ],
      [
        "func",
        "Ġ"
      ],
      [
        "T",
        "CP"
      ],
      [
        "l",
        "dĊ"
      ],
      [
        "Encod",
        "ingĊ"
      ],
      [
        ":",
        "\"Ċ"
      ],
      [
        "Cach",
        "eĊ"
      ],
      [
        "evex",
        "0"
      ],
      [
        "\"",
        "invalidĠ"
      ],
      [
        "%",
        "s"
      ],
      [
        "R",
        "ank"
      ],
      [
        "Print",
        "lnĊ"
      ],
      [
        "Le",
        "ft"
      ],
      [
        "C",
        "C"
      ],
      [
        "x",
        "1Ċ"
      ],
      [
        "ex",
        "ample"
      ],
      [
        "de",
        "dĊ"
      ],
      [
        "ra",
        "w"
      ],
      [
        "O",
        "D"
      ],
      [
        "he",
        "ap"
      ],
      [
        "si",
        "ze"
      ],
      [
        "htt",
        "pĊ"
      ],
      [
        "for",
        "m"
      ],
      [
        ")",
        "`Ċ"
      ],
      [
        "N",
        "T"
      ],
      [
        "12",
        "7Ċ"
      ],
      [
        "on",
        "e"
      ],
      [
        "A",
        "TĊ"
      ],
      [
        "f",
        "d"
      ],
      [
        "ri",
        "g"
      ],
      [
        "4",
        "6"
      ],
      [
        "star",
        "t"
      ],
      [
        "li",
        "tĊ"
      ],
      [
        "{",
        "Ċ"
      ],
      [
        "f",
        "\"Ċ"
      ],
      [
        "St",
        "oreĊ"
      ],
      [
        "ce",
        "Ġ"
      ],
      [
        "By",
        "teĊ"
      ],
      [
        "evex",
        "N"
      ],
      [
        "var",
        "Ġ"
      ],
      [
        "la",
        "b"
      ],
      [
        "Star",
        "tĊ"
      ],
      [
        "ed",
        "\"Ċ"
      ],
      [
        "3",
        "6"
      ],
      [
        "T",
        "U"
      ],
      [
        "g",
        "oo"
      ],
      [
        "V",
        "arĊ"
      ],
      [
        "run",
        "eĊ"
      ],
      [
        "_",
        "0Ċ"
      ],
      [
        "From",
        "StringĊ"
      ],
      [
        "p",
        "aren"
      ],
      [
        "St",
        "ackĊ"
      ],
      [
        "C",
        "m"
      ],
      [
        "i",
        "esĊ"
      ],
      [
        "so",
        "ck"
      ],
      [
        "Ġ",
        "int"
      ],
      [
        "\\x",
        "9"
      ],
      [
        "O",
        "T"
      ],
      [
        "z",
        "8"
      ],
      [
        "Un",
        "lockĊ"
      ],
      [
        "ro",
        "ot"
      ],
      [
        "op",
        "Len"
      ],
      [
        "la",
        "st"
      ],
      [
        "UInt",
        "64Ċ"
      ],
      [
        "\"",
        "error"
      ],
      [
        "E",
        "E"
      ],
      [
        "O",
        "L"
      ],
      [
        "\"",
        "run"
      ],
      [
        "f",
        "p"
      ],
      [
        "lock",
        "Rank"
      ],
      [
        "Rang",
        "eĊ"
      ],
      [
        "x",
        "x"
      ],
      [
        "M",
        "ust"
      ],
      [
        "p",
        "at"
      ],
      [
        "0x",
        "5Ċ"
      ],
      [
        "che",
        "dĊ"
      ],
      [
        "S",
        "LL"
      ],
      [
        "Type",
        "Vec"
      ],
      [
        "ff",
        "ixĊ"
      ],
      [
        "S",
        "D"
      ],
      [
        "m",
        "lĊ"
      ],
      [
        "x",
        "16"
      ],
      [
        "or",
        "Ġ"
      ],
      [
        "S",
        "mall"
      ],
      [
        "L",
        "engthĊ"
      ],
      [
        "W",
        "asm"
      ],
      [
        "s",
        "a"
      ],
      [
        "Q",
        "\"Ċ"
      ],
      [
        "ro",
        "wĊ"
      ],
      [
        "Ser",
        "ver"
      ],
      [
        "Ato",
        "m"
      ],
      [
        "u",
        "lĊ"
      ],
      [
        "Equ",
        "al"
      ],
      [
        "af",
        "ter"
      ],
      [
        "A",
        "tĊ"
      ],
      [
        "at",
        "Ġ"
      ],
      [
        "po",
        "int"
      ],
      [
        "ad",
        "Ġ"
      ],
      [
        "lin",
        "kĊ"
      ],
      [
        "win",
        "dow"
      ],
      [
        ".",
        "Ġ"
      ],
      [
        "i",
        "cal"
      ],
      [
        "Build",
        "erĊ"
      ],
      [
        "d",
        "oneĊ"
      ],
      [
        "debu",
        "g"
      ],
      [
        "k",
        "indĊ"
      ],
      [
        "Lin",
        "k"
      ],
      [
        "B",
        "R"
      ],
      [
        "a",
        "pĊ"
      ],
      [
        "rewriteValue",
        "ARM"
      ],
      [
        "in",
        "stĊ"
      ],
      [
        "de",
        "cĊ"
      ],
      [
        "R",
        "GB"
      ],
      [
        "En",
        "dĊ"
      ],
      [
        "G",
        "etĊ"
      ],
      [
        "qu",
        "ire"
      ],
      [
        "C_",
        "REGĊ"
      ],
      [
        "B",
        "e"
      ],
      [
        "Appen",
        "d"
      ],
      [
        "4",
        "8Ċ"
      ],
      [
        "0x1",
        "0"
      ],
      [
        "load",
        "erĊ"
      ],
      [
        "8",
        "7Ċ"
      ],
      [
        "Conta",
        "insĊ"
      ],
      [
        "6",
        "78"
      ],
      [
        "Ptr",
        "FromStringĊ"
      ],
      [
        "/",
        "\"Ċ"
      ],
      [
        "L",
        "I"
      ],
      [
        "fi",
        "x"
      ],
      [
        "st",
        "ackĊ"
      ],
      [
        "Look",
        "up"
      ],
      [
        "1",
        "12Ċ"
      ],
      [
        "lo",
        "b"
      ],
      [
        "c",
        "1Ċ"
      ],
      [
        "m",
        "mĊ"
      ],
      [
        "p",
        "1Ċ"
      ],
      [
        "Clo",
        "se"
      ],
      [
        "d",
        "bĊ"
      ],
      [
        "Sh",
        "ift"
      ],
      [
        "C",
        "AL"
      ],
      [
        "D",
        "ur"
      ],
      [
        "c",
        "lient"
      ],
      [
        ",",
        "Ċ"
      ],
      [
        "TL",
        "S"
      ],
      [
        "S",
        "O_"
      ],
      [
        "\"",
        "unsaf"
      ],
      [
        "E",
        "P"
      ],
      [
        ";Ġ",
        "want"
      ],
      [
        "Func",
        "PC"
      ],
      [
        "as",
        "k"
      ],
      [
        "TR",
        "AC"
      ],
      [
        "Pan",
        "ic"
      ],
      [
        "k",
        "no"
      ],
      [
        "Atom",
        "ic"
      ],
      [
        "SYS_",
        "GET"
      ],
      [
        "v",
        "4Ċ"
      ],
      [
        "cal",
        "le"
      ],
      [
        "Lin",
        "kĊ"
      ],
      [
        "sy",
        "s"
      ],
      [
        "el",
        "fĊ"
      ],
      [
        "3",
        "6Ċ"
      ],
      [
        "con",
        "nĊ"
      ],
      [
        "MOV",
        "H"
      ],
      [
        "v_1_",
        "0Ċ"
      ],
      [
        "A",
        "_"
      ],
      [
        "N",
        "a"
      ],
      [
        "ff",
        "ffĊ"
      ],
      [
        "strcon",
        "vĊ"
      ],
      [
        "\"",
        "A"
      ],
      [
        "8",
        "0Ċ"
      ],
      [
        "ing",
        "EnabledĊ"
      ],
      [
        "r",
        "sĊ"
      ],
      [
        "FuncPC",
        "ABI"
      ],
      [
        "E",
        "D"
      ],
      [
        "25",
        "5"
      ],
      [
        "\"o",
        "s\"Ċ"
      ],
      [
        "\"",
        "syn"
      ],
      [
        "Value",
        "sĊ"
      ],
      [
        "S",
        "\"Ċ"
      ],
      [
        "m",
        "t"
      ],
      [
        "MOVD",
        "constĊ"
      ],
      [
        "Off",
        "\"Ċ"
      ],
      [
        "p",
        "521"
      ],
      [
        "Ġ",
        "toĠ"
      ],
      [
        "ot",
        "ate"
      ],
      [
        "/",
        "atom"
      ],
      [
        "ex",
        "ec"
      ],
      [
        "B",
        "ase"
      ],
      [
        "pan",
        "ic"
      ],
      [
        "to",
        "kĊ"
      ],
      [
        "2",
        "P"
      ],
      [
        "param",
        "sĊ"
      ],
      [
        "b",
        "o"
      ],
      [
        "cm",
        "pĊ"
      ],
      [
        "\"",
        "1"
      ],
      [
        "fa",
        "il"
      ],
      [
        "s",
        "bĊ"
      ],
      [
        "M",
        "at"
      ],
      [
        "\"string",
        "s\"Ċ"
      ],
      [
        "n",
        "erĊ"
      ],
      [
        "x",
        "7"
      ],
      [
        "has",
        "h"
      ],
      [
        "t",
        "in"
      ],
      [
        "tr",
        "ue"
      ],
      [
        "a",
        "bĊ"
      ],
      [
        "9",
        "0"
      ],
      [
        "se",
        "ctĊ"
      ],
      [
        "v_0_",
        "1Ċ"
      ],
      [
        "\"",
        "Sym"
      ],
      [
        "B",
        "itĊ"
      ],
      [
        "\\x",
        "ff"
      ],
      [
        "re",
        "c"
      ],
      [
        "Byte",
        "PtrFromStringĊ"
      ],
      [
        "Rang",
        "e"
      ],
      [
        "De",
        "bu"
      ],
      [
        "H",
        "_"
      ],
      [
        "Wa",
        "it"
      ],
      [
        "C",
        "L"
      ],
      [
        "se",
        "cĊ"
      ],
      [
        "Out",
        "putĊ"
      ],
      [
        "_",
        "SIG"
      ],
      [
        "e",
        "pĊ"
      ],
      [
        "New",
        "ReaderĊ"
      ],
      [
        "Size",
        "of"
      ],
      [
        "4",
        "5Ċ"
      ],
      [
        "B",
        "U"
      ],
      [
        "le",
        "\"Ċ"
      ],
      [
        "00000000",
        "00000000"
      ],
      [
        "so",
        "ur"
      ],
      [
        "lo",
        "cal"
      ],
      [
        "9",
        "5"
      ],
      [
        "L",
        "ab"
      ],
      [
        "t",
        "2Ċ"
      ],
      [
        "P",
        "a"
      ],
      [
        "test_int",
        "32Ċ"
      ],
      [
        "C",
        "re"
      ],
      [
        "Ptr",
        "SizeĊ"
      ],
      [
        "P",
        "H"
      ],
      [
        "Merg",
        "e"
      ],
      [
        "s",
        "it"
      ],
      [
        "429496729",
        "6Ċ"
      ],
      [
        "Sk",
        "ipĊ"
      ],
      [
        "\"",
        "hello"
      ],
      [
        "l",
        "yĊ"
      ],
      [
        "pp",
        "c"
      ],
      [
        "b",
        "igĊ"
      ],
      [
        "p",
        "tĊ"
      ],
      [
        "R",
        "A"
      ],
      [
        "`",
        "packageĠ"
      ],
      [
        "/atom",
        "ic\"Ċ"
      ],
      [
        "C",
        "O"
      ],
      [
        "i",
        "al"
      ],
      [
        "k",
        "ip"
      ],
      [
        "Po",
        "intĊ"
      ],
      [
        "0",
        "7"
      ],
      [
        "ter",
        "nĊ"
      ],
      [
        "D",
        "oneĊ"
      ],
      [
        "fi",
        "ps"
      ],
      [
        "t",
        "hĊ"
      ],
      [
        "Con",
        "tent"
      ],
      [
        "sig",
        "ctxtĊ"
      ],
      [
        "OP",
        "_"
      ],
      [
        "Stack",
        "CheckĊ"
      ],
      [
        "W",
        "Masked"
      ],
      [
        "o",
        "1Ċ"
      ],
      [
        "AD",
        "C"
      ],
      [
        "Ind",
        "ex"
      ],
      [
        "6",
        "55"
      ],
      [
        "S",
        "Q"
      ],
      [
        ":",
        "\\n"
      ],
      [
        "i",
        "stĊ"
      ],
      [
        "aux",
        "Sym"
      ],
      [
        "ver",
        "sion"
      ],
      [
        "(%",
        "q"
      ],
      [
        "call",
        "Go"
      ],
      [
        "an",
        "Ġ"
      ],
      [
        "3",
        "3Ċ"
      ],
      [
        "Par",
        "alle"
      ],
      [
        "si",
        "st"
      ],
      [
        "SR",
        "L"
      ],
      [
        "callGo",
        "StackCheckĊ"
      ],
      [
        "6",
        "7"
      ],
      [
        "comp",
        "ile"
      ],
      [
        "For",
        "mat"
      ],
      [
        "RT",
        "M_"
      ],
      [
        "0x3",
        "0Ċ"
      ],
      [
        "a",
        "8"
      ],
      [
        "Sk",
        "ip"
      ],
      [
        "2",
        "_"
      ],
      [
        "Al",
        "loc"
      ],
      [
        "\"a",
        "\"Ċ"
      ],
      [
        "wa",
        "it"
      ],
      [
        "3",
        "7Ċ"
      ],
      [
        "M",
        "ult"
      ],
      [
        "\"",
        "G"
      ],
      [
        "dĠ",
        "toĠ"
      ],
      [
        "c",
        "c"
      ],
      [
        "e",
        "vĊ"
      ],
      [
        "Type",
        "FlagsĊ"
      ],
      [
        "Std",
        "errĊ"
      ],
      [
        "\"unsaf",
        "e\"Ċ"
      ],
      [
        "or",
        "tĠ"
      ],
      [
        "go",
        "tĠ"
      ],
      [
        "\"",
        "v"
      ],
      [
        "Con",
        "vert"
      ],
      [
        "P",
        "ublic"
      ],
      [
        "SYS_",
        "F"
      ],
      [
        "dwar",
        "fĊ"
      ],
      [
        "U",
        "D"
      ],
      [
        "o",
        "ver"
      ],
      [
        "\"",
        "d"
      ],
      [
        "[",
        "]"
      ],
      [
        "y",
        "n"
      ],
      [
        "p",
        "sĊ"
      ],
      [
        "{",
        "}"
      ],
      [
        "op",
        "en"
      ],
      [
        "\"m",
        "ath"
      ],
      [
        "p",
        "a"
      ],
      [
        "OpConst",
        "64Ċ"
      ],
      [
        "reg",
        "ist"
      ],
      [
        "Op",
        "tion"
      ],
      [
        "opt",
        "sĊ"
      ],
      [
        "wor",
        "k"
      ],
      [
        "cop",
        "eĊ"
      ],
      [
        "k",
        "wĊ"
      ],
      [
        "T",
        "agĊ"
      ],
      [
        "ig",
        "h"
      ],
      [
        "FuncPCABI",
        "0Ċ"
      ],
      [
        "E",
        "B"
      ],
      [
        "Ver",
        "sion"
      ],
      [
        "refle",
        "ct"
      ],
      [
        "At",
        "trĊ"
      ],
      [
        "M",
        "ADD"
      ],
      [
        "O",
        "f"
      ],
      [
        "\"",
        "T"
      ],
      [
        "Value",
        "OfĊ"
      ],
      [
        "M",
        "ethodĊ"
      ],
      [
        "u",
        "re"
      ],
      [
        "Zer",
        "oĊ"
      ],
      [
        ":Ġ",
        "got"
      ],
      [
        "evex",
        "Zero"
      ],
      [
        "I",
        "f"
      ],
      [
        "evexZero",
        "ingEnabledĊ"
      ],
      [
        "C",
        "odeĊ"
      ],
      [
        "File",
        "sĊ"
      ],
      [
        "in",
        "putĊ"
      ],
      [
        "Ma",
        "ke"
      ],
      [
        "i",
        "\"Ċ"
      ],
      [
        "atom",
        "icĊ"
      ],
      [
        "\"",
        "!"
      ],
      [
        "res",
        "sĊ"
      ],
      [
        "Mul",
        "64Ċ"
      ],
      [
        "co",
        "l"
      ],
      [
        "F",
        "P"
      ],
      [
        "On",
        "Nil"
      ],
      [
        "3",
        "."
      ],
      [
        "e",
        "lĊ"
      ],
      [
        "mo",
        "de"
      ],
      [
        "En",
        "tryĊ"
      ],
      [
        "l",
        "ateĊ"
      ],
      [
        "m",
        "entĊ"
      ],
      [
        "op",
        "er"
      ],
      [
        "in",
        "st"
      ],
      [
        "mod",
        "ule"
      ],
      [
        "REG_",
        "R"
      ],
      [
        "C",
        "CĊ"
      ],
      [
        "p",
        "idĊ"
      ],
      [
        "38",
        "4"
      ],
      [
        "128",
        "_"
      ],
      [
        "EC",
        "D"
      ],
      [
        "f",
        "ree"
      ],
      [
        "0x3",
        "3Ċ"
      ],
      [
        "\"",
        ">"
      ],
      [
        "\\x",
        "8"
      ],
      [
        "evex",
        "66Ċ"
      ],
      [
        "fault",
        "OnNil"
      ],
      [
        "U",
        "p"
      ],
      [
        "\"",
        "expectedĠ"
      ],
      [
        "_",
        "Op"
      ],
      [
        "5",
        "0Ċ"
      ],
      [
        "OpAMD64V",
        "CVT"
      ],
      [
        "i",
        "v"
      ],
      [
        "comple",
        "x"
      ],
      [
        "mb",
        "in"
      ],
      [
        "json",
        "testĊ"
      ],
      [
        "\"internal/",
        "runtime"
      ],
      [
        "mb",
        "ed"
      ],
      [
        "asser",
        "tĊ"
      ],
      [
        "5",
        "0"
      ],
      [
        "sp",
        "ecĊ"
      ],
      [
        "3",
        "4Ċ"
      ],
      [
        "Mo",
        "de"
      ],
      [
        "Pri",
        "vate"
      ],
      [
        "clobb",
        "er"
      ],
      [
        "A",
        "f"
      ],
      [
        "atu",
        "re"
      ],
      [
        "T",
        "RĊ"
      ],
      [
        "In",
        "putĊ"
      ],
      [
        "bu",
        "f"
      ],
      [
        "\\u",
        "00"
      ],
      [
        "p521",
        "Uint1Ċ"
      ],
      [
        "e",
        "lemĊ"
      ],
      [
        "Use",
        "sĊ"
      ],
      [
        "Paralle",
        "lĊ"
      ],
      [
        "u",
        "ctĊ"
      ],
      [
        "malloc",
        "gc"
      ],
      [
        "exp",
        "rĊ"
      ],
      [
        "Re",
        "loc"
      ],
      [
        "ADD",
        "RĊ"
      ],
      [
        "th",
        "rowĊ"
      ],
      [
        ",Ġ",
        "got"
      ],
      [
        "b",
        "c"
      ],
      [
        "shoul",
        "dĠ"
      ],
      [
        "8",
        "_"
      ],
      [
        "'",
        "Ġ"
      ],
      [
        "e",
        "mpty"
      ],
      [
        "ig",
        "ht"
      ],
      [
        "J",
        "S"
      ],
      [
        "a",
        "k"
      ],
      [
        "\"",
        "byte"
      ],
      [
        "Num",
        "b"
      ],
      [
        "b",
        "sĊ"
      ],
      [
        "p",
        "2Ċ"
      ],
      [
        "3",
        "9Ċ"
      ],
      [
        ":",
        "Ġ%v"
      ],
      [
        "ar",
        "yĊ"
      ],
      [
        ".go",
        "\"Ċ"
      ],
      [
        "sp",
        "ec"
      ],
      [
        "U",
        "x"
      ],
      [
        "S",
        "ec"
      ],
      [
        "_",
        "r"
      ],
      [
        "c",
        "Ġ"
      ],
      [
        "if",
        "tĊ"
      ],
      [
        "I",
        "G"
      ],
      [
        "e",
        "+"
      ],
      [
        "To",
        "Uint"
      ],
      [
        "fiel",
        "d"
      ],
      [
        "1",
        "00"
      ],
      [
        "debu",
        "gĊ"
      ],
      [
        "64_",
        "Op"
      ],
      [
        "w",
        "rit"
      ],
      [
        "go",
        "archĊ"
      ],
      [
        "ag",
        "esĊ"
      ],
      [
        "0x",
        "cĊ"
      ],
      [
        "F",
        "DĊ"
      ],
      [
        "o",
        "fĊ"
      ],
      [
        "de",
        "d"
      ],
      [
        "RE",
        "L"
      ],
      [
        "s",
        "hĊ"
      ],
      [
        "d",
        "b"
      ],
      [
        "Ex",
        "ample"
      ],
      [
        "\"un",
        "expectedĠ"
      ],
      [
        "P",
        "R_"
      ],
      [
        "g",
        "erĊ"
      ],
      [
        "tr",
        "y"
      ],
      [
        "slice",
        "sĊ"
      ],
      [
        "mallocgc",
        "Small"
      ],
      [
        "G",
        "ener"
      ],
      [
        "Pan",
        "icĊ"
      ],
      [
        "Tr",
        "im"
      ],
      [
        "S",
        "OC"
      ],
      [
        "\"",
        "Int"
      ],
      [
        "b",
        "lockĊ"
      ],
      [
        "Ġ",
        "\"Ċ"
      ],
      [
        "Con",
        "n"
      ],
      [
        "//",
        "Ġ"
      ],
      [
        "st",
        "em"
      ],
      [
        "b",
        "s"
      ],
      [
        "la",
        "ce"
      ],
      [
        "Param",
        "sĊ"
      ],
      [
        "faile",
        "d"
      ],
      [
        "can",
        "ce"
      ],
      [
        "ch",
        "ang"
      ],
      [
        "v_1_",
        "1Ċ"
      ],
      [
        "mo",
        "dĊ"
      ],
      [
        "]",
        "\"Ċ"
      ],
      [
        "load",
        "er"
      ],
      [
        "B",
        "ound"
      ],
      [
        "Sp",
        "aceĊ"
      ],
      [
        "i",
        "x"
      ],
      [
        "=",
        "="
      ],
      [
        "i",
        "ve"
      ],
      [
        "Ġ",
        "-"
      ],
      [
        "Dur",
        "ationĊ"
      ],
      [
        "atur",
        "eĊ"
      ],
      [
        "\"",
        "("
      ],
      [
        "scri",
        "pt"
      ],
      [
        "si",
        "z"
      ],
      [
        "Has",
        "PrefixĊ"
      ],
      [
        "NO",
        "T"
      ],
      [
        "Sock",
        "addr"
      ],
      [
        "A",
        "c"
      ],
      [
        "expecte",
        "dĊ"
      ],
      [
        "Comm",
        "andĊ"
      ],
      [
        "B",
        "oun"
      ],
      [
        "for",
        "matĊ"
      ],
      [
        "PS",
        "Masked"
      ],
      [
        "=%",
        "v\"Ċ"
      ],
      [
        "\"",
        "di"
      ],
      [
        "0x1",
        "1Ċ"
      ],
      [
        "y",
        "pĊ"
      ],
      [
        "l",
        "yĠ"
      ],
      [
        "u",
        "ser"
      ],
      [
        "0x1",
        "4Ċ"
      ],
      [
        "4",
        "."
      ],
      [
        "W",
        "IT"
      ],
      [
        "re",
        "co"
      ],
      [
        "can",
        "notĠ"
      ],
      [
        "sh",
        "alĊ"
      ],
      [
        "Cop",
        "yĊ"
      ],
      [
        "%",
        "s\"Ċ"
      ],
      [
        "0x",
        "fĊ"
      ],
      [
        "F",
        "a"
      ],
      [
        "fal",
        "se"
      ],
      [
        "39",
        "0x"
      ],
      [
        "\"/",
        "\"Ċ"
      ],
      [
        "fir",
        "st"
      ],
      [
        "0",
        "20"
      ],
      [
        "12",
        "7"
      ],
      [
        "0x3",
        "7Ċ"
      ],
      [
        "Handl",
        "erĊ"
      ],
      [
        "loader",
        "stateĊ"
      ],
      [
        "C",
        "le"
      ],
      [
        "To",
        "kenĊ"
      ],
      [
        "\"",
        "r"
      ],
      [
        "W",
        "RI"
      ],
      [
        "an",
        "y"
      ],
      [
        "F",
        "L"
      ],
      [
        "Q",
        "Q"
      ],
      [
        "f",
        "er"
      ],
      [
        "6",
        "5Ċ"
      ],
      [
        "ate",
        "Ġ"
      ],
      [
        "d",
        "a"
      ],
      [
        "s",
        "chedĊ"
      ],
      [
        "Str",
        "uctĊ"
      ],
      [
        "p",
        "h"
      ],
      [
        "u",
        "idĊ"
      ],
      [
        "d",
        "st"
      ],
      [
        "Ma",
        "xĊ"
      ],
      [
        "5",
        "9"
      ],
      [
        "s",
        "in"
      ],
      [
        "at",
        "tr"
      ],
      [
        "L",
        "it"
      ],
      [
        "se",
        "condĊ"
      ],
      [
        "Comp",
        "le"
      ],
      [
        "Roo",
        "tĊ"
      ],
      [
        "n",
        "1Ċ"
      ],
      [
        "13",
        "5Ċ"
      ],
      [
        "Tim",
        "erĊ"
      ],
      [
        "A",
        "P"
      ],
      [
        "su",
        "m"
      ],
      [
        "gro",
        "up"
      ],
      [
        "\"run",
        "time\"Ċ"
      ],
      [
        "t",
        "mpĊ"
      ],
      [
        "REG_",
        "F"
      ],
      [
        "99",
        "99"
      ],
      [
        "colo",
        "rĊ"
      ],
      [
        "De",
        "cod"
      ],
      [
        "z",
        "6"
      ],
      [
        "0x",
        "aĊ"
      ],
      [
        "Ex",
        "ten"
      ],
      [
        "Ev",
        "entĊ"
      ],
      [
        "\\r",
        "\\n\"Ċ"
      ],
      [
        "ut",
        "f"
      ],
      [
        "clo",
        "seĊ"
      ],
      [
        "nam",
        "esĊ"
      ],
      [
        "c",
        "ar"
      ],
      [
        "z",
        "4"
      ],
      [
        "EN",
        "D"
      ],
      [
        "Certific",
        "ateĊ"
      ],
      [
        "Tran",
        "sp"
      ],
      [
        "2",
        "00"
      ],
      [
        "5",
        "\"Ċ"
      ],
      [
        "Run",
        "eĊ"
      ],
      [
        "4",
        "1Ċ"
      ],
      [
        "e",
        "sĠ"
      ],
      [
        "li",
        "entĊ"
      ],
      [
        "appen",
        "d"
      ],
      [
        "Ex",
        "ec"
      ],
      [
        "Merg",
        "ing\"Ċ"
      ],
      [
        "non",
        "-"
      ],
      [
        "I",
        "64"
      ],
      [
        "ern",
        "alĊ"
      ],
      [
        "cur",
        "ren"
      ],
      [
        "12345",
        "678"
      ],
      [
        "A",
        "A"
      ],
      [
        "at",
        "orĊ"
      ],
      [
        "Re",
        "setĊ"
      ],
      [
        "re",
        "set"
      ],
      [
        "out",
        "putĊ"
      ],
      [
        "N",
        "extĊ"
      ],
      [
        "r",
        "tĊ"
      ],
      [
        "0x",
        "bĊ"
      ],
      [
        "il",
        "dĊ"
      ],
      [
        "L",
        "ev"
      ],
      [
        "U",
        "s"
      ],
      [
        "L",
        "sh"
      ],
      [
        "de",
        "lt"
      ],
      [
        "F",
        "38Ċ"
      ],
      [
        "m",
        "ethod"
      ],
      [
        "_int",
        "64_"
      ],
      [
        "pro",
        "gĊ"
      ],
      [
        "Ġ",
        "inĠ"
      ],
      [
        "Contro",
        "lĊ"
      ],
      [
        "re",
        "at"
      ],
      [
        "ne",
        "ed"
      ],
      [
        ",",
        "Ġ%v"
      ],
      [
        "7",
        "3Ċ"
      ],
      [
        "0x",
        "9Ċ"
      ],
      [
        "lo",
        "ok"
      ],
      [
        "he",
        "xĊ"
      ],
      [
        "iss",
        "ue"
      ],
      [
        "z",
        "16"
      ],
      [
        "t",
        "x"
      ],
      [
        "_int",
        "32Ċ"
      ],
      [
        "file",
        "sĊ"
      ],
      [
        "No",
        "de"
      ],
      [
        "In",
        "itĊ"
      ],
      [
        "Gro",
        "upĊ"
      ],
      [
        "mag",
        "ic"
      ],
      [
        "or",
        "derĊ"
      ],
      [
        "ver",
        "sionĊ"
      ],
      [
        "x8",
        "\"Ċ"
      ],
      [
        "ca",
        "pĊ"
      ],
      [
        "EX",
        "T"
      ],
      [
        "Clas",
        "sĊ"
      ],
      [
        "mp",
        "tyĊ"
      ],
      [
        "B",
        "\"Ċ"
      ],
      [
        "OpAMD64",
        "MOV"
      ],
      [
        "auxSym",
        "OffĊ"
      ],
      [
        "t",
        "gĊ"
      ],
      [
        "faultOnNil",
        "Arg0Ċ"
      ],
      [
        "0",
        "3Ċ"
      ],
      [
        "\"Sym",
        "Off\"Ċ"
      ],
      [
        "al",
        "locĊ"
      ],
      [
        "f",
        "2Ċ"
      ],
      [
        "m",
        "ul_int"
      ],
      [
        "De",
        "ad"
      ],
      [
        "ch",
        "a"
      ],
      [
        "Respon",
        "se"
      ],
      [
[...]
